{
  "version": "1.0",
  "truncation": null,
  "padding": null,
  "added_tokens": [
    {
      "id": 0,
      "content": "[PAD]",
      "single_word": false,
      "lstrip": false,
      "rstrip": false,
      "normalized": false,
      "special": true
    },
    {
      "id": 1,
      "content": "[BOS]",
      "single_word": false,
      "lstrip": false,
      "rstrip": false,
      "normalized": false,
      "special": true
    },
    {
      "id": 2,
      "content": "[EOS]",
      "single_word": false,
      "lstrip": false,
      "rstrip": false,
      "normalized": false,
      "special": true
    },
    {
      "id": 3,
      "content": "[UNK]",
      "single_word": false,
      "lstrip": false,
      "rstrip": false,
      "normalized": false,
      "special": true
    }
  ],
  "normalizer": {
    "type": "Sequence",
    "normalizers": [
      {
        "type": "NFC"
      },
      {
        "type": "Lowercase"
      }
    ]
  },
  "pre_tokenizer": {
    "type": "Whitespace"
  },
  "post_processor": null,
  "decoder": null,
  "model": {
    "type": "WordPiece",
    "unk_token": "[UNK]",
    "continuing_subword_prefix": "##",
    "max_input_chars_per_word": 100,
    "vocab": {
      "[PAD]": 0,
      "[BOS]": 1,
      "[EOS]": 2,
      "[UNK]": 3,
      "\u0001": 4,
      "\u0002": 5,
      "\u0003": 6,
      "\u0004": 7,
      "\u0005": 8,
      "\u0006": 9,
      "\u0007": 10,
      "\b": 11,
      "\u000e": 12,
      "\u000f": 13,
      "\u0010": 14,
      "\u0011": 15,
      "\u0012": 16,
      "\u0013": 17,
      "\u0014": 18,
      "\u0015": 19,
      "\u0016": 20,
      "\u0017": 21,
      "\u0018": 22,
      "\u0019": 23,
      "\u001a": 24,
      "\u001b": 25,
      "\u001c": 26,
      "\u001d": 27,
      "\u001e": 28,
      "\u001f": 29,
      "!": 30,
      "\"": 31,
      "#": 32,
      "$": 33,
      "%": 34,
      "&": 35,
      "'": 36,
      "(": 37,
      ")": 38,
      "*": 39,
      "+": 40,
      ",": 41,
      "-": 42,
      ".": 43,
      "/": 44,
      "0": 45,
      "1": 46,
      "2": 47,
      "3": 48,
      "4": 49,
      "5": 50,
      "6": 51,
      "7": 52,
      "8": 53,
      "9": 54,
      ":": 55,
      ";": 56,
      "<": 57,
      "=": 58,
      ">": 59,
      "?": 60,
      "@": 61,
      "[": 62,
      "\\": 63,
      "]": 64,
      "^": 65,
      "_": 66,
      "`": 67,
      "a": 68,
      "b": 69,
      "c": 70,
      "d": 71,
      "e": 72,
      "f": 73,
      "g": 74,
      "h": 75,
      "i": 76,
      "j": 77,
      "k": 78,
      "l": 79,
      "m": 80,
      "n": 81,
      "o": 82,
      "p": 83,
      "q": 84,
      "r": 85,
      "s": 86,
      "t": 87,
      "u": 88,
      "v": 89,
      "w": 90,
      "x": 91,
      "y": 92,
      "z": 93,
      "{": 94,
      "|": 95,
      "}": 96,
      "~": 97,
      "": 98,
      "": 99,
      "": 100,
      "": 101,
      "": 102,
      "": 103,
      "": 104,
      "": 105,
      "": 106,
      "": 107,
      "": 108,
      "": 109,
      "": 110,
      "": 111,
      "": 112,
      "": 113,
      "": 114,
      "": 115,
      "": 116,
      "": 117,
      "": 118,
      "": 119,
      "": 120,
      "": 121,
      "": 122,
      "": 123,
      "": 124,
      "": 125,
      "": 126,
      "": 127,
      "": 128,
      "": 129,
      "¡": 130,
      "¢": 131,
      "£": 132,
      "¤": 133,
      "¥": 134,
      "¦": 135,
      "§": 136,
      "¨": 137,
      "©": 138,
      "ª": 139,
      "«": 140,
      "¬": 141,
      "­": 142,
      "®": 143,
      "¯": 144,
      "°": 145,
      "±": 146,
      "²": 147,
      "³": 148,
      "´": 149,
      "µ": 150,
      "¶": 151,
      "·": 152,
      "¸": 153,
      "¹": 154,
      "º": 155,
      "»": 156,
      "¼": 157,
      "½": 158,
      "¾": 159,
      "¿": 160,
      "×": 161,
      "ß": 162,
      "à": 163,
      "á": 164,
      "â": 165,
      "ã": 166,
      "ä": 167,
      "å": 168,
      "æ": 169,
      "ç": 170,
      "è": 171,
      "é": 172,
      "ê": 173,
      "ë": 174,
      "ì": 175,
      "í": 176,
      "î": 177,
      "ï": 178,
      "ð": 179,
      "ñ": 180,
      "ò": 181,
      "ó": 182,
      "ô": 183,
      "õ": 184,
      "ö": 185,
      "÷": 186,
      "ø": 187,
      "ù": 188,
      "ú": 189,
      "û": 190,
      "ü": 191,
      "ý": 192,
      "þ": 193,
      "ÿ": 194,
      "ā": 195,
      "ă": 196,
      "ą": 197,
      "ć": 198,
      "ĉ": 199,
      "ċ": 200,
      "č": 201,
      "ď": 202,
      "đ": 203,
      "ē": 204,
      "ĕ": 205,
      "ė": 206,
      "ę": 207,
      "ě": 208,
      "ĝ": 209,
      "ğ": 210,
      "ġ": 211,
      "ģ": 212,
      "ĥ": 213,
      "ħ": 214,
      "ĩ": 215,
      "ī": 216,
      "ĭ": 217,
      "į": 218,
      "ı": 219,
      "ĳ": 220,
      "ĵ": 221,
      "ķ": 222,
      "ĺ": 223,
      "ļ": 224,
      "ľ": 225,
      "ł": 226,
      "ń": 227,
      "ņ": 228,
      "ň": 229,
      "ŋ": 230,
      "ō": 231,
      "ŏ": 232,
      "ő": 233,
      "œ": 234,
      "ŕ": 235,
      "ř": 236,
      "ś": 237,
      "ŝ": 238,
      "ş": 239,
      "š": 240,
      "ţ": 241,
      "ť": 242,
      "ũ": 243,
      "ū": 244,
      "ŭ": 245,
      "ů": 246,
      "ű": 247,
      "ų": 248,
      "ŵ": 249,
      "ŷ": 250,
      "ź": 251,
      "ż": 252,
      "ž": 253,
      "ƒ": 254,
      "ƙ": 255,
      "ơ": 256,
      "ư": 257,
      "ƴ": 258,
      "ƶ": 259,
      "ƹ": 260,
      "ǉ": 261,
      "ǎ": 262,
      "ǐ": 263,
      "ǔ": 264,
      "ǖ": 265,
      "ǘ": 266,
      "ǜ": 267,
      "ǝ": 268,
      "ǧ": 269,
      "ǫ": 270,
      "ǵ": 271,
      "ǻ": 272,
      "ǽ": 273,
      "ǿ": 274,
      "ș": 275,
      "ț": 276,
      "ȣ": 277,
      "ȭ": 278,
      "ɂ": 279,
      "ɐ": 280,
      "ɑ": 281,
      "ɓ": 282,
      "ɔ": 283,
      "ɗ": 284,
      "ə": 285,
      "ɛ": 286,
      "ɜ": 287,
      "ɡ": 288,
      "ɣ": 289,
      "ɨ": 290,
      "ɪ": 291,
      "ɲ": 292,
      "ɵ": 293,
      "ɶ": 294,
      "ɹ": 295,
      "ɾ": 296,
      "ʀ": 297,
      "ʃ": 298,
      "ʇ": 299,
      "ʋ": 300,
      "ʌ": 301,
      "ʒ": 302,
      "ʔ": 303,
      "ʲ": 304,
      "ʹ": 305,
      "ʺ": 306,
      "ʻ": 307,
      "ʼ": 308,
      "ˆ": 309,
      "ˇ": 310,
      "ˈ": 311,
      "ˉ": 312,
      "ˊ": 313,
      "ˋ": 314,
      "ˌ": 315,
      "ː": 316,
      "˗": 317,
      "˘": 318,
      "˙": 319,
      "˚": 320,
      "˛": 321,
      "˜": 322,
      "˝": 323,
      "ˤ": 324,
      "̀": 325,
      "́": 326,
      "̂": 327,
      "̄": 328,
      "̆": 329,
      "̇": 330,
      "̊": 331,
      "̌": 332,
      "̍": 333,
      "̓": 334,
      "̡": 335,
      "̤": 336,
      "̨": 337,
      "̩": 338,
      "̱": 339,
      "̵": 340,
      "̶": 341,
      "̹": 342,
      "͘": 343,
      "ͦ": 344,
      "ͱ": 345,
      "΄": 346,
      "ΐ": 347,
      "ά": 348,
      "έ": 349,
      "ή": 350,
      "ί": 351,
      "ΰ": 352,
      "α": 353,
      "β": 354,
      "γ": 355,
      "δ": 356,
      "ε": 357,
      "ζ": 358,
      "η": 359,
      "θ": 360,
      "ι": 361,
      "κ": 362,
      "λ": 363,
      "μ": 364,
      "ν": 365,
      "ξ": 366,
      "ο": 367,
      "π": 368,
      "ρ": 369,
      "ς": 370,
      "σ": 371,
      "τ": 372,
      "υ": 373,
      "φ": 374,
      "χ": 375,
      "ψ": 376,
      "ω": 377,
      "ϊ": 378,
      "ϋ": 379,
      "ό": 380,
      "ύ": 381,
      "ώ": 382,
      "ϑ": 383,
      "ϒ": 384,
      "ϕ": 385,
      "а": 386,
      "б": 387,
      "в": 388,
      "г": 389,
      "д": 390,
      "е": 391,
      "ж": 392,
      "з": 393,
      "и": 394,
      "й": 395,
      "к": 396,
      "л": 397,
      "м": 398,
      "н": 399,
      "о": 400,
      "п": 401,
      "р": 402,
      "с": 403,
      "т": 404,
      "у": 405,
      "ф": 406,
      "х": 407,
      "ц": 408,
      "ч": 409,
      "ш": 410,
      "щ": 411,
      "ъ": 412,
      "ы": 413,
      "ь": 414,
      "э": 415,
      "ю": 416,
      "я": 417,
      "ё": 418,
      "ђ": 419,
      "ѓ": 420,
      "є": 421,
      "ѕ": 422,
      "і": 423,
      "ї": 424,
      "ј": 425,
      "љ": 426,
      "њ": 427,
      "ћ": 428,
      "ќ": 429,
      "ў": 430,
      "џ": 431,
      "ҏ": 432,
      "ґ": 433,
      "ғ": 434,
      "ҙ": 435,
      "қ": 436,
      "ҡ": 437,
      "ң": 438,
      "ү": 439,
      "ұ": 440,
      "һ": 441,
      "ә": 442,
      "ӝ": 443,
      "ө": 444,
      "ԁ": 445,
      "ְ": 446,
      "ִ": 447,
      "ֵ": 448,
      "ַ": 449,
      "ָ": 450,
      "ּ": 451,
      "ֿ": 452,
      "׀": 453,
      "ׁ": 454,
      "א": 455,
      "ב": 456,
      "ג": 457,
      "ד": 458,
      "ה": 459,
      "ו": 460,
      "ז": 461,
      "ח": 462,
      "ט": 463,
      "י": 464,
      "ך": 465,
      "כ": 466,
      "ל": 467,
      "ם": 468,
      "מ": 469,
      "ן": 470,
      "נ": 471,
      "ס": 472,
      "ע": 473,
      "ף": 474,
      "פ": 475,
      "ץ": 476,
      "צ": 477,
      "ק": 478,
      "ר": 479,
      "ש": 480,
      "ת": 481,
      "װ": 482,
      "،": 483,
      "؛": 484,
      "ء": 485,
      "آ": 486,
      "أ": 487,
      "ؤ": 488,
      "إ": 489,
      "ئ": 490,
      "ا": 491,
      "ب": 492,
      "ة": 493,
      "ت": 494,
      "ث": 495,
      "ج": 496,
      "ح": 497,
      "خ": 498,
      "د": 499,
      "ذ": 500,
      "ر": 501,
      "ز": 502,
      "س": 503,
      "ش": 504,
      "ص": 505,
      "ض": 506,
      "ط": 507,
      "ظ": 508,
      "ع": 509,
      "غ": 510,
      "ـ": 511,
      "ف": 512,
      "ق": 513,
      "ك": 514,
      "ل": 515,
      "م": 516,
      "ن": 517,
      "ه": 518,
      "و": 519,
      "ى": 520,
      "ي": 521,
      "ً": 522,
      "ٍ": 523,
      "َ": 524,
      "ُ": 525,
      "ِ": 526,
      "ّ": 527,
      "ْ": 528,
      "ٔ": 529,
      "٠": 530,
      "١": 531,
      "٢": 532,
      "٣": 533,
      "٤": 534,
      "٥": 535,
      "٦": 536,
      "٧": 537,
      "٨": 538,
      "٩": 539,
      "٭": 540,
      "ٱ": 541,
      "ٺ": 542,
      "پ": 543,
      "چ": 544,
      "ڈ": 545,
      "ژ": 546,
      "ڤ": 547,
      "ک": 548,
      "گ": 549,
      "ھ": 550,
      "ہ": 551,
      "ۆ": 552,
      "ی": 553,
      "۰": 554,
      "۱": 555,
      "۲": 556,
      "۳": 557,
      "۴": 558,
      "۵": 559,
      "۶": 560,
      "۷": 561,
      "۹": 562,
      "܌": 563,
      "ं": 564,
      "ः": 565,
      "अ": 566,
      "आ": 567,
      "ग": 568,
      "छ": 569,
      "ट": 570,
      "ड": 571,
      "ढ": 572,
      "त": 573,
      "थ": 574,
      "द": 575,
      "न": 576,
      "प": 577,
      "ब": 578,
      "म": 579,
      "य": 580,
      "र": 581,
      "ल": 582,
      "ळ": 583,
      "व": 584,
      "स": 585,
      "ह": 586,
      "ा": 587,
      "ि": 588,
      "ी": 589,
      "े": 590,
      "ै": 591,
      "ो": 592,
      "्": 593,
      "०": 594,
      "२": 595,
      "४": 596,
      "५": 597,
      "ঁ": 598,
      "আ": 599,
      "ক": 600,
      "দ": 601,
      "ম": 602,
      "য": 603,
      "র": 604,
      "ল": 605,
      "স": 606,
      "া": 607,
      "ু": 608,
      "ে": 609,
      "্": 610,
      "଎": 611,
      "୦": 612,
      "୧": 613,
      "୨": 614,
      "୪": 615,
      "୭": 616,
      "୯": 617,
      "ಐ": 618,
      "ಯ": 619,
      "ರ": 620,
      "ವ": 621,
      "ಶ": 622,
      "ಾ": 623,
      "ೈ": 624,
      "್": 625,
      "೦": 626,
      "೧": 627,
      "೨": 628,
      "೪": 629,
      "೫": 630,
      "೭": 631,
      "೯": 632,
      "൅": 633,
      "ก": 634,
      "ข": 635,
      "ฃ": 636,
      "ค": 637,
      "ง": 638,
      "จ": 639,
      "ฉ": 640,
      "ช": 641,
      "ซ": 642,
      "ญ": 643,
      "ฏ": 644,
      "ฑ": 645,
      "ฒ": 646,
      "ณ": 647,
      "ด": 648,
      "ต": 649,
      "ถ": 650,
      "ท": 651,
      "ธ": 652,
      "น": 653,
      "บ": 654,
      "ป": 655,
      "ผ": 656,
      "ฝ": 657,
      "พ": 658,
      "ฟ": 659,
      "ภ": 660,
      "ม": 661,
      "ย": 662,
      "ร": 663,
      "ล": 664,
      "ว": 665,
      "ศ": 666,
      "ษ": 667,
      "ส": 668,
      "ห": 669,
      "อ": 670,
      "ฯ": 671,
      "ะ": 672,
      "ั": 673,
      "า": 674,
      "ำ": 675,
      "ิ": 676,
      "ี": 677,
      "ึ": 678,
      "ื": 679,
      "ุ": 680,
      "ู": 681,
      "เ": 682,
      "แ": 683,
      "โ": 684,
      "ใ": 685,
      "ไ": 686,
      "ๆ": 687,
      "็": 688,
      "่": 689,
      "้": 690,
      "๊": 691,
      "์": 692,
      "๑": 693,
      "ງ": 694,
      "ຈ": 695,
      "ນ": 696,
      "ວ": 697,
      "ັ": 698,
      "ຽ": 699,
      "་": 700,
      "།": 701,
      "ག": 702,
      "ཐ": 703,
      "ད": 704,
      "ཕ": 705,
      "བ": 706,
      "མ": 707,
      "ི": 708,
      "ུ": 709,
      "ོ": 710,
      "ဪ": 711,
      "ါ": 712,
      "ိ": 713,
      "၄": 714,
      "ၓ": 715,
      "ၛ": 716,
      "ၝ": 717,
      "ၡ": 718,
      "ၢ": 719,
      "ၥ": 720,
      "ၧ": 721,
      "ၨ": 722,
      "ၱ": 723,
      "ၳ": 724,
      "ა": 725,
      "ბ": 726,
      "გ": 727,
      "დ": 728,
      "ე": 729,
      "ვ": 730,
      "ზ": 731,
      "თ": 732,
      "ი": 733,
      "კ": 734,
      "ლ": 735,
      "მ": 736,
      "ნ": 737,
      "ო": 738,
      "რ": 739,
      "ს": 740,
      "ტ": 741,
      "უ": 742,
      "ფ": 743,
      "ქ": 744,
      "ღ": 745,
      "შ": 746,
      "ც": 747,
      "ძ": 748,
      "წ": 749,
      "ხ": 750,
      "ᆠ": 751,
      "ህ": 752,
      "መ": 753,
      "ሜ": 754,
      "ም": 755,
      "ረ": 756,
      "ር": 757,
      "ሻ": 758,
      "ቀ": 759,
      "በ": 760,
      "ተ": 761,
      "ቶ": 762,
      "አ": 763,
      "ኣ": 764,
      "እ": 765,
      "ኦ": 766,
      "ክ": 767,
      "ው": 768,
      "ዓ": 769,
      "የ": 770,
      "ይ": 771,
      "ገ": 772,
      "ጨ": 773,
      "ጽ": 774,
      "፣": 775,
      "ᐁ": 776,
      "ᐃ": 777,
      "ᐅ": 778,
      "ᐆ": 779,
      "ᐊ": 780,
      "ᐋ": 781,
      "ᐟ": 782,
      "ᐠ": 783,
      "ᐡ": 784,
      "ᐢ": 785,
      "ᐣ": 786,
      "ᐤ": 787,
      "ᐦ": 788,
      "ᐧ": 789,
      "ᐨ": 790,
      "ᐯ": 791,
      "ᐱ": 792,
      "ᐲ": 793,
      "ᐳ": 794,
      "ᐴ": 795,
      "ᐸ": 796,
      "ᐹ": 797,
      "ᑈ": 798,
      "ᑉ": 799,
      "ᑊ": 800,
      "ᑌ": 801,
      "ᑎ": 802,
      "ᑏ": 803,
      "ᑐ": 804,
      "ᑑ": 805,
      "ᑕ": 806,
      "ᑖ": 807,
      "ᑥ": 808,
      "ᑦ": 809,
      "ᑫ": 810,
      "ᑭ": 811,
      "ᑮ": 812,
      "ᑯ": 813,
      "ᑰ": 814,
      "ᑲ": 815,
      "ᑳ": 816,
      "ᒂ": 817,
      "ᒃ": 818,
      "ᒋ": 819,
      "ᒌ": 820,
      "ᒍ": 821,
      "ᒎ": 822,
      "ᒐ": 823,
      "ᒑ": 824,
      "ᒠ": 825,
      "ᒡ": 826,
      "ᒥ": 827,
      "ᒦ": 828,
      "ᒧ": 829,
      "ᒪ": 830,
      "ᒫ": 831,
      "ᒻ": 832,
      "ᓀ": 833,
      "ᓂ": 834,
      "ᓃ": 835,
      "ᓄ": 836,
      "ᓅ": 837,
      "ᓇ": 838,
      "ᓈ": 839,
      "ᓐ": 840,
      "ᓕ": 841,
      "ᓖ": 842,
      "ᓗ": 843,
      "ᓘ": 844,
      "ᓚ": 845,
      "ᓛ": 846,
      "ᓪ": 847,
      "ᓭ": 848,
      "ᓯ": 849,
      "ᓰ": 850,
      "ᓱ": 851,
      "ᓲ": 852,
      "ᓴ": 853,
      "ᓵ": 854,
      "ᔅ": 855,
      "ᔌ": 856,
      "ᔍ": 857,
      "ᔎ": 858,
      "ᔏ": 859,
      "ᔑ": 860,
      "ᔓ": 861,
      "ᔕ": 862,
      "ᔨ": 863,
      "ᔩ": 864,
      "ᔪ": 865,
      "ᔫ": 866,
      "ᔭ": 867,
      "ᔮ": 868,
      "ᔾ": 869,
      "ᕆ": 870,
      "ᕇ": 871,
      "ᕈ": 872,
      "ᕉ": 873,
      "ᕋ": 874,
      "ᕌ": 875,
      "ᕐ": 876,
      "ᕑ": 877,
      "ᕕ": 878,
      "ᕖ": 879,
      "ᕗ": 880,
      "ᕘ": 881,
      "ᕙ": 882,
      "ᕚ": 883,
      "ᕝ": 884,
      "ᕼ": 885,
      "ᕿ": 886,
      "ᖁ": 887,
      "ᖂ": 888,
      "ᖃ": 889,
      "ᖄ": 890,
      "ᖅ": 891,
      "ᖏ": 892,
      "ᖑ": 893,
      "ᖓ": 894,
      "ᖔ": 895,
      "ᖕ": 896,
      "ᖠ": 897,
      "ᖢ": 898,
      "ᖦ": 899,
      "ᙱ": 900,
      "ᙲ": 901,
      "ᙳ": 902,
      "ᙵ": 903,
      "ᙶ": 904,
      "ᮖ": 905,
      "ᵓ": 906,
      "ḃ": 907,
      "ḏ": 908,
      "ḥ": 909,
      "ḫ": 910,
      "ḳ": 911,
      "ḵ": 912,
      "ṃ": 913,
      "ṇ": 914,
      "ṛ": 915,
      "ṣ": 916,
      "ṭ": 917,
      "ṯ": 918,
      "ṳ": 919,
      "ẃ": 920,
      "ẕ": 921,
      "ạ": 922,
      "ả": 923,
      "ấ": 924,
      "ầ": 925,
      "ẩ": 926,
      "ẫ": 927,
      "ậ": 928,
      "ắ": 929,
      "ằ": 930,
      "ẳ": 931,
      "ặ": 932,
      "ẻ": 933,
      "ẽ": 934,
      "ế": 935,
      "ề": 936,
      "ể": 937,
      "ễ": 938,
      "ệ": 939,
      "ỉ": 940,
      "ị": 941,
      "ọ": 942,
      "ố": 943,
      "ồ": 944,
      "ổ": 945,
      "ỗ": 946,
      "ộ": 947,
      "ớ": 948,
      "ờ": 949,
      "ở": 950,
      "ợ": 951,
      "ụ": 952,
      "ủ": 953,
      "ứ": 954,
      "ừ": 955,
      "ử": 956,
      "ữ": 957,
      "ự": 958,
      "ỳ": 959,
      "ỷ": 960,
      "ỹ": 961,
      "ἀ": 962,
      "ἄ": 963,
      "ἰ": 964,
      "ὁ": 965,
      "ὺ": 966,
      "ῆ": 967,
      "ῖ": 968,
      "​": 969,
      "‌": 970,
      "‍": 971,
      "‎": 972,
      "‏": 973,
      "‐": 974,
      "‑": 975,
      "‒": 976,
      "–": 977,
      "—": 978,
      "―": 979,
      "‖": 980,
      "‘": 981,
      "’": 982,
      "‚": 983,
      "‛": 984,
      "“": 985,
      "”": 986,
      "„": 987,
      "‟": 988,
      "†": 989,
      "‡": 990,
      "•": 991,
      "‥": 992,
      "…": 993,
      "‧": 994,
      "‪": 995,
      "‫": 996,
      "‬": 997,
      "‭": 998,
      "‮": 999,
      "‰": 1000,
      "′": 1001,
      "″": 1002,
      "‴": 1003,
      "‹": 1004,
      "›": 1005,
      "※": 1006,
      "‾": 1007,
      "⁁": 1008,
      "⁄": 1009,
      "⁪": 1010,
      "⁬": 1011,
      "⁭": 1012,
      "⁮": 1013,
      "⁯": 1014,
      "⁰": 1015,
      "⁷": 1016,
      "ⁿ": 1017,
      "₀": 1018,
      "₁": 1019,
      "₂": 1020,
      "₤": 1021,
      "₫": 1022,
      "€": 1023,
      "⃞": 1024,
      "℃": 1025,
      "ℓ": 1026,
      "№": 1027,
      "℡": 1028,
      "™": 1029,
      "℣": 1030,
      "ℤ": 1031,
      "⅓": 1032,
      "⅔": 1033,
      "⅛": 1034,
      "⅜": 1035,
      "⅝": 1036,
      "⅞": 1037,
      "ⅱ": 1038,
      "ⅳ": 1039,
      "←": 1040,
      "↑": 1041,
      "→": 1042,
      "↓": 1043,
      "↔": 1044,
      "↕": 1045,
      "↗": 1046,
      "↘": 1047,
      "↝": 1048,
      "↵": 1049,
      "⇅": 1050,
      "⇆": 1051,
      "⇌": 1052,
      "⇑": 1053,
      "⇒": 1054,
      "⇓": 1055,
      "⇔": 1056,
      "⇕": 1057,
      "⇗": 1058,
      "⇘": 1059,
      "⇙": 1060,
      "⇢": 1061,
      "∀": 1062,
      "∂": 1063,
      "∃": 1064,
      "∅": 1065,
      "∆": 1066,
      "∇": 1067,
      "∈": 1068,
      "∋": 1069,
      "∍": 1070,
      "∏": 1071,
      "∑": 1072,
      "−": 1073,
      "∕": 1074,
      "∗": 1075,
      "∘": 1076,
      "∙": 1077,
      "√": 1078,
      "∝": 1079,
      "∞": 1080,
      "∩": 1081,
      "∪": 1082,
      "∫": 1083,
      "∴": 1084,
      "∼": 1085,
      "≅": 1086,
      "≈": 1087,
      "≍": 1088,
      "≠": 1089,
      "≡": 1090,
      "≤": 1091,
      "≥": 1092,
      "≪": 1093,
      "⊂": 1094,
      "⊔": 1095,
      "⊕": 1096,
      "⊥": 1097,
      "⊳": 1098,
      "⋅": 1099,
      "⋞": 1100,
      "⌂": 1101,
      "⌃": 1102,
      "⌋": 1103,
      "⌘": 1104,
      "⌦": 1105,
      "⌧": 1106,
      "⌫": 1107,
      "⎛": 1108,
      "⎜": 1109,
      "⎝": 1110,
      "⎞": 1111,
      "⎟": 1112,
      "⎠": 1113,
      "⎡": 1114,
      "⎢": 1115,
      "⎣": 1116,
      "⎤": 1117,
      "⎥": 1118,
      "⎦": 1119,
      "⎧": 1120,
      "⎨": 1121,
      "⎩": 1122,
      "⎮": 1123,
      "⎯": 1124,
      "①": 1125,
      "②": 1126,
      "③": 1127,
      "ⓓ": 1128,
      "─": 1129,
      "━": 1130,
      "│": 1131,
      "┌": 1132,
      "┐": 1133,
      "└": 1134,
      "┬": 1135,
      "║": 1136,
      "╚": 1137,
      "╦": 1138,
      "╩": 1139,
      "╬": 1140,
      "▀": 1141,
      "█": 1142,
      "▌": 1143,
      "░": 1144,
      "▒": 1145,
      "▓": 1146,
      "▘": 1147,
      "■": 1148,
      "□": 1149,
      "▢": 1150,
      "▧": 1151,
      "▪": 1152,
      "▫": 1153,
      "▬": 1154,
      "▲": 1155,
      "△": 1156,
      "▵": 1157,
      "▷": 1158,
      "▸": 1159,
      "►": 1160,
      "▼": 1161,
      "◄": 1162,
      "◆": 1163,
      "◇": 1164,
      "◊": 1165,
      "○": 1166,
      "◎": 1167,
      "●": 1168,
      "◗": 1169,
      "◘": 1170,
      "◙": 1171,
      "◦": 1172,
      "☀": 1173,
      "★": 1174,
      "☆": 1175,
      "☎": 1176,
      "☐": 1177,
      "☑": 1178,
      "☛": 1179,
      "☯": 1180,
      "☺": 1181,
      "☻": 1182,
      "☼": 1183,
      "♀": 1184,
      "♂": 1185,
      "♒": 1186,
      "♕": 1187,
      "♠": 1188,
      "♣": 1189,
      "♥": 1190,
      "♦": 1191,
      "♪": 1192,
      "♫": 1193,
      "♲": 1194,
      "✁": 1195,
      "✂": 1196,
      "✃": 1197,
      "✄": 1198,
      "✆": 1199,
      "✇": 1200,
      "✈": 1201,
      "✉": 1202,
      "✍": 1203,
      "✏": 1204,
      "✓": 1205,
      "✔": 1206,
      "✕": 1207,
      "✖": 1208,
      "✗": 1209,
      "✘": 1210,
      "✜": 1211,
      "✝": 1212,
      "✢": 1213,
      "✤": 1214,
      "✦": 1215,
      "✧": 1216,
      "✭": 1217,
      "✱": 1218,
      "✴": 1219,
      "✵": 1220,
      "✿": 1221,
      "❁": 1222,
      "❆": 1223,
      "❈": 1224,
      "❊": 1225,
      "❋": 1226,
      "❍": 1227,
      "❏": 1228,
      "❐": 1229,
      "❑": 1230,
      "❒": 1231,
      "❖": 1232,
      "❙": 1233,
      "❚": 1234,
      "❯": 1235,
      "❶": 1236,
      "❷": 1237,
      "➁": 1238,
      "➊": 1239,
      "➋": 1240,
      "➌": 1241,
      "➍": 1242,
      "➎": 1243,
      "➏": 1244,
      "➑": 1245,
      "➓": 1246,
      "➔": 1247,
      "➘": 1248,
      "➙": 1249,
      "➚": 1250,
      "➛": 1251,
      "➜": 1252,
      "➝": 1253,
      "➞": 1254,
      "➟": 1255,
      "➠": 1256,
      "➢": 1257,
      "➣": 1258,
      "➤": 1259,
      "➥": 1260,
      "➧": 1261,
      "➨": 1262,
      "➩": 1263,
      "➪": 1264,
      "➫": 1265,
      "➮": 1266,
      "➯": 1267,
      "➲": 1268,
      "➾": 1269,
      "ⴃ": 1270,
      "ⴐ": 1271,
      "ⴑ": 1272,
      "ⴗ": 1273,
      "ⴞ": 1274,
      "、": 1275,
      "。": 1276,
      "々": 1277,
      "〈": 1278,
      "〉": 1279,
      "《": 1280,
      "》": 1281,
      "「": 1282,
      "」": 1283,
      "『": 1284,
      "』": 1285,
      "【": 1286,
      "】": 1287,
      "〜": 1288,
      "あ": 1289,
      "い": 1290,
      "う": 1291,
      "え": 1292,
      "お": 1293,
      "か": 1294,
      "が": 1295,
      "き": 1296,
      "ぎ": 1297,
      "く": 1298,
      "ぐ": 1299,
      "け": 1300,
      "げ": 1301,
      "こ": 1302,
      "ご": 1303,
      "さ": 1304,
      "ざ": 1305,
      "し": 1306,
      "じ": 1307,
      "す": 1308,
      "せ": 1309,
      "ぜ": 1310,
      "そ": 1311,
      "ぞ": 1312,
      "た": 1313,
      "だ": 1314,
      "ち": 1315,
      "っ": 1316,
      "つ": 1317,
      "て": 1318,
      "で": 1319,
      "と": 1320,
      "ど": 1321,
      "な": 1322,
      "に": 1323,
      "ぬ": 1324,
      "ね": 1325,
      "の": 1326,
      "は": 1327,
      "ば": 1328,
      "ひ": 1329,
      "び": 1330,
      "ぴ": 1331,
      "ふ": 1332,
      "ぶ": 1333,
      "ぷ": 1334,
      "へ": 1335,
      "べ": 1336,
      "ほ": 1337,
      "ぼ": 1338,
      "ぽ": 1339,
      "ま": 1340,
      "み": 1341,
      "む": 1342,
      "め": 1343,
      "も": 1344,
      "ゃ": 1345,
      "や": 1346,
      "ゅ": 1347,
      "ゆ": 1348,
      "ょ": 1349,
      "よ": 1350,
      "ら": 1351,
      "り": 1352,
      "る": 1353,
      "れ": 1354,
      "ろ": 1355,
      "わ": 1356,
      "を": 1357,
      "ん": 1358,
      "ァ": 1359,
      "ア": 1360,
      "ィ": 1361,
      "イ": 1362,
      "ウ": 1363,
      "エ": 1364,
      "ォ": 1365,
      "オ": 1366,
      "カ": 1367,
      "ガ": 1368,
      "キ": 1369,
      "ギ": 1370,
      "ク": 1371,
      "グ": 1372,
      "ケ": 1373,
      "ゲ": 1374,
      "コ": 1375,
      "ゴ": 1376,
      "サ": 1377,
      "ザ": 1378,
      "シ": 1379,
      "ジ": 1380,
      "ス": 1381,
      "ズ": 1382,
      "セ": 1383,
      "ゼ": 1384,
      "ソ": 1385,
      "ゾ": 1386,
      "タ": 1387,
      "ダ": 1388,
      "チ": 1389,
      "ッ": 1390,
      "ツ": 1391,
      "テ": 1392,
      "デ": 1393,
      "ト": 1394,
      "ド": 1395,
      "ナ": 1396,
      "ニ": 1397,
      "ヌ": 1398,
      "ネ": 1399,
      "ノ": 1400,
      "ハ": 1401,
      "バ": 1402,
      "パ": 1403,
      "ヒ": 1404,
      "ビ": 1405,
      "ピ": 1406,
      "フ": 1407,
      "ブ": 1408,
      "プ": 1409,
      "ヘ": 1410,
      "ベ": 1411,
      "ペ": 1412,
      "ホ": 1413,
      "マ": 1414,
      "ミ": 1415,
      "ム": 1416,
      "メ": 1417,
      "ュ": 1418,
      "ユ": 1419,
      "ヨ": 1420,
      "ラ": 1421,
      "リ": 1422,
      "ル": 1423,
      "レ": 1424,
      "ロ": 1425,
      "ワ": 1426,
      "ン": 1427,
      "ヴ": 1428,
      "・": 1429,
      "ー": 1430,
      "ㄅ": 1431,
      "ㄊ": 1432,
      "ㄕ": 1433,
      "ㄞ": 1434,
      "ㄟ": 1435,
      "ㄣ": 1436,
      "ㄤ": 1437,
      "ㄧ": 1438,
      "ㅎ": 1439,
      "䨂": 1440,
      "䨢": 1441,
      "䰂": 1442,
      "䰄": 1443,
      "䰚": 1444,
      "䰦": 1445,
      "䰨": 1446,
      "䰪": 1447,
      "一": 1448,
      "丁": 1449,
      "七": 1450,
      "万": 1451,
      "三": 1452,
      "上": 1453,
      "下": 1454,
      "不": 1455,
      "与": 1456,
      "专": 1457,
      "世": 1458,
      "业": 1459,
      "东": 1460,
      "两": 1461,
      "严": 1462,
      "丨": 1463,
      "个": 1464,
      "中": 1465,
      "临": 1466,
      "丸": 1467,
      "丹": 1468,
      "为": 1469,
      "主": 1470,
      "丽": 1471,
      "举": 1472,
      "久": 1473,
      "义": 1474,
      "之": 1475,
      "乏": 1476,
      "乐": 1477,
      "乗": 1478,
      "九": 1479,
      "也": 1480,
      "书": 1481,
      "买": 1482,
      "了": 1483,
      "予": 1484,
      "争": 1485,
      "事": 1486,
      "二": 1487,
      "于": 1488,
      "云": 1489,
      "互": 1490,
      "五": 1491,
      "井": 1492,
      "亚": 1493,
      "些": 1494,
      "交": 1495,
      "产": 1496,
      "享": 1497,
      "京": 1498,
      "人": 1499,
      "仁": 1500,
      "今": 1501,
      "介": 1502,
      "仍": 1503,
      "从": 1504,
      "他": 1505,
      "付": 1506,
      "仙": 1507,
      "代": 1508,
      "令": 1509,
      "以": 1510,
      "们": 1511,
      "仲": 1512,
      "件": 1513,
      "任": 1514,
      "份": 1515,
      "企": 1516,
      "伊": 1517,
      "伏": 1518,
      "休": 1519,
      "优": 1520,
      "会": 1521,
      "伝": 1522,
      "传": 1523,
      "伦": 1524,
      "伯": 1525,
      "估": 1526,
      "伴": 1527,
      "伶": 1528,
      "伸": 1529,
      "似": 1530,
      "但": 1531,
      "佈": 1532,
      "位": 1533,
      "住": 1534,
      "佐": 1535,
      "佑": 1536,
      "体": 1537,
      "何": 1538,
      "余": 1539,
      "作": 1540,
      "佰": 1541,
      "佳": 1542,
      "使": 1543,
      "例": 1544,
      "供": 1545,
      "依": 1546,
      "価": 1547,
      "便": 1548,
      "促": 1549,
      "俄": 1550,
      "俊": 1551,
      "保": 1552,
      "信": 1553,
      "修": 1554,
      "倒": 1555,
      "候": 1556,
      "借": 1557,
      "値": 1558,
      "债": 1559,
      "假": 1560,
      "做": 1561,
      "健": 1562,
      "偶": 1563,
      "偿": 1564,
      "傅": 1565,
      "備": 1566,
      "催": 1567,
      "像": 1568,
      "僕": 1569,
      "僚": 1570,
      "儀": 1571,
      "儒": 1572,
      "優": 1573,
      "儿": 1574,
      "允": 1575,
      "元": 1576,
      "充": 1577,
      "先": 1578,
      "光": 1579,
      "克": 1580,
      "児": 1581,
      "兒": 1582,
      "入": 1583,
      "全": 1584,
      "八": 1585,
      "公": 1586,
      "六": 1587,
      "兰": 1588,
      "共": 1589,
      "关": 1590,
      "兵": 1591,
      "其": 1592,
      "具": 1593,
      "养": 1594,
      "内": 1595,
      "円": 1596,
      "册": 1597,
      "写": 1598,
      "军": 1599,
      "农": 1600,
      "冤": 1601,
      "冰": 1602,
      "决": 1603,
      "况": 1604,
      "冶": 1605,
      "冷": 1606,
      "凄": 1607,
      "准": 1608,
      "减": 1609,
      "凡": 1610,
      "凭": 1611,
      "出": 1612,
      "击": 1613,
      "分": 1614,
      "切": 1615,
      "刑": 1616,
      "划": 1617,
      "列": 1618,
      "刘": 1619,
      "则": 1620,
      "刚": 1621,
      "创": 1622,
      "初": 1623,
      "判": 1624,
      "別": 1625,
      "利": 1626,
      "别": 1627,
      "到": 1628,
      "制": 1629,
      "券": 1630,
      "剃": 1631,
      "則": 1632,
      "前": 1633,
      "剑": 1634,
      "剥": 1635,
      "創": 1636,
      "劃": 1637,
      "劇": 1638,
      "力": 1639,
      "办": 1640,
      "功": 1641,
      "加": 1642,
      "务": 1643,
      "动": 1644,
      "助": 1645,
      "励": 1646,
      "劳": 1647,
      "势": 1648,
      "勒": 1649,
      "動": 1650,
      "勘": 1651,
      "務": 1652,
      "勞": 1653,
      "勢": 1654,
      "包": 1655,
      "匈": 1656,
      "化": 1657,
      "北": 1658,
      "区": 1659,
      "医": 1660,
      "匿": 1661,
      "區": 1662,
      "十": 1663,
      "千": 1664,
      "升": 1665,
      "午": 1666,
      "华": 1667,
      "协": 1668,
      "卓": 1669,
      "協": 1670,
      "单": 1671,
      "南": 1672,
      "単": 1673,
      "博": 1674,
      "占": 1675,
      "卡": 1676,
      "卢": 1677,
      "卫": 1678,
      "印": 1679,
      "危": 1680,
      "即": 1681,
      "却": 1682,
      "厂": 1683,
      "厅": 1684,
      "原": 1685,
      "厨": 1686,
      "去": 1687,
      "参": 1688,
      "參": 1689,
      "又": 1690,
      "及": 1691,
      "友": 1692,
      "反": 1693,
      "发": 1694,
      "取": 1695,
      "受": 1696,
      "变": 1697,
      "叙": 1698,
      "叟": 1699,
      "口": 1700,
      "古": 1701,
      "句": 1702,
      "另": 1703,
      "只": 1704,
      "叫": 1705,
      "可": 1706,
      "台": 1707,
      "号": 1708,
      "司": 1709,
      "各": 1710,
      "合": 1711,
      "吉": 1712,
      "吊": 1713,
      "同": 1714,
      "名": 1715,
      "后": 1716,
      "向": 1717,
      "吗": 1718,
      "吟": 1719,
      "吧": 1720,
      "含": 1721,
      "启": 1722,
      "吴": 1723,
      "吹": 1724,
      "呂": 1725,
      "呆": 1726,
      "告": 1727,
      "员": 1728,
      "周": 1729,
      "味": 1730,
      "呼": 1731,
      "和": 1732,
      "咨": 1733,
      "咬": 1734,
      "品": 1735,
      "哈": 1736,
      "响": 1737,
      "員": 1738,
      "哥": 1739,
      "唸": 1740,
      "商": 1741,
      "問": 1742,
      "啓": 1743,
      "啦": 1744,
      "善": 1745,
      "喜": 1746,
      "單": 1747,
      "嗎": 1748,
      "嘉": 1749,
      "嘛": 1750,
      "噌": 1751,
      "器": 1752,
      "囚": 1753,
      "四": 1754,
      "回": 1755,
      "因": 1756,
      "团": 1757,
      "団": 1758,
      "囧": 1759,
      "园": 1760,
      "囲": 1761,
      "围": 1762,
      "国": 1763,
      "图": 1764,
      "圆": 1765,
      "國": 1766,
      "圍": 1767,
      "園": 1768,
      "圓": 1769,
      "圖": 1770,
      "土": 1771,
      "圣": 1772,
      "在": 1773,
      "地": 1774,
      "场": 1775,
      "址": 1776,
      "坂": 1777,
      "坐": 1778,
      "坑": 1779,
      "坛": 1780,
      "坦": 1781,
      "垂": 1782,
      "型": 1783,
      "埃": 1784,
      "城": 1785,
      "埕": 1786,
      "域": 1787,
      "執": 1788,
      "培": 1789,
      "基": 1790,
      "堂": 1791,
      "報": 1792,
      "場": 1793,
      "塊": 1794,
      "塔": 1795,
      "塗": 1796,
      "塞": 1797,
      "塾": 1798,
      "境": 1799,
      "墅": 1800,
      "增": 1801,
      "壊": 1802,
      "士": 1803,
      "声": 1804,
      "壹": 1805,
      "处": 1806,
      "备": 1807,
      "変": 1808,
      "复": 1809,
      "外": 1810,
      "多": 1811,
      "夜": 1812,
      "大": 1813,
      "天": 1814,
      "太": 1815,
      "夫": 1816,
      "央": 1817,
      "失": 1818,
      "头": 1819,
      "奈": 1820,
      "套": 1821,
      "奥": 1822,
      "女": 1823,
      "好": 1824,
      "如": 1825,
      "妮": 1826,
      "妻": 1827,
      "姆": 1828,
      "始": 1829,
      "姓": 1830,
      "委": 1831,
      "姦": 1832,
      "姫": 1833,
      "威": 1834,
      "娜": 1835,
      "娱": 1836,
      "婆": 1837,
      "媒": 1838,
      "媛": 1839,
      "嫁": 1840,
      "子": 1841,
      "孔": 1842,
      "字": 1843,
      "存": 1844,
      "学": 1845,
      "學": 1846,
      "宁": 1847,
      "它": 1848,
      "宅": 1849,
      "宇": 1850,
      "安": 1851,
      "完": 1852,
      "宏": 1853,
      "宗": 1854,
      "官": 1855,
      "定": 1856,
      "宜": 1857,
      "宝": 1858,
      "实": 1859,
      "実": 1860,
      "审": 1861,
      "客": 1862,
      "宣": 1863,
      "室": 1864,
      "宪": 1865,
      "宫": 1866,
      "宮": 1867,
      "害": 1868,
      "家": 1869,
      "容": 1870,
      "宿": 1871,
      "寄": 1872,
      "富": 1873,
      "寓": 1874,
      "察": 1875,
      "實": 1876,
      "寸": 1877,
      "对": 1878,
      "寺": 1879,
      "寻": 1880,
      "导": 1881,
      "対": 1882,
      "寿": 1883,
      "将": 1884,
      "專": 1885,
      "對": 1886,
      "小": 1887,
      "少": 1888,
      "尔": 1889,
      "尤": 1890,
      "就": 1891,
      "尼": 1892,
      "尾": 1893,
      "局": 1894,
      "层": 1895,
      "屄": 1896,
      "居": 1897,
      "屈": 1898,
      "届": 1899,
      "屋": 1900,
      "展": 1901,
      "属": 1902,
      "山": 1903,
      "岐": 1904,
      "岛": 1905,
      "岡": 1906,
      "岩": 1907,
      "峒": 1908,
      "峡": 1909,
      "峪": 1910,
      "島": 1911,
      "崎": 1912,
      "嵐": 1913,
      "嶺": 1914,
      "川": 1915,
      "州": 1916,
      "巡": 1917,
      "工": 1918,
      "巫": 1919,
      "差": 1920,
      "已": 1921,
      "巴": 1922,
      "市": 1923,
      "布": 1924,
      "帆": 1925,
      "师": 1926,
      "希": 1927,
      "帐": 1928,
      "帝": 1929,
      "席": 1930,
      "帮": 1931,
      "帰": 1932,
      "帳": 1933,
      "常": 1934,
      "幌": 1935,
      "幣": 1936,
      "干": 1937,
      "平": 1938,
      "年": 1939,
      "并": 1940,
      "幸": 1941,
      "幹": 1942,
      "幾": 1943,
      "广": 1944,
      "庁": 1945,
      "広": 1946,
      "庄": 1947,
      "庆": 1948,
      "床": 1949,
      "序": 1950,
      "库": 1951,
      "应": 1952,
      "店": 1953,
      "府": 1954,
      "废": 1955,
      "度": 1956,
      "座": 1957,
      "庭": 1958,
      "康": 1959,
      "廚": 1960,
      "廣": 1961,
      "建": 1962,
      "开": 1963,
      "弄": 1964,
      "式": 1965,
      "引": 1966,
      "弗": 1967,
      "张": 1968,
      "弱": 1969,
      "强": 1970,
      "弾": 1971,
      "当": 1972,
      "录": 1973,
      "形": 1974,
      "影": 1975,
      "役": 1976,
      "往": 1977,
      "征": 1978,
      "径": 1979,
      "待": 1980,
      "律": 1981,
      "後": 1982,
      "徐": 1983,
      "徒": 1984,
      "得": 1985,
      "御": 1986,
      "復": 1987,
      "徳": 1988,
      "德": 1989,
      "心": 1990,
      "必": 1991,
      "忍": 1992,
      "志": 1993,
      "忘": 1994,
      "忙": 1995,
      "応": 1996,
      "忠": 1997,
      "念": 1998,
      "忻": 1999,
      "思": 2000,
      "怡": 2001,
      "急": 2002,
      "性": 2003,
      "总": 2004,
      "恒": 2005,
      "恢": 2006,
      "息": 2007,
      "恵": 2008,
      "悩": 2009,
      "悬": 2010,
      "情": 2011,
      "惧": 2012,
      "惨": 2013,
      "想": 2014,
      "意": 2015,
      "愛": 2016,
      "感": 2017,
      "愿": 2018,
      "態": 2019,
      "慣": 2020,
      "憶": 2021,
      "憾": 2022,
      "戈": 2023,
      "成": 2024,
      "或": 2025,
      "战": 2026,
      "戴": 2027,
      "戶": 2028,
      "户": 2029,
      "戸": 2030,
      "房": 2031,
      "所": 2032,
      "扈": 2033,
      "手": 2034,
      "才": 2035,
      "打": 2036,
      "払": 2037,
      "托": 2038,
      "执": 2039,
      "扩": 2040,
      "批": 2041,
      "找": 2042,
      "承": 2043,
      "技": 2044,
      "把": 2045,
      "投": 2046,
      "折": 2047,
      "抜": 2048,
      "护": 2049,
      "报": 2050,
      "抵": 2051,
      "抹": 2052,
      "担": 2053,
      "拉": 2054,
      "拓": 2055,
      "招": 2056,
      "拟": 2057,
      "拥": 2058,
      "拨": 2059,
      "择": 2060,
      "括": 2061,
      "拳": 2062,
      "拼": 2063,
      "拿": 2064,
      "持": 2065,
      "指": 2066,
      "按": 2067,
      "挑": 2068,
      "挡": 2069,
      "挪": 2070,
      "挿": 2071,
      "捐": 2072,
      "换": 2073,
      "据": 2074,
      "捷": 2075,
      "授": 2076,
      "掉": 2077,
      "掌": 2078,
      "排": 2079,
      "探": 2080,
      "接": 2081,
      "控": 2082,
      "推": 2083,
      "措": 2084,
      "掻": 2085,
      "揃": 2086,
      "提": 2087,
      "換": 2088,
      "握": 2089,
      "揭": 2090,
      "援": 2091,
      "損": 2092,
      "搗": 2093,
      "搞": 2094,
      "搬": 2095,
      "摇": 2096,
      "摘": 2097,
      "摩": 2098,
      "撒": 2099,
      "撤": 2100,
      "撮": 2101,
      "擁": 2102,
      "操": 2103,
      "擢": 2104,
      "支": 2105,
      "收": 2106,
      "改": 2107,
      "放": 2108,
      "政": 2109,
      "故": 2110,
      "效": 2111,
      "敌": 2112,
      "敏": 2113,
      "教": 2114,
      "数": 2115,
      "整": 2116,
      "敷": 2117,
      "文": 2118,
      "斎": 2119,
      "斗": 2120,
      "料": 2121,
      "斤": 2122,
      "断": 2123,
      "斯": 2124,
      "新": 2125,
      "方": 2126,
      "於": 2127,
      "施": 2128,
      "旅": 2129,
      "旗": 2130,
      "日": 2131,
      "旨": 2132,
      "早": 2133,
      "时": 2134,
      "明": 2135,
      "易": 2136,
      "星": 2137,
      "映": 2138,
      "春": 2139,
      "昨": 2140,
      "是": 2141,
      "時": 2142,
      "晏": 2143,
      "晚": 2144,
      "普": 2145,
      "景": 2146,
      "晶": 2147,
      "智": 2148,
      "暫": 2149,
      "暴": 2150,
      "曲": 2151,
      "更": 2152,
      "書": 2153,
      "曹": 2154,
      "替": 2155,
      "最": 2156,
      "會": 2157,
      "月": 2158,
      "有": 2159,
      "朋": 2160,
      "服": 2161,
      "朗": 2162,
      "望": 2163,
      "朝": 2164,
      "期": 2165,
      "木": 2166,
      "本": 2167,
      "札": 2168,
      "术": 2169,
      "朱": 2170,
      "机": 2171,
      "杂": 2172,
      "权": 2173,
      "李": 2174,
      "材": 2175,
      "条": 2176,
      "来": 2177,
      "杨": 2178,
      "杭": 2179,
      "東": 2180,
      "松": 2181,
      "板": 2182,
      "构": 2183,
      "析": 2184,
      "林": 2185,
      "果": 2186,
      "枝": 2187,
      "枪": 2188,
      "架": 2189,
      "柚": 2190,
      "查": 2191,
      "柳": 2192,
      "柴": 2193,
      "栃": 2194,
      "栄": 2195,
      "标": 2196,
      "校": 2197,
      "株": 2198,
      "样": 2199,
      "核": 2200,
      "根": 2201,
      "格": 2202,
      "桃": 2203,
      "框": 2204,
      "案": 2205,
      "桜": 2206,
      "档": 2207,
      "梅": 2208,
      "梶": 2209,
      "检": 2210,
      "棋": 2211,
      "森": 2212,
      "植": 2213,
      "楠": 2214,
      "業": 2215,
      "楼": 2216,
      "楽": 2217,
      "概": 2218,
      "槍": 2219,
      "様": 2220,
      "樊": 2221,
      "樹": 2222,
      "橋": 2223,
      "機": 2224,
      "檔": 2225,
      "權": 2226,
      "次": 2227,
      "欢": 2228,
      "欧": 2229,
      "款": 2230,
      "歌": 2231,
      "歐": 2232,
      "止": 2233,
      "正": 2234,
      "此": 2235,
      "步": 2236,
      "武": 2237,
      "歩": 2238,
      "死": 2239,
      "残": 2240,
      "殖": 2241,
      "殘": 2242,
      "段": 2243,
      "殺": 2244,
      "母": 2245,
      "毎": 2246,
      "比": 2247,
      "毛": 2248,
      "氏": 2249,
      "民": 2250,
      "气": 2251,
      "気": 2252,
      "氣": 2253,
      "氧": 2254,
      "水": 2255,
      "永": 2256,
      "汁": 2257,
      "求": 2258,
      "汉": 2259,
      "江": 2260,
      "池": 2261,
      "汶": 2262,
      "沒": 2263,
      "沖": 2264,
      "没": 2265,
      "沢": 2266,
      "油": 2267,
      "治": 2268,
      "況": 2269,
      "泉": 2270,
      "法": 2271,
      "波": 2272,
      "泥": 2273,
      "注": 2274,
      "泰": 2275,
      "泳": 2276,
      "洋": 2277,
      "洒": 2278,
      "洗": 2279,
      "洛": 2280,
      "津": 2281,
      "洪": 2282,
      "洱": 2283,
      "洲": 2284,
      "活": 2285,
      "派": 2286,
      "流": 2287,
      "浄": 2288,
      "浅": 2289,
      "浆": 2290,
      "测": 2291,
      "济": 2292,
      "浙": 2293,
      "浜": 2294,
      "浦": 2295,
      "浴": 2296,
      "海": 2297,
      "涉": 2298,
      "涌": 2299,
      "涩": 2300,
      "深": 2301,
      "淹": 2302,
      "添": 2303,
      "清": 2304,
      "済": 2305,
      "渋": 2306,
      "温": 2307,
      "港": 2308,
      "游": 2309,
      "湘": 2310,
      "湯": 2311,
      "湾": 2312,
      "満": 2313,
      "源": 2314,
      "溜": 2315,
      "溢": 2316,
      "溶": 2317,
      "滑": 2318,
      "滝": 2319,
      "满": 2320,
      "漏": 2321,
      "演": 2322,
      "漢": 2323,
      "漫": 2324,
      "潜": 2325,
      "潭": 2326,
      "激": 2327,
      "濟": 2328,
      "灣": 2329,
      "火": 2330,
      "灾": 2331,
      "点": 2332,
      "為": 2333,
      "烏": 2334,
      "焚": 2335,
      "無": 2336,
      "焦": 2337,
      "然": 2338,
      "焼": 2339,
      "照": 2340,
      "煮": 2341,
      "煽": 2342,
      "熨": 2343,
      "熱": 2344,
      "爪": 2345,
      "爱": 2346,
      "爲": 2347,
      "片": 2348,
      "版": 2349,
      "牌": 2350,
      "牙": 2351,
      "物": 2352,
      "特": 2353,
      "牽": 2354,
      "犯": 2355,
      "状": 2356,
      "狠": 2357,
      "独": 2358,
      "猎": 2359,
      "献": 2360,
      "猿": 2361,
      "獲": 2362,
      "獵": 2363,
      "獻": 2364,
      "玉": 2365,
      "王": 2366,
      "玩": 2367,
      "环": 2368,
      "现": 2369,
      "玲": 2370,
      "珍": 2371,
      "珠": 2372,
      "班": 2373,
      "球": 2374,
      "理": 2375,
      "琉": 2376,
      "琢": 2377,
      "琮": 2378,
      "琴": 2379,
      "璐": 2380,
      "環": 2381,
      "瓦": 2382,
      "甘": 2383,
      "甜": 2384,
      "生": 2385,
      "産": 2386,
      "用": 2387,
      "田": 2388,
      "由": 2389,
      "甲": 2390,
      "申": 2391,
      "电": 2392,
      "甸": 2393,
      "町": 2394,
      "画": 2395,
      "界": 2396,
      "留": 2397,
      "略": 2398,
      "番": 2399,
      "異": 2400,
      "當": 2401,
      "畿": 2402,
      "疑": 2403,
      "疗": 2404,
      "疾": 2405,
      "病": 2406,
      "痛": 2407,
      "痴": 2408,
      "登": 2409,
      "發": 2410,
      "白": 2411,
      "百": 2412,
      "的": 2413,
      "皇": 2414,
      "皮": 2415,
      "益": 2416,
      "监": 2417,
      "盖": 2418,
      "盘": 2419,
      "盟": 2420,
      "目": 2421,
      "直": 2422,
      "相": 2423,
      "省": 2424,
      "県": 2425,
      "眞": 2426,
      "真": 2427,
      "眼": 2428,
      "着": 2429,
      "督": 2430,
      "瞎": 2431,
      "瞬": 2432,
      "知": 2433,
      "石": 2434,
      "矿": 2435,
      "码": 2436,
      "研": 2437,
      "破": 2438,
      "硬": 2439,
      "确": 2440,
      "碁": 2441,
      "示": 2442,
      "礼": 2443,
      "社": 2444,
      "祖": 2445,
      "祝": 2446,
      "神": 2447,
      "票": 2448,
      "祭": 2449,
      "祿": 2450,
      "禁": 2451,
      "禄": 2452,
      "福": 2453,
      "秀": 2454,
      "私": 2455,
      "秉": 2456,
      "秋": 2457,
      "种": 2458,
      "科": 2459,
      "秘": 2460,
      "租": 2461,
      "积": 2462,
      "称": 2463,
      "移": 2464,
      "稅": 2465,
      "程": 2466,
      "税": 2467,
      "種": 2468,
      "稲": 2469,
      "稳": 2470,
      "稻": 2471,
      "稿": 2472,
      "穆": 2473,
      "穴": 2474,
      "究": 2475,
      "穷": 2476,
      "空": 2477,
      "穿": 2478,
      "突": 2479,
      "窗": 2480,
      "窪": 2481,
      "窯": 2482,
      "立": 2483,
      "站": 2484,
      "章": 2485,
      "童": 2486,
      "端": 2487,
      "竹": 2488,
      "笑": 2489,
      "笔": 2490,
      "符": 2491,
      "第": 2492,
      "等": 2493,
      "筑": 2494,
      "答": 2495,
      "策": 2496,
      "签": 2497,
      "简": 2498,
      "箍": 2499,
      "算": 2500,
      "管": 2501,
      "箱": 2502,
      "節": 2503,
      "篆": 2504,
      "簡": 2505,
      "簽": 2506,
      "籍": 2507,
      "籠": 2508,
      "米": 2509,
      "类": 2510,
      "粉": 2511,
      "粥": 2512,
      "粮": 2513,
      "精": 2514,
      "糖": 2515,
      "系": 2516,
      "紀": 2517,
      "約": 2518,
      "純": 2519,
      "紗": 2520,
      "紙": 2521,
      "素": 2522,
      "索": 2523,
      "紧": 2524,
      "細": 2525,
      "紹": 2526,
      "終": 2527,
      "組": 2528,
      "経": 2529,
      "絞": 2530,
      "絡": 2531,
      "給": 2532,
      "絵": 2533,
      "継": 2534,
      "網": 2535,
      "綴": 2536,
      "線": 2537,
      "編": 2538,
      "縄": 2539,
      "縣": 2540,
      "績": 2541,
      "繁": 2542,
      "约": 2543,
      "级": 2544,
      "纪": 2545,
      "纲": 2546,
      "纳": 2547,
      "纽": 2548,
      "线": 2549,
      "组": 2550,
      "细": 2551,
      "织": 2552,
      "绍": 2553,
      "经": 2554,
      "结": 2555,
      "给": 2556,
      "络": 2557,
      "统": 2558,
      "绩": 2559,
      "绪": 2560,
      "续": 2561,
      "维": 2562,
      "综": 2563,
      "绿": 2564,
      "编": 2565,
      "缩": 2566,
      "缺": 2567,
      "网": 2568,
      "罗": 2569,
      "罪": 2570,
      "置": 2571,
      "署": 2572,
      "羅": 2573,
      "美": 2574,
      "群": 2575,
      "義": 2576,
      "翁": 2577,
      "習": 2578,
      "翻": 2579,
      "耀": 2580,
      "老": 2581,
      "考": 2582,
      "者": 2583,
      "而": 2584,
      "耳": 2585,
      "耶": 2586,
      "职": 2587,
      "联": 2588,
      "聖": 2589,
      "聘": 2590,
      "聚": 2591,
      "聞": 2592,
      "職": 2593,
      "聽": 2594,
      "聾": 2595,
      "肃": 2596,
      "股": 2597,
      "育": 2598,
      "背": 2599,
      "能": 2600,
      "脑": 2601,
      "脱": 2602,
      "腰": 2603,
      "腹": 2604,
      "臂": 2605,
      "臓": 2606,
      "自": 2607,
      "致": 2608,
      "臺": 2609,
      "舉": 2610,
      "舍": 2611,
      "舞": 2612,
      "舫": 2613,
      "般": 2614,
      "船": 2615,
      "艇": 2616,
      "良": 2617,
      "色": 2618,
      "艳": 2619,
      "艺": 2620,
      "艾": 2621,
      "节": 2622,
      "芋": 2623,
      "芬": 2624,
      "花": 2625,
      "苏": 2626,
      "若": 2627,
      "英": 2628,
      "茂": 2629,
      "范": 2630,
      "茧": 2631,
      "茨": 2632,
      "茵": 2633,
      "茶": 2634,
      "草": 2635,
      "荣": 2636,
      "荫": 2637,
      "获": 2638,
      "莹": 2639,
      "菜": 2640,
      "華": 2641,
      "萧": 2642,
      "落": 2643,
      "葉": 2644,
      "蒂": 2645,
      "蒋": 2646,
      "蒸": 2647,
      "蔓": 2648,
      "蔚": 2649,
      "蔺": 2650,
      "薪": 2651,
      "薬": 2652,
      "藏": 2653,
      "藤": 2654,
      "蘇": 2655,
      "虑": 2656,
      "虚": 2657,
      "螳": 2658,
      "血": 2659,
      "行": 2660,
      "術": 2661,
      "补": 2662,
      "表": 2663,
      "衫": 2664,
      "袋": 2665,
      "袍": 2666,
      "被": 2667,
      "袭": 2668,
      "裁": 2669,
      "裏": 2670,
      "裔": 2671,
      "裕": 2672,
      "製": 2673,
      "西": 2674,
      "要": 2675,
      "覆": 2676,
      "覇": 2677,
      "見": 2678,
      "視": 2679,
      "覧": 2680,
      "親": 2681,
      "觀": 2682,
      "见": 2683,
      "观": 2684,
      "规": 2685,
      "视": 2686,
      "览": 2687,
      "角": 2688,
      "解": 2689,
      "言": 2690,
      "計": 2691,
      "訊": 2692,
      "記": 2693,
      "訪": 2694,
      "設": 2695,
      "許": 2696,
      "診": 2697,
      "証": 2698,
      "評": 2699,
      "試": 2700,
      "詩": 2701,
      "詰": 2702,
      "話": 2703,
      "認": 2704,
      "語": 2705,
      "誠": 2706,
      "請": 2707,
      "論": 2708,
      "諸": 2709,
      "證": 2710,
      "警": 2711,
      "議": 2712,
      "護": 2713,
      "计": 2714,
      "订": 2715,
      "认": 2716,
      "讨": 2717,
      "训": 2718,
      "议": 2719,
      "讯": 2720,
      "记": 2721,
      "许": 2722,
      "论": 2723,
      "讼": 2724,
      "设": 2725,
      "访": 2726,
      "证": 2727,
      "评": 2728,
      "识": 2729,
      "诉": 2730,
      "诊": 2731,
      "诗": 2732,
      "话": 2733,
      "询": 2734,
      "该": 2735,
      "语": 2736,
      "说": 2737,
      "请": 2738,
      "诺": 2739,
      "调": 2740,
      "谅": 2741,
      "谈": 2742,
      "谐": 2743,
      "谷": 2744,
      "豆": 2745,
      "象": 2746,
      "豪": 2747,
      "豫": 2748,
      "負": 2749,
      "財": 2750,
      "貢": 2751,
      "責": 2752,
      "貰": 2753,
      "費": 2754,
      "貿": 2755,
      "資": 2756,
      "賑": 2757,
      "賢": 2758,
      "賬": 2759,
      "賴": 2760,
      "購": 2761,
      "贈": 2762,
      "贝": 2763,
      "贞": 2764,
      "负": 2765,
      "财": 2766,
      "责": 2767,
      "账": 2768,
      "货": 2769,
      "质": 2770,
      "贫": 2771,
      "购": 2772,
      "贱": 2773,
      "贴": 2774,
      "贷": 2775,
      "贸": 2776,
      "费": 2777,
      "资": 2778,
      "赈": 2779,
      "赌": 2780,
      "赖": 2781,
      "赛": 2782,
      "赠": 2783,
      "赤": 2784,
      "赵": 2785,
      "赶": 2786,
      "起": 2787,
      "超": 2788,
      "越": 2789,
      "趋": 2790,
      "足": 2791,
      "跃": 2792,
      "跋": 2793,
      "距": 2794,
      "跟": 2795,
      "跨": 2796,
      "路": 2797,
      "踪": 2798,
      "身": 2799,
      "車": 2800,
      "軍": 2801,
      "較": 2802,
      "載": 2803,
      "輿": 2804,
      "车": 2805,
      "轩": 2806,
      "转": 2807,
      "软": 2808,
      "载": 2809,
      "较": 2810,
      "辅": 2811,
      "辆": 2812,
      "辑": 2813,
      "输": 2814,
      "辞": 2815,
      "辦": 2816,
      "边": 2817,
      "込": 2818,
      "达": 2819,
      "迁": 2820,
      "迅": 2821,
      "过": 2822,
      "迈": 2823,
      "迎": 2824,
      "运": 2825,
      "近": 2826,
      "还": 2827,
      "这": 2828,
      "进": 2829,
      "远": 2830,
      "违": 2831,
      "连": 2832,
      "迫": 2833,
      "退": 2834,
      "送": 2835,
      "逃": 2836,
      "选": 2837,
      "逊": 2838,
      "透": 2839,
      "递": 2840,
      "通": 2841,
      "速": 2842,
      "造": 2843,
      "逢": 2844,
      "連": 2845,
      "逸": 2846,
      "遇": 2847,
      "遊": 2848,
      "運": 2849,
      "過": 2850,
      "道": 2851,
      "達": 2852,
      "遗": 2853,
      "遠": 2854,
      "選": 2855,
      "邑": 2856,
      "那": 2857,
      "邦": 2858,
      "邮": 2859,
      "邱": 2860,
      "郎": 2861,
      "部": 2862,
      "郷": 2863,
      "都": 2864,
      "鄉": 2865,
      "配": 2866,
      "酒": 2867,
      "酸": 2868,
      "醋": 2869,
      "醫": 2870,
      "采": 2871,
      "释": 2872,
      "里": 2873,
      "重": 2874,
      "野": 2875,
      "量": 2876,
      "金": 2877,
      "釣": 2878,
      "鉄": 2879,
      "鉴": 2880,
      "銀": 2881,
      "銘": 2882,
      "錦": 2883,
      "鍵": 2884,
      "鏡": 2885,
      "鐵": 2886,
      "鑒": 2887,
      "针": 2888,
      "钓": 2889,
      "钧": 2890,
      "钱": 2891,
      "铭": 2892,
      "银": 2893,
      "链": 2894,
      "销": 2895,
      "锋": 2896,
      "键": 2897,
      "長": 2898,
      "长": 2899,
      "門": 2900,
      "開": 2901,
      "間": 2902,
      "閡": 2903,
      "関": 2904,
      "閣": 2905,
      "閥": 2906,
      "關": 2907,
      "门": 2908,
      "问": 2909,
      "间": 2910,
      "闻": 2911,
      "阅": 2912,
      "阜": 2913,
      "队": 2914,
      "阪": 2915,
      "防": 2916,
      "阳": 2917,
      "阿": 2918,
      "陀": 2919,
      "附": 2920,
      "际": 2921,
      "陆": 2922,
      "陈": 2923,
      "降": 2924,
      "限": 2925,
      "陕": 2926,
      "院": 2927,
      "陣": 2928,
      "除": 2929,
      "险": 2930,
      "陳": 2931,
      "陶": 2932,
      "陽": 2933,
      "隆": 2934,
      "随": 2935,
      "際": 2936,
      "障": 2937,
      "險": 2938,
      "难": 2939,
      "雄": 2940,
      "集": 2941,
      "雇": 2942,
      "雑": 2943,
      "雛": 2944,
      "難": 2945,
      "雨": 2946,
      "雪": 2947,
      "雲": 2948,
      "零": 2949,
      "雷": 2950,
      "電": 2951,
      "需": 2952,
      "青": 2953,
      "静": 2954,
      "非": 2955,
      "靠": 2956,
      "面": 2957,
      "革": 2958,
      "音": 2959,
      "頂": 2960,
      "頃": 2961,
      "頭": 2962,
      "題": 2963,
      "類": 2964,
      "页": 2965,
      "顶": 2966,
      "项": 2967,
      "顺": 2968,
      "须": 2969,
      "顾": 2970,
      "顿": 2971,
      "预": 2972,
      "领": 2973,
      "频": 2974,
      "颖": 2975,
      "题": 2976,
      "额": 2977,
      "颠": 2978,
      "風": 2979,
      "风": 2980,
      "飛": 2981,
      "食": 2982,
      "飼": 2983,
      "飾": 2984,
      "餅": 2985,
      "養": 2986,
      "館": 2987,
      "馆": 2988,
      "首": 2989,
      "香": 2990,
      "馬": 2991,
      "駄": 2992,
      "駅": 2993,
      "駕": 2994,
      "駛": 2995,
      "騜": 2996,
      "马": 2997,
      "驶": 2998,
      "驻": 2999,
      "驾": 3000,
      "验": 3001,
      "骨": 3002,
      "高": 3003,
      "魁": 3004,
      "魂": 3005,
      "魚": 3006,
      "鱲": 3007,
      "鱼": 3008,
      "鲁": 3009,
      "鳥": 3010,
      "鵜": 3011,
      "鸣": 3012,
      "鹿": 3013,
      "麦": 3014,
      "黄": 3015,
      "黎": 3016,
      "黒": 3017,
      "黛": 3018,
      "鼓": 3019,
      "龍": 3020,
      "龙": 3021,
      "가": 3022,
      "강": 3023,
      "개": 3024,
      "거": 3025,
      "검": 3026,
      "게": 3027,
      "결": 3028,
      "경": 3029,
      "계": 3030,
      "고": 3031,
      "골": 3032,
      "공": 3033,
      "과": 3034,
      "관": 3035,
      "광": 3036,
      "괴": 3037,
      "교": 3038,
      "구": 3039,
      "국": 3040,
      "군": 3041,
      "굴": 3042,
      "권": 3043,
      "규": 3044,
      "극": 3045,
      "글": 3046,
      "금": 3047,
      "급": 3048,
      "기": 3049,
      "김": 3050,
      "낀": 3051,
      "나": 3052,
      "납": 3053,
      "낮": 3054,
      "내": 3055,
      "녁": 3056,
      "년": 3057,
      "념": 3058,
      "노": 3059,
      "뉴": 3060,
      "는": 3061,
      "늘": 3062,
      "능": 3063,
      "니": 3064,
      "닉": 3065,
      "님": 3066,
      "다": 3067,
      "단": 3068,
      "달": 3069,
      "당": 3070,
      "대": 3071,
      "도": 3072,
      "되": 3073,
      "된": 3074,
      "됩": 3075,
      "둥": 3076,
      "뒤": 3077,
      "드": 3078,
      "등": 3079,
      "따": 3080,
      "뜩": 3081,
      "라": 3082,
      "란": 3083,
      "람": 3084,
      "랍": 3085,
      "래": 3086,
      "러": 3087,
      "레": 3088,
      "렉": 3089,
      "력": 3090,
      "련": 3091,
      "로": 3092,
      "록": 3093,
      "료": 3094,
      "류": 3095,
      "르": 3096,
      "를": 3097,
      "름": 3098,
      "리": 3099,
      "마": 3100,
      "만": 3101,
      "망": 3102,
      "매": 3103,
      "며": 3104,
      "면": 3105,
      "명": 3106,
      "무": 3107,
      "문": 3108,
      "물": 3109,
      "미": 3110,
      "민": 3111,
      "및": 3112,
      "바": 3113,
      "박": 3114,
      "발": 3115,
      "번": 3116,
      "범": 3117,
      "벽": 3118,
      "변": 3119,
      "병": 3120,
      "보": 3121,
      "본": 3122,
      "봉": 3123,
      "부": 3124,
      "분": 3125,
      "불": 3126,
      "비": 3127,
      "사": 3128,
      "상": 3129,
      "색": 3130,
      "샤": 3131,
      "서": 3132,
      "성": 3133,
      "셔": 3134,
      "소": 3135,
      "속": 3136,
      "송": 3137,
      "수": 3138,
      "순": 3139,
      "술": 3140,
      "쉬": 3141,
      "스": 3142,
      "습": 3143,
      "승": 3144,
      "시": 3145,
      "신": 3146,
      "실": 3147,
      "십": 3148,
      "쏘": 3149,
      "아": 3150,
      "안": 3151,
      "알": 3152,
      "암": 3153,
      "액": 3154,
      "야": 3155,
      "어": 3156,
      "업": 3157,
      "에": 3158,
      "여": 3159,
      "역": 3160,
      "연": 3161,
      "영": 3162,
      "옥": 3163,
      "와": 3164,
      "완": 3165,
      "외": 3166,
      "요": 3167,
      "용": 3168,
      "우": 3169,
      "원": 3170,
      "월": 3171,
      "위": 3172,
      "유": 3173,
      "율": 3174,
      "으": 3175,
      "은": 3176,
      "을": 3177,
      "음": 3178,
      "의": 3179,
      "이": 3180,
      "인": 3181,
      "일": 3182,
      "임": 3183,
      "입": 3184,
      "있": 3185,
      "자": 3186,
      "작": 3187,
      "잔": 3188,
      "장": 3189,
      "재": 3190,
      "저": 3191,
      "적": 3192,
      "전": 3193,
      "절": 3194,
      "접": 3195,
      "정": 3196,
      "제": 3197,
      "족": 3198,
      "졸": 3199,
      "좌": 3200,
      "죄": 3201,
      "주": 3202,
      "죽": 3203,
      "준": 3204,
      "중": 3205,
      "증": 3206,
      "지": 3207,
      "직": 3208,
      "진": 3209,
      "짐": 3210,
      "착": 3211,
      "채": 3212,
      "천": 3213,
      "첨": 3214,
      "청": 3215,
      "체": 3216,
      "초": 3217,
      "촬": 3218,
      "최": 3219,
      "추": 3220,
      "출": 3221,
      "충": 3222,
      "치": 3223,
      "카": 3224,
      "캐": 3225,
      "콜": 3226,
      "콩": 3227,
      "쿤": 3228,
      "크": 3229,
      "타": 3230,
      "태": 3231,
      "택": 3232,
      "터": 3233,
      "통": 3234,
      "퇴": 3235,
      "투": 3236,
      "트": 3237,
      "포": 3238,
      "표": 3239,
      "하": 3240,
      "학": 3241,
      "한": 3242,
      "할": 3243,
      "함": 3244,
      "합": 3245,
      "해": 3246,
      "했": 3247,
      "행": 3248,
      "허": 3249,
      "현": 3250,
      "호": 3251,
      "혼": 3252,
      "홍": 3253,
      "화": 3254,
      "환": 3255,
      "황": 3256,
      "회": 3257,
      "효": 3258,
      "후": 3259,
      "휴": 3260,
      "희": 3261,
      "": 3262,
      "": 3263,
      "": 3264,
      "": 3265,
      "": 3266,
      "": 3267,
      "": 3268,
      "": 3269,
      "": 3270,
      "": 3271,
      "": 3272,
      "": 3273,
      "": 3274,
      "": 3275,
      "": 3276,
      "": 3277,
      "": 3278,
      "": 3279,
      "": 3280,
      "": 3281,
      "": 3282,
      "": 3283,
      "": 3284,
      "": 3285,
      "": 3286,
      "": 3287,
      "": 3288,
      "": 3289,
      "": 3290,
      "": 3291,
      "": 3292,
      "": 3293,
      "": 3294,
      "": 3295,
      "": 3296,
      "": 3297,
      "": 3298,
      "": 3299,
      "": 3300,
      "": 3301,
      "": 3302,
      "": 3303,
      "": 3304,
      "": 3305,
      "": 3306,
      "": 3307,
      "": 3308,
      "": 3309,
      "": 3310,
      "": 3311,
      "": 3312,
      "": 3313,
      "": 3314,
      "": 3315,
      "": 3316,
      "": 3317,
      "": 3318,
      "": 3319,
      "": 3320,
      "": 3321,
      "": 3322,
      "": 3323,
      "": 3324,
      "": 3325,
      "": 3326,
      "": 3327,
      "": 3328,
      "": 3329,
      "": 3330,
      "": 3331,
      "": 3332,
      "": 3333,
      "": 3334,
      "": 3335,
      "": 3336,
      "": 3337,
      "": 3338,
      "": 3339,
      "": 3340,
      "": 3341,
      "": 3342,
      "": 3343,
      "": 3344,
      "": 3345,
      "": 3346,
      "": 3347,
      "": 3348,
      "": 3349,
      "": 3350,
      "": 3351,
      "": 3352,
      "": 3353,
      "": 3354,
      "": 3355,
      "": 3356,
      "": 3357,
      "": 3358,
      "": 3359,
      "": 3360,
      "": 3361,
      "": 3362,
      "": 3363,
      "": 3364,
      "": 3365,
      "": 3366,
      "": 3367,
      "": 3368,
      "": 3369,
      "": 3370,
      "": 3371,
      "": 3372,
      "": 3373,
      "": 3374,
      "": 3375,
      "": 3376,
      "": 3377,
      "": 3378,
      "": 3379,
      "": 3380,
      "": 3381,
      "": 3382,
      "": 3383,
      "": 3384,
      "": 3385,
      "": 3386,
      "": 3387,
      "": 3388,
      "": 3389,
      "": 3390,
      "": 3391,
      "": 3392,
      "": 3393,
      "": 3394,
      "": 3395,
      "": 3396,
      "": 3397,
      "": 3398,
      "": 3399,
      "": 3400,
      "": 3401,
      "": 3402,
      "": 3403,
      "": 3404,
      "": 3405,
      "": 3406,
      "": 3407,
      "": 3408,
      "": 3409,
      "": 3410,
      "": 3411,
      "": 3412,
      "": 3413,
      "": 3414,
      "": 3415,
      "": 3416,
      "": 3417,
      "": 3418,
      "": 3419,
      "": 3420,
      "": 3421,
      "": 3422,
      "": 3423,
      "": 3424,
      "": 3425,
      "": 3426,
      "": 3427,
      "": 3428,
      "": 3429,
      "": 3430,
      "": 3431,
      "": 3432,
      "": 3433,
      "": 3434,
      "": 3435,
      "": 3436,
      "": 3437,
      "": 3438,
      "": 3439,
      "": 3440,
      "": 3441,
      "": 3442,
      "": 3443,
      "": 3444,
      "": 3445,
      "": 3446,
      "": 3447,
      "": 3448,
      "": 3449,
      "": 3450,
      "": 3451,
      "": 3452,
      "": 3453,
      "": 3454,
      "": 3455,
      "": 3456,
      "": 3457,
      "": 3458,
      "": 3459,
      "": 3460,
      "": 3461,
      "": 3462,
      "": 3463,
      "": 3464,
      "": 3465,
      "": 3466,
      "": 3467,
      "": 3468,
      "": 3469,
      "": 3470,
      "": 3471,
      "": 3472,
      "": 3473,
      "": 3474,
      "": 3475,
      "": 3476,
      "": 3477,
      "": 3478,
      "": 3479,
      "": 3480,
      "": 3481,
      "": 3482,
      "": 3483,
      "": 3484,
      "": 3485,
      "": 3486,
      "": 3487,
      "": 3488,
      "": 3489,
      "": 3490,
      "": 3491,
      "": 3492,
      "": 3493,
      "": 3494,
      "": 3495,
      "": 3496,
      "": 3497,
      "": 3498,
      "": 3499,
      "": 3500,
      "": 3501,
      "": 3502,
      "": 3503,
      "": 3504,
      "": 3505,
      "": 3506,
      "": 3507,
      "": 3508,
      "": 3509,
      "": 3510,
      "": 3511,
      "": 3512,
      "": 3513,
      "": 3514,
      "": 3515,
      "": 3516,
      "": 3517,
      "": 3518,
      "": 3519,
      "": 3520,
      "": 3521,
      "": 3522,
      "": 3523,
      "": 3524,
      "": 3525,
      "": 3526,
      "": 3527,
      "": 3528,
      "": 3529,
      "": 3530,
      "": 3531,
      "": 3532,
      "": 3533,
      "": 3534,
      "": 3535,
      "": 3536,
      "": 3537,
      "": 3538,
      "": 3539,
      "": 3540,
      "": 3541,
      "": 3542,
      "": 3543,
      "": 3544,
      "": 3545,
      "": 3546,
      "": 3547,
      "": 3548,
      "": 3549,
      "": 3550,
      "": 3551,
      "": 3552,
      "": 3553,
      "": 3554,
      "": 3555,
      "": 3556,
      "": 3557,
      "": 3558,
      "": 3559,
      "": 3560,
      "": 3561,
      "": 3562,
      "": 3563,
      "": 3564,
      "": 3565,
      "": 3566,
      "": 3567,
      "": 3568,
      "": 3569,
      "": 3570,
      "": 3571,
      "": 3572,
      "": 3573,
      "": 3574,
      "": 3575,
      "": 3576,
      "": 3577,
      "": 3578,
      "": 3579,
      "": 3580,
      "": 3581,
      "": 3582,
      "": 3583,
      "": 3584,
      "": 3585,
      "": 3586,
      "": 3587,
      "": 3588,
      "": 3589,
      "": 3590,
      "": 3591,
      "": 3592,
      "": 3593,
      "": 3594,
      "": 3595,
      "": 3596,
      "": 3597,
      "": 3598,
      "": 3599,
      "": 3600,
      "": 3601,
      "": 3602,
      "": 3603,
      "": 3604,
      "": 3605,
      "": 3606,
      "": 3607,
      "": 3608,
      "": 3609,
      "": 3610,
      "": 3611,
      "": 3612,
      "": 3613,
      "": 3614,
      "": 3615,
      "": 3616,
      "": 3617,
      "": 3618,
      "": 3619,
      "": 3620,
      "": 3621,
      "": 3622,
      "": 3623,
      "": 3624,
      "": 3625,
      "": 3626,
      "ﬀ": 3627,
      "ﬁ": 3628,
      "ﬂ": 3629,
      "ﬃ": 3630,
      "ﬄ": 3631,
      "ﭧ": 3632,
      "ﮍ": 3633,
      "ﮨ": 3634,
      "ﮫ": 3635,
      "ﮯ": 3636,
      "ﯾ": 3637,
      "ﯿ": 3638,
      "ﰐ": 3639,
      "ﰲ": 3640,
      "ﱂ": 3641,
      "ﱃ": 3642,
      "ﱄ": 3643,
      "ﱐ": 3644,
      "ﱘ": 3645,
      "ﱠ": 3646,
      "ﱢ": 3647,
      "ﱪ": 3648,
      "ﱰ": 3649,
      "ﱵ": 3650,
      "ﲑ": 3651,
      "ﲔ": 3652,
      "ﲞ": 3653,
      "ﲟ": 3654,
      "ﲡ": 3655,
      "ﲢ": 3656,
      "ﲣ": 3657,
      "ﲤ": 3658,
      "ﲨ": 3659,
      "ﲬ": 3660,
      "ﲰ": 3661,
      "ﳉ": 3662,
      "ﳊ": 3663,
      "ﳋ": 3664,
      "ﳌ": 3665,
      "ﳍ": 3666,
      "ﳎ": 3667,
      "ﳑ": 3668,
      "ﳒ": 3669,
      "ﳓ": 3670,
      "ﳔ": 3671,
      "ﳘ": 3672,
      "﴾": 3673,
      "﴿": 3674,
      "ﶈ": 3675,
      "﷓": 3676,
      "︰": 3677,
      "﹏": 3678,
      "﹑": 3679,
      "﹝": 3680,
      "﹞": 3681,
      "ﹰ": 3682,
      "ﹶ": 3683,
      "ﹼ": 3684,
      "ﺀ": 3685,
      "ﺁ": 3686,
      "ﺂ": 3687,
      "ﺃ": 3688,
      "ﺄ": 3689,
      "ﺅ": 3690,
      "ﺆ": 3691,
      "ﺇ": 3692,
      "ﺈ": 3693,
      "ﺉ": 3694,
      "ﺊ": 3695,
      "ﺋ": 3696,
      "ﺌ": 3697,
      "ﺍ": 3698,
      "ﺎ": 3699,
      "ﺏ": 3700,
      "ﺐ": 3701,
      "ﺑ": 3702,
      "ﺒ": 3703,
      "ﺓ": 3704,
      "ﺔ": 3705,
      "ﺕ": 3706,
      "ﺖ": 3707,
      "ﺗ": 3708,
      "ﺘ": 3709,
      "ﺙ": 3710,
      "ﺚ": 3711,
      "ﺛ": 3712,
      "ﺜ": 3713,
      "ﺝ": 3714,
      "ﺞ": 3715,
      "ﺟ": 3716,
      "ﺠ": 3717,
      "ﺡ": 3718,
      "ﺢ": 3719,
      "ﺣ": 3720,
      "ﺤ": 3721,
      "ﺦ": 3722,
      "ﺧ": 3723,
      "ﺨ": 3724,
      "ﺩ": 3725,
      "ﺪ": 3726,
      "ﺫ": 3727,
      "ﺬ": 3728,
      "ﺭ": 3729,
      "ﺮ": 3730,
      "ﺯ": 3731,
      "ﺰ": 3732,
      "ﺱ": 3733,
      "ﺲ": 3734,
      "ﺳ": 3735,
      "ﺴ": 3736,
      "ﺵ": 3737,
      "ﺶ": 3738,
      "ﺷ": 3739,
      "ﺸ": 3740,
      "ﺹ": 3741,
      "ﺺ": 3742,
      "ﺻ": 3743,
      "ﺼ": 3744,
      "ﺽ": 3745,
      "ﺾ": 3746,
      "ﺿ": 3747,
      "ﻀ": 3748,
      "ﻁ": 3749,
      "ﻂ": 3750,
      "ﻃ": 3751,
      "ﻄ": 3752,
      "ﻅ": 3753,
      "ﻆ": 3754,
      "ﻇ": 3755,
      "ﻈ": 3756,
      "ﻉ": 3757,
      "ﻊ": 3758,
      "ﻋ": 3759,
      "ﻌ": 3760,
      "ﻍ": 3761,
      "ﻎ": 3762,
      "ﻏ": 3763,
      "ﻐ": 3764,
      "ﻑ": 3765,
      "ﻒ": 3766,
      "ﻓ": 3767,
      "ﻔ": 3768,
      "ﻕ": 3769,
      "ﻖ": 3770,
      "ﻗ": 3771,
      "ﻘ": 3772,
      "ﻙ": 3773,
      "ﻚ": 3774,
      "ﻛ": 3775,
      "ﻜ": 3776,
      "ﻝ": 3777,
      "ﻞ": 3778,
      "ﻟ": 3779,
      "ﻠ": 3780,
      "ﻡ": 3781,
      "ﻢ": 3782,
      "ﻣ": 3783,
      "ﻤ": 3784,
      "ﻥ": 3785,
      "ﻦ": 3786,
      "ﻧ": 3787,
      "ﻨ": 3788,
      "ﻩ": 3789,
      "ﻪ": 3790,
      "ﻫ": 3791,
      "ﻬ": 3792,
      "ﻭ": 3793,
      "ﻮ": 3794,
      "ﻯ": 3795,
      "ﻰ": 3796,
      "ﻱ": 3797,
      "ﻲ": 3798,
      "ﻳ": 3799,
      "ﻴ": 3800,
      "ﻵ": 3801,
      "ﻶ": 3802,
      "ﻷ": 3803,
      "ﻸ": 3804,
      "ﻹ": 3805,
      "ﻺ": 3806,
      "ﻻ": 3807,
      "ﻼ": 3808,
      "﻿": 3809,
      "！": 3810,
      "＂": 3811,
      "％": 3812,
      "＆": 3813,
      "（": 3814,
      "）": 3815,
      "＊": 3816,
      "，": 3817,
      "－": 3818,
      "．": 3819,
      "０": 3820,
      "１": 3821,
      "２": 3822,
      "４": 3823,
      "６": 3824,
      "：": 3825,
      "；": 3826,
      "＜": 3827,
      "＝": 3828,
      "＞": 3829,
      "？": 3830,
      "＠": 3831,
      "［": 3832,
      "］": 3833,
      "＾": 3834,
      "ｂ": 3835,
      "ｄ": 3836,
      "ｅ": 3837,
      "ｈ": 3838,
      "ｌ": 3839,
      "ｎ": 3840,
      "ｏ": 3841,
      "ｐ": 3842,
      "ｓ": 3843,
      "ｕ": 3844,
      "ｖ": 3845,
      "～": 3846,
      "｢": 3847,
      "｣": 3848,
      "､": 3849,
      "ﾔ": 3850,
      "￥": 3851,
      "￭": 3852,
      "￼": 3853,
      "�": 3854,
      "𠄲": 3855,
      "##e": 3856,
      "##w": 3857,
      "##s": 3858,
      "##p": 3859,
      "##a": 3860,
      "##r": 3861,
      "##1": 3862,
      "##6": 3863,
      "##5": 3864,
      "##i": 3865,
      "##d": 3866,
      "##n": 3867,
      "##t": 3868,
      "##g": 3869,
      "##ş": 3870,
      "##0": 3871,
      "##3": 3872,
      "##8": 3873,
      "##7": 3874,
      "##4": 3875,
      "##f": 3876,
      "##l": 3877,
      "##2": 3878,
      "##u": 3879,
      "##h": 3880,
      "##c": 3881,
      "##ä": 3882,
      "##k": 3883,
      "##\u0018": 3884,
      "##.": 3885,
      "##m": 3886,
      "##o": 3887,
      "##v": 3888,
      "##y": 3889,
      "##_": 3890,
      "##9": 3891,
      "##z": 3892,
      "##ž": 3893,
      "##q": 3894,
      "##р": 3895,
      "##о": 3896,
      "##в": 3897,
      "##і": 3898,
      "##н": 3899,
      "##ц": 3900,
      "##й": 3901,
      "##ї": 3902,
      "##č": 3903,
      "##ý": 3904,
      "##x": 3905,
      "##b": 3906,
      "##τ": 3907,
      "##ο": 3908,
      "##ι": 3909,
      "##χ": 3910,
      "##ε": 3911,
      "##ω": 3912,
      "##ν": 3913,
      "##{": 3914,
      "##\u001c": 3915,
      "##§": 3916,
      "##\"": 3917,
      "##'": 3918,
      "##е": 3919,
      "##к": 3920,
      "##м": 3921,
      "##д": 3922,
      "##а": 3923,
      "##и": 3924,
      "##ó": 3925,
      "##ü": 3926,
      "##š": 3927,
      "##ç": 3928,
      "##\u001e": 3929,
      "##\u0014": 3930,
      "##\u001d": 3931,
      "##j": 3932,
      "##’": 3933,
      "##ł": 3934,
      "##é": 3935,
      "##,": 3936,
      "##%": 3937,
      "##á": 3938,
      "##õ": 3939,
      "##è": 3940,
      "##þ": 3941,
      "##如": 3942,
      "##ö": 3943,
      "##ż": 3944,
      "##ë": 3945,
      "##ţ": 3946,
      "##”": 3947,
      "##?": 3948,
      "##-": 3949,
      "##*": 3950,
      "##\u0012": 3951,
      "##\b": 3952,
      "##\u0003": 3953,
      "##\u0004": 3954,
      "##\u001b": 3955,
      "##\u0006": 3956,
      "##ố": 3957,
      "##ā": 3958,
      "##ô": 3959,
      "##(": 3960,
      "##臂": 3961,
      "##挡": 3962,
      "##车": 3963,
      "##у": 3964,
      "##х": 3965,
      "##ø": 3966,
      "##®": 3967,
      "###": 3968,
      "##;": 3969,
      "##$": 3970,
      "##/": 3971,
      "##α": 3972,
      "##ê": 3973,
      "##ú": 3974,
      "##ﬂ": 3975,
      "##ă": 3976,
      "##̇": 3977,
      "##ð": 3978,
      "##\u0001": 3979,
      "##\u0013": 3980,
      "##â": 3981,
      "##+": 3982,
      "##л": 3983,
      "##ñ": 3984,
      "##)": 3985,
      "##û": 3986,
      "##¯": 3987,
      "##æ": 3988,
      "##ų": 3989,
      "##î": 3990,
      "##à": 3991,
      "##ò": 3992,
      "##\u000e": 3993,
      "##\u0016": 3994,
      "##\u0011": 3995,
      "##\u0010": 3996,
      "##!": 3997,
      "##ć": 3998,
      "##–": 3999,
      "##ﬃ": 4000,
      "##¶": 4001,
      "##‰": 4002,
      "##б": 4003,
      "##я": 4004,
      "##ã": 4005,
      "##~": 4006,
      "##—": 4007,
      "##с": 4008,
      "##г": 4009,
      "##联": 4010,
      "##体": 4011,
      "##成": 4012,
      "##员": 4013,
      "##国": 4014,
      "##议": 4015,
      "##会": 4016,
      "##大": 4017,
      "##\u000f": 4018,
      "##\u001f": 4019,
      "##т": 4020,
      "##١": 4021,
      "##γ": 4022,
      "##ή": 4023,
      "##ς": 4024,
      "##μ": 4025,
      "##δ": 4026,
      "##ό": 4027,
      "##η": 4028,
      "##σ": 4029,
      "##ī": 4030,
      "##‑": 4031,
      "##ʼ": 4032,
      "##ǫ": 4033,
      "##́": 4034,
      "##†": 4035,
      "##¨": 4036,
      "##\u0007": 4037,
      "##\u001a": 4038,
      "##ı": 4039,
      "##…": 4040,
      "##ª": 4041,
      "##п": 4042,
      "##ы": 4043,
      "##£": 4044,
      "##ا": 4045,
      "##ﺋ": 4046,
      "##ـ": 4047,
      "##ﺮ": 4048,
      "##ة": 4049,
      "##\u0019": 4050,
      "##\u0005": 4051,
      "##ф": 4052,
      "##ź": 4053,
      "##آ": 4054,
      "##ﻟ": 4055,
      "##ﻴ": 4056,
      "##ﺎ": 4057,
      "##ت": 4058,
      "##": 4059,
      "##": 4060,
      "##|": 4061,
      "##‘": 4062,
      "##³": 4063,
      "##": 4064,
      "##×": 4065,
      "##@": 4066,
      "##ɛ": 4067,
      "##ﬁ": 4068,
      "##¿": 4069,
      "##:": 4070,
      "##\u0015": 4071,
      "##\u0017": 4072,
      "##í": 4073,
      "##ÿ": 4074,
      "##>": 4075,
      "##ع": 4076,
      "##ي": 4077,
      "##ğ": 4078,
      "##ę": 4079,
      "##„": 4080,
      "##ь": 4081,
      "##<": 4082,
      "##÷": 4083,
      "##¼": 4084,
      "##´": 4085,
      "##}": 4086,
      "##ρ": 4087,
      "##κ": 4088,
      "##ώ": 4089,
      "##]": 4090,
      "##²": 4091,
      "##[": 4092,
      "##\u0002": 4093,
      "##": 4094,
      "##ß": 4095,
      "##ą": 4096,
      "##": 4097,
      "##": 4098,
      "##": 4099,
      "##ś": 4100,
      "##ﻋ": 4101,
      "##ﻤ": 4102,
      "##ل": 4103,
      "##»": 4104,
      "##ï": 4105,
      "##ē": 4106,
      "##έ": 4107,
      "##ù": 4108,
      "##đ": 4109,
      "##ė": 4110,
      "##‚": 4111,
      "##€": 4112,
      "##“": 4113,
      "##‹": 4114,
      "##¹": 4115,
      "##å": 4116,
      "##ك": 4117,
      "##ذ": 4118,
      "##ɔ": 4119,
      "##ѓ": 4120,
      "##": 4121,
      "##": 4122,
      "##": 4123,
      "##": 4124,
      "##ķ": 4125,
      "##±": 4126,
      "##ж": 4127,
      "##º": 4128,
      "##\\": 4129,
      "##": 4130,
      "##µ": 4131,
      "##": 4132,
      "##息": 4133,
      "##技": 4134,
      "##术": 4135,
      "##常": 4136,
      "##设": 4137,
      "##委": 4138,
      "##ě": 4139,
      "##": 4140,
      "##": 4141,
      "##ﺭ": 4142,
      "##=": 4143,
      "##ج": 4144,
      "##م": 4145,
      "##": 4146,
      "##": 4147,
      "##¢": 4148,
      "##‡": 4149,
      "##ﺴ": 4150,
      "##ﻪ": 4151,
      "##°": 4152,
      "##ِ": 4153,
      "##خ": 4154,
      "##ْ": 4155,
      "##ر": 4156,
      "##َ": 4157,
      "##ی": 4158,
      "##و": 4159,
      "##ه": 4160,
      "##ά": 4161,
      "##^": 4162,
      "##½": 4163,
      "##ш": 4164,
      "##�": 4165,
      "##ᑭ": 4166,
      "##ᐊ": 4167,
      "##ᒃ": 4168,
      "##ᓵ": 4169,
      "##ᑯ": 4170,
      "##ᑦ": 4171,
      "##ń": 4172,
      "##ﺼ": 4173,
      "##ﺩ": 4174,
      "##λ": 4175,
      "##년": 4176,
      "##ƒ": 4177,
      "##œ": 4178,
      "##上": 4179,
      "##手": 4180,
      "##&": 4181,
      "##ю": 4182,
      "##щ": 4183,
      "##ґ": 4184,
      "##ј": 4185,
      "##ﳉ": 4186,
      "##ﺪ": 4187,
      "##行": 4188,
      "##對": 4189,
      "##賬": 4190,
      "##單": 4191,
      "##ﻔ": 4192,
      "##θ": 4193,
      "##涌": 4194,
      "##谷": 4195,
      "##径": 4196,
      "##з": 4197,
      "##ﻷ": 4198,
      "##ﺳ": 4199,
      "##ﺘ": 4200,
      "##ᐳ": 4201,
      "##ᓐ": 4202,
      "##ᓂ": 4203,
      "##ᖅ": 4204,
      "##ᑎ": 4205,
      "##ᖏ": 4206,
      "##υ": 4207,
      "##β": 4208,
      "##ﺗ": 4209,
      "##ﺤ": 4210,
      "##ﻦ": 4211,
      "##ņ": 4212,
      "##ﺜ": 4213,
      "##ﻨ": 4214,
      "##ﻲ": 4215,
      "##ﺒ": 4216,
      "##ﻞ": 4217,
      "##π": 4218,
      "##ђ": 4219,
      "##ѕ": 4220,
      "##є": 4221,
      "##¸": 4222,
      "##ح": 4223,
      "##ن": 4224,
      "##‬": 4225,
      "##`": 4226,
      "##ộ": 4227,
      "##시": 4228,
      "##개": 4229,
      "##ร": 4230,
      "##ี": 4231,
      "##ﻜ": 4232,
      "##ﻠ": 4233,
      "##ﺔ": 4234,
      "##٣": 4235,
      "##ч": 4236,
      "##ﻑ": 4237,
      "##ᑲ": 4238,
      "##ᓇ": 4239,
      "##ᐃ": 4240,
      "##ᔭ": 4241,
      "##ì": 4242,
      "##ί": 4243,
      "##ו": 4244,
      "##ל": 4245,
      "##ﻭ": 4246,
      "##ū": 4247,
      "##定": 4248,
      "##三": 4249,
      "##母": 4250,
      "##女": 4251,
      "##被": 4252,
      "##殺": 4253,
      "##括": 4254,
      "##根": 4255,
      "##据": 4256,
      "##托": 4257,
      "##权": 4258,
      "##限": 4259,
      "##签": 4260,
      "##发": 4261,
      "##供": 4262,
      "##资": 4263,
      "##文": 4264,
      "##件": 4265,
      "##«": 4266,
      "##年": 4267,
      "##ﻓ": 4268,
      "##ﻘ": 4269,
      "##项": 4270,
      "##计": 4271,
      "##划": 4272,
      "##­": 4273,
      "##ق": 4274,
      "##ﻮ": 4275,
      "##ﺟ": 4276,
      "##ﺨ": 4277,
      "##ﻀ": 4278,
      "##ﺠ": 4279,
      "##ύ": 4280,
      "##ˆ": 4281,
      "##¤": 4282,
      "##勢": 4283,
      "##¡": 4284,
      "##ﺧ": 4285,
      "##™": 4286,
      "##ﬀ": 4287,
      "##ᓯ": 4288,
      "##ᐱ": 4289,
      "##ᕆ": 4290,
      "##ř": 4291,
      "##ﺌ": 4292,
      "##ﺕ": 4293,
      "##ﻁ": 4294,
      "##إ": 4295,
      "##φ": 4296,
      "##ĳ": 4297,
      "##": 4298,
      "##": 4299,
      "##": 4300,
      "##ё": 4301,
      "##ň": 4302,
      "##∂": 4303,
      "##ấ": 4304,
      "##◄": 4305,
      "##►": 4306,
      "##ű": 4307,
      "##ʔ": 4308,
      "##ᒪ": 4309,
      "##›": 4310,
      "##¬": 4311,
      "##¦": 4312,
      "##ϊ": 4313,
      "##ả": 4314,
      "##": 4315,
      "##": 4316,
      "##": 4317,
      "##": 4318,
      "##": 4319,
      "##": 4320,
      "##": 4321,
      "##": 4322,
      "##": 4323,
      "##": 4324,
      "##": 4325,
      "##": 4326,
      "##무": 4327,
      "##관": 4328,
      "##련": 4329,
      "##−": 4330,
      "##１": 4331,
      "##若": 4332,
      "##妻": 4333,
      "##ᔮ": 4334,
      "##ᖃ": 4335,
      "##ᕐ": 4336,
      "##ᒥ": 4337,
      "##ō": 4338,
      "##传": 4339,
      "##源": 4340,
      "##ő": 4341,
      "##ﲑ": 4342,
      "##ϋ": 4343,
      "##불": 4344,
      "##은": 4345,
      "##逸": 4346,
      "##ﺬ": 4347,
      "##ጨ": 4348,
      "##ረ": 4349,
      "##ሻ": 4350,
      "##": 4351,
      "##": 4352,
      "##": 4353,
      "##": 4354,
      "##": 4355,
      "##ص": 4356,
      "##ف": 4357,
      "##ᑐ": 4358,
      "##ᔾ": 4359,
      "##ᔨ": 4360,
      "##ᔩ": 4361,
      "##¾": 4362,
      "##": 4363,
      "##ᐸ": 4364,
      "##ᓚ": 4365,
      "##ᐅ": 4366,
      "##ᔪ": 4367,
      "##ῖ": 4368,
      "##©": 4369,
      "##정": 4370,
      "##에": 4371,
      "##": 4372,
      "##ظ": 4373,
      "##見": 4374,
      "##達": 4375,
      "##¥": 4376,
      "##ξ": 4377,
      "##ế": 4378,
      "##נ": 4379,
      "##ה": 4380,
      "##ﻬ": 4381,
      "##ﻡ": 4382,
      "##ま": 4383,
      "##わ": 4384,
      "##り": 4385,
      "##っ": 4386,
      "##港": 4387,
      "##与": 4388,
      "##内": 4389,
      "##地": 4390,
      "##相": 4391,
      "##互": 4392,
      "##执": 4393,
      "##仲": 4394,
      "##裁": 4395,
      "##决": 4396,
      "##制": 4397,
      "##度": 4398,
      "##之": 4399,
      "##展": 4400,
      "##د": 4401,
      "##ء": 4402,
      "##海": 4403,
      "##道": 4404,
      "##府": 4405,
      "##公": 4406,
      "##務": 4407,
      "##人": 4408,
      "##員": 4409,
      "##或": 4410,
      "##省": 4411,
      "##殘": 4412,
      "##疾": 4413,
      "##支": 4414,
      "##援": 4415,
      "##專": 4416,
      "##案": 4417,
      "##銀": 4418,
      "##直": 4419,
      "##存": 4420,
      "##明": 4421,
      "##細": 4422,
      "##צ": 4423,
      "##י": 4424,
      "##ן": 4425,
      "##ẕ": 4426,
      "##ﻗ": 4427,
      "##": 4428,
      "##": 4429,
      "##": 4430,
      "##": 4431,
      "##": 4432,
      "##": 4433,
      "##不": 4434,
      "##揃": 4435,
      "##‌": 4436,
      "##س": 4437,
      "##•": 4438,
      "##″": 4439,
      "##讯": 4440,
      "##本": 4441,
      "##": 4442,
      "##ﺽ": 4443,
      "##ᓄ": 4444,
      "##ᖓ": 4445,
      "##ᑕ": 4446,
      "##ᓪ": 4447,
      "##ᓗ": 4448,
      "##ъ": 4449,
      "##ə": 4450,
      "##ʺ": 4451,
      "##赛": 4452,
      "##ﻰ": 4453,
      "##˜": 4454,
      "##ћ": 4455,
      "##ﻕ": 4456,
      "##ᒋ": 4457,
      "##ﻌ": 4458,
      "##أ": 4459,
      "##ض": 4460,
      "##ش": 4461,
      "##": 4462,
      "##": 4463,
      "##": 4464,
      "##": 4465,
      "##ǿ": 4466,
      "##": 4467,
      "##": 4468,
      "##": 4469,
      "##ᓕ": 4470,
      "##ᕈ": 4471,
      "##ﺸ": 4472,
      "##ů": 4473,
      "##": 4474,
      "##": 4475,
      "##ﻏ": 4476,
      "##ั": 4477,
      "##ง": 4478,
      "##ก": 4479,
      "##ะ": 4480,
      "##จ": 4481,
      "##า": 4482,
      "##ย": 4483,
      "##ด": 4484,
      "##ม": 4485,
      "##금": 4486,
      "##증": 4487,
      "##ﻥ": 4488,
      "##": 4489,
      "##": 4490,
      "##ﳌ": 4491,
      "##ﺐ": 4492,
      "##ș": 4493,
      "##ﻼ": 4494,
      "##ﺫ": 4495,
      "##ﻙ": 4496,
      "##ќ": 4497,
      "##ᒡ": 4498,
      "##ᒍ": 4499,
      "##ᕙ": 4500,
      "##ᓱ": 4501,
      "##拿": 4502,
      "##首": 4503,
      "##席": 4504,
      "##選": 4505,
      "##舉": 4506,
      "##官": 4507,
      "##認": 4508,
      "##可": 4509,
      "##的": 4510,
      "##身": 4511,
      "##份": 4512,
      "##證": 4513,
      "##溢": 4514,
      "##≈": 4515,
      "##": 4516,
      "##區": 4517,
      "##ﻳ": 4518,
      "##ﻐ": 4519,
      "##ǎ": 4520,
      "##ﱪ": 4521,
      "##ﻧ": 4522,
      "##ﻣ": 4523,
      "##ﺞ": 4524,
      "##₁": 4525,
      "##₀": 4526,
      "##●": 4527,
      "##٦": 4528,
      "##อ": 4529,
      "##น": 4530,
      "##แ": 4531,
      "##ข": 4532,
      "##ค": 4533,
      "##่": 4534,
      "##ว": 4535,
      "##เ": 4536,
      "##็": 4537,
      "##ล": 4538,
      "##ส": 4539,
      "##ﻻ": 4540,
      "##子": 4541,
      "##管": 4542,
      "##理": 4543,
      "##系": 4544,
      "##统": 4545,
      "##ُ": 4546,
      "##ً": 4547,
      "##山": 4548,
      "##國": 4549,
      "##家": 4550,
      "##園": 4551,
      "##ĕ": 4552,
      "##љ": 4553,
      "##ﺏ": 4554,
      "##ﺍ": 4555,
      "##ᑰ": 4556,
      "##њ": 4557,
      "##ﻅ": 4558,
      "##": 4559,
      "##ˇ": 4560,
      "##臺": 4561,
      "##幣": 4562,
      "##ẃ": 4563,
      "##ồ": 4564,
      "##↑": 4565,
      "##규": 4566,
      "##리": 4567,
      "##′": 4568,
      "##‍": 4569,
      "##ח": 4570,
      "##ד": 4571,
      "##ᒧ": 4572,
      "##■": 4573,
      "##": 4574,
      "##": 4575,
      "##ﻖ": 4576,
      "##动": 4577,
      "##": 4578,
      "##ĉ": 4579,
      "##٤": 4580,
      "##南": 4581,
      "##亚": 4582,
      "##盟": 4583,
      "##盖": 4584,
      "##尔": 4585,
      "##塞": 4586,
      "##吉": 4587,
      "##": 4588,
      "##ﺑ": 4589,
      "##以": 4590,
      "##及": 4591,
      "##第": 4592,
      "##∞": 4593,
      "##ﻈ": 4594,
      "##ث": 4595,
      "##∗": 4596,
      "##于": 4597,
      "##拉": 4598,
      "##丁": 4599,
      "##美": 4600,
      "##洲": 4601,
      "##和": 4602,
      "##加": 4603,
      "##勒": 4604,
      "##比": 4605,
      "##经": 4606,
      "##济": 4607,
      "##准": 4608,
      "##参": 4609,
      "##合": 4610,
      "##世": 4611,
      "##界": 4612,
      "##į": 4613,
      "##ļ": 4614,
      "##ب": 4615,
      "##ψ": 4616,
      "##し": 4617,
      "##め": 4618,
      "##ん": 4619,
      "##ᖕ": 4620,
      "##ᕌ": 4621,
      "##ᕋ": 4622,
      "##ى": 4623,
      "##​": 4624,
      "##茶": 4625,
      "##ť": 4626,
      "##": 4627,
      "##": 4628,
      "##": 4629,
      "##": 4630,
      "##": 4631,
      "##": 4632,
      "##э": 4633,
      "##ģ": 4634,
      "##": 4635,
      "##气": 4636,
      "##象": 4637,
      "##组": 4638,
      "##织": 4639,
      "##ᓅ": 4640,
      "##ḏ": 4641,
      "##ᔅ": 4642,
      "##ئ": 4643,
      "##ﺀ": 4644,
      "##・": 4645,
      "##ᓀ": 4646,
      "##ᐠ": 4647,
      "##ċ": 4648,
      "##̓": 4649,
      "##": 4650,
      "##ᕖ": 4651,
      "##容": 4652,
      "##只": 4653,
      "##为": 4654,
      "##提": 4655,
      "##一": 4656,
      "##般": 4657,
      "##信": 4658,
      "##使": 4659,
      "##用": 4660,
      "##": 4661,
      "##≥": 4662,
      "##际": 4663,
      "##贸": 4664,
      "##易": 4665,
      "##中": 4666,
      "##心": 4667,
      "##ט": 4668,
      "##ג": 4669,
      "##ר": 4670,
      "##ת": 4671,
      "##ﻯ": 4672,
      "##ζ": 4673,
      "##כ": 4674,
      "##": 4675,
      "##": 4676,
      "##": 4677,
      "##": 4678,
      "##": 4679,
      "##": 4680,
      "##": 4681,
      "##": 4682,
      "##": 4683,
      "##": 4684,
      "##": 4685,
      "##ა": 4686,
      "##რ": 4687,
      "##თ": 4688,
      "##უ": 4689,
      "##ლ": 4690,
      "##ი": 4691,
      "##೯": 4692,
      "##೦": 4693,
      "##٢": 4694,
      "##ᓴ": 4695,
      "##ز": 4696,
      "##ᔑ": 4697,
      "##ᑫ": 4698,
      "##ᐧ": 4699,
      "##": 4700,
      "##ƙ": 4701,
      "##ħ": 4702,
      "##ᓰ": 4703,
      "##♂": 4704,
      "##籠": 4705,
      "##包": 4706,
      "##": 4707,
      "##ľ": 4708,
      "##": 4709,
      "##泉": 4710,
      "##џ": 4711,
      "##ơ": 4712,
      "##持": 4713,
      "##改": 4714,
      "##进": 4715,
      "##日": 4716,
      "##瓦": 4717,
      "##办": 4718,
      "##事": 4719,
      "##处": 4720,
      "##局": 4721,
      "##域": 4722,
      "##网": 4723,
      "##施": 4724,
      "##扩": 4725,
      "##充": 4726,
      "##络": 4727,
      "##基": 4728,
      "##ﺓ": 4729,
      "##ạ": 4730,
      "##ᖁ": 4731,
      "##共": 4732,
      "##保": 4733,
      "##护": 4734,
      "##出": 4735,
      "##具": 4736,
      "##ϑ": 4737,
      "##ў": 4738,
      "##ﻢ": 4739,
      "##청": 4740,
      "##서": 4741,
      "##٠": 4742,
      "##٩": 4743,
      "##有": 4744,
      "##关": 4745,
      "##领": 4746,
      "##区": 4747,
      "##作": 4748,
      "##报": 4749,
      "##告": 4750,
      "##增": 4751,
      "##编": 4752,
      "##ﺱ": 4753,
      "##٨": 4754,
      "##ᕕ": 4755,
      "##﴿": 4756,
      "##算": 4757,
      "##机": 4758,
      "##メ": 4759,
      "##ン": 4760,
      "##ト": 4761,
      "##車": 4762,
      "##老": 4763,
      "##院": 4764,
      "##就": 4765,
      "##诊": 4766,
      "##卡": 4767,
      "##ﺲ": 4768,
      "##ġ": 4769,
      "##̍": 4770,
      "##요": 4771,
      "##ש": 4772,
      "##湯": 4773,
      "##治": 4774,
      "##郷": 4775,
      "##灣": 4776,
      "##实": 4777,
      "##力": 4778,
      "##但": 4779,
      "##对": 4780,
      "##市": 4781,
      "##场": 4782,
      "##种": 4783,
      "##债": 4784,
      "##务": 4785,
      "##ď": 4786,
      "##ﻄ": 4787,
      "##乐": 4788,
      "##路": 4789,
      "##ư": 4790,
      "##ื": 4791,
      "##พ": 4792,
      "##ผ": 4793,
      "##ใ": 4794,
      "##บ": 4795,
      "##策": 4796,
      "##咨": 4797,
      "##询": 4798,
      "##": 4799,
      "##ﻇ": 4800,
      "##०": 4801,
      "##५": 4802,
      "##ゃ": 4803,
      "##け": 4804,
      "##ɲ": 4805,
      "##ط": 4806,
      "##問": 4807,
      "##★": 4808,
      "##✿": 4809,
      "##न": 4810,
      "##्": 4811,
      "##त": 4812,
      "##र": 4813,
      "##ः": 4814,
      "##ŭ": 4815,
      "##辆": 4816,
      "##─": 4817,
      "##ᑏ": 4818,
      "##ﲔ": 4819,
      "##写": 4820,
      "##色": 4821,
      "##列": 4822,
      "##占": 4823,
      "##耶": 4824,
      "##撒": 4825,
      "##冷": 4826,
      "##在": 4827,
      "##巴": 4828,
      "##斯": 4829,
      "##坦": 4830,
      "##土": 4831,
      "##享": 4832,
      "##旅": 4833,
      "##遊": 4834,
      "##照": 4835,
      "##片": 4836,
      "##最": 4837,
      "##佳": 4838,
      "##網": 4839,
      "##站": 4840,
      "##便": 4841,
      "##利": 4842,
      "##ネ": 4843,
      "##ッ": 4844,
      "##セ": 4845,
      "##ハ": 4846,
      "##ウ": 4847,
      "##ス": 4848,
      "##ᓲ": 4849,
      "##ﻉ": 4850,
      "##‪": 4851,
      "##ḃ": 4852,
      "##ّ": 4853,
      "##보": 4854,
      "##פ": 4855,
      "##ס": 4856,
      "##ק": 4857,
      "##都": 4858,
      "##晚": 4859,
      "##": 4860,
      "##ȣ": 4861,
      "##核": 4862,
      "##方": 4863,
      "##预": 4864,
      "##将": 4865,
      "##后": 4866,
      "##印": 4867,
      "##ⴐ": 4868,
      "##ﻊ": 4869,
      "##ᑖ": 4870,
      "##٥": 4871,
      "##∑": 4872,
      "##ᕗ": 4873,
      "##采": 4874,
      "##取": 4875,
      "##": 4876,
      "##ﺄ": 4877,
      "##実": 4878,
      "##非": 4879,
      "##学": 4880,
      "##ٍ": 4881,
      "##来": 4882,
      "##ؤ": 4883,
      "##": 4884,
      "##革": 4885,
      "##": 4886,
      "##ע": 4887,
      "##№": 4888,
      "##建": 4889,
      "##益": 4890,
      "##ह": 4891,
      "##้": 4892,
      "##う": 4893,
      "##き": 4894,
      "##א": 4895,
      "##자": 4896,
      "##가": 4897,
      "##와": 4898,
      "##ﶈ": 4899,
      "##璐": 4900,
      "##ﺻ": 4901,
      "##章": 4902,
      "##̱": 4903,
      "##과": 4904,
      "##를": 4905,
      "##の": 4906,
      "##漫": 4907,
      "##画": 4908,
      "##は": 4909,
      "##お": 4910,
      "##も": 4911,
      "##ろ": 4912,
      "##い": 4913,
      "##ǔ": 4914,
      "##紀": 4915,
      "##ᕿ": 4916,
      "##サ": 4917,
      "##ᙵ": 4918,
      "##ၱ": 4919,
      "##広": 4920,
      "##ụ": 4921,
      "##专": 4922,
      "##分": 4923,
      "##类": 4924,
      "##要": 4925,
      "##求": 4926,
      "##": 4927,
      "##元": 4928,
      "##異": 4929,
      "##端": 4930,
      "##児": 4931,
      "##集": 4932,
      "##団": 4933,
      "##資": 4934,
      "##訊": 4935,
      "##也": 4936,
      "##多": 4937,
      "##種": 4938,
      "##祖": 4939,
      "##裔": 4940,
      "##語": 4941,
      "##言": 4942,
      "##原": 4943,
      "##住": 4944,
      "##民": 4945,
      "##發": 4946,
      "##佈": 4947,
      "##於": 4948,
      "##址": 4949,
      "##ﻚ": 4950,
      "##ﺡ": 4951,
      "##": 4952,
      "##カ": 4953,
      "##ŕ": 4954,
      "##康": 4955,
      "##ป": 4956,
      "##ิ": 4957,
      "##ู": 4958,
      "##ห": 4959,
      "##ช": 4960,
      "##ﺯ": 4961,
      "##社": 4962,
      "##ვ": 4963,
      "##ე": 4964,
      "##დ": 4965,
      "##ἰ": 4966,
      "##ᔓ": 4967,
      "##钱": 4968,
      "##": 4969,
      "##通": 4970,
      "##过": 4971,
      "##了": 4972,
      "##歩": 4973,
      "##东": 4974,
      "##生": 4975,
      "##寄": 4976,
      "##퇴": 4977,
      "##财": 4978,
      "##控": 4979,
      "##险": 4980,
      "##单": 4981,
      "##ĵ": 4982,
      "##室": 4983,
      "##搬": 4984,
      "##迁": 4985,
      "##费": 4986,
      "##其": 4987,
      "##他": 4988,
      "##杂": 4989,
      "##ﹶ": 4990,
      "##ң": 4991,
      "##ﻎ": 4992,
      "##払": 4993,
      "##際": 4994,
      "##ɗ": 4995,
      "##ಶ": 4996,
      "##್": 4997,
      "##ವ": 4998,
      "##ರ": 4999,
      "##ಯ": 5000,
      "##ಾ": 5001,
      "##ᒻ": 5002,
      "##ﺾ": 5003,
      "##购": 5004,
      "##置": 5005,
      "##替": 5006,
      "##换": 5007,
      "##备": 5008,
      "##完": 5009,
      "##‎": 5010,
      "##ŏ": 5011,
      "##ệ": 5012,
      "##ک": 5013,
      "##": 5014,
      "##율": 5015,
      "##이": 5016,
      "##役": 5017,
      "##足": 5018,
      "##": 5019,
      "##戴": 5020,
      "##": 5021,
      "##": 5022,
      "##♫": 5023,
      "##♥": 5024,
      "##☼": 5025,
      "##♪": 5026,
      "##☀": 5027,
      "##北": 5028,
      "##剑": 5029,
      "##ถ": 5030,
      "##ฉ": 5031,
      "##ﻒ": 5032,
      "##": 5033,
      "##ˋ": 5034,
      "##٧": 5035,
      "##": 5036,
      "##下": 5037,
      "##西": 5038,
      "##概": 5039,
      "##览": 5040,
      "##摘": 5041,
      "##지": 5042,
      "##영": 5043,
      "##科": 5044,
      "##ﺿ": 5045,
      "##ĝ": 5046,
      "##ǧ": 5047,
      "##ᓛ": 5048,
      "##宜": 5049,
      "##һ": 5050,
      "##": 5051,
      "##字": 5052,
      "##化": 5053,
      "##视": 5054,
      "##频": 5055,
      "##光": 5056,
      "##盘": 5057,
      "##": 5058,
      "##ﺣ": 5059,
      "##غ": 5060,
      "##사": 5061,
      "##인": 5062,
      "##의": 5063,
      "##∆": 5064,
      "##권": 5065,
      "##본": 5066,
      "##房": 5067,
      "##产": 5068,
      "##税": 5069,
      "##评": 5070,
      "##估": 5071,
      "##ứ": 5072,
      "##ậ": 5073,
      "##ᒐ": 5074,
      "##ﱢ": 5075,
      "##吧": 5076,
      "##阪": 5077,
      "##城": 5078,
      "##ɜ": 5079,
      "##载": 5080,
      "##許": 5081,
      "##ᕘ": 5082,
      "##切": 5083,
      "##腹": 5084,
      "##ɾ": 5085,
      "##餅": 5086,
      "##ᐦ": 5087,
      "##ᐨ": 5088,
      "##習": 5089,
      "##ุ": 5090,
      "##ﻩ": 5091,
      "##级": 5092,
      "##电": 5093,
      "##窯": 5094,
      "##": 5095,
      "##程": 5096,
      "##教": 5097,
      "##范": 5098,
      "##围": 5099,
      "##重": 5100,
      "##県": 5101,
      "##ɣ": 5102,
      "##ʲ": 5103,
      "##ﻹ": 5104,
      "##强": 5105,
      "##旨": 5106,
      "##减": 5107,
      "##少": 5108,
      "##风": 5109,
      "##活": 5110,
      "##ﺅ": 5111,
      "##些": 5112,
      "##ﳋ": 5113,
      "##ﺉ": 5114,
      "##▲": 5115,
      "##ﺆ": 5116,
      "##ﲤ": 5117,
      "##ᙳ": 5118,
      "##层": 5119,
      "##访": 5120,
      "##谈": 5121,
      "##ᓃ": 5122,
      "##审": 5123,
      "##问": 5124,
      "##题": 5125,
      "##√": 5126,
      "##": 5127,
      "##形": 5128,
      "##品": 5129,
      "##开": 5130,
      "##ึ": 5131,
      "##書": 5132,
      "##ể": 5133,
      "##业": 5134,
      "##外": 5135,
      "##观": 5136,
      "##标": 5137,
      "##志": 5138,
      "##法": 5139,
      "##ᕇ": 5140,
      "##⁪": 5141,
      "##噌": 5142,
      "##ツ": 5143,
      "##知": 5144,
      "##ュ": 5145,
      "##ー": 5146,
      "##チ": 5147,
      "##ケ": 5148,
      "##れ": 5149,
      "##物": 5150,
      "##": 5151,
      "##": 5152,
      "##ﺰ": 5153,
      "##泰": 5154,
      "##因": 5155,
      "##頂": 5156,
      "##ﺢ": 5157,
      "##ᖑ": 5158,
      "##ᐹ": 5159,
      "##时": 5160,
      "##迅": 5161,
      "##速": 5162,
      "##转": 5163,
      "##变": 5164,
      "##岡": 5165,
      "##ᒎ": 5166,
      "##牙": 5167,
      "##": 5168,
      "##ﳊ": 5169,
      "##ĺ": 5170,
      "##": 5171,
      "##·": 5172,
      "##∀": 5173,
      "##书": 5174,
      "##证": 5175,
      "##⎜": 5176,
      "##ם": 5177,
      "##服": 5178,
      "##所": 5179,
      "##判": 5180,
      "##确": 5181,
      "##谅": 5182,
      "##解": 5183,
      "##忘": 5184,
      "##ﺦ": 5185,
      "##ǽ": 5186,
      "##ﻛ": 5187,
      "##舍": 5188,
      "##筑": 5189,
      "##ﬄ": 5190,
      "##⎯": 5191,
      "##ﻫ": 5192,
      "##ﻱ": 5193,
      "##ː": 5194,
      "##ˈ": 5195,
      "##ɪ": 5196,
      "##戈": 5197,
      "##兰": 5198,
      "##阿": 5199,
      "##伯": 5200,
      "##居": 5201,
      "##条": 5202,
      "##影": 5203,
      "##响": 5204,
      "##雪": 5205,
      "##刚": 5206,
      "##属": 5207,
      "##工": 5208,
      "##よ": 5209,
      "##び": 5210,
      "##金": 5211,
      "##製": 5212,
      "##蔓": 5213,
      "##藤": 5214,
      "##ᔫ": 5215,
      "##ᑉ": 5216,
      "##ᐣ": 5217,
      "##皇": 5218,
      "##回": 5219,
      "##去": 5220,
      "##": 5221,
      "##ᑳ": 5222,
      "##": 5223,
      "##擁": 5224,
      "##请": 5225,
      "##注": 5226,
      "##意": 5227,
      "##に": 5228,
      "##パ": 5229,
      "##リ": 5230,
      "##で": 5231,
      "##開": 5232,
      "##催": 5233,
      "##さ": 5234,
      "##る": 5235,
      "##閣": 5236,
      "##僚": 5237,
      "##気": 5238,
      "##候": 5239,
      "##変": 5240,
      "##動": 5241,
      "##と": 5242,
      "##貿": 5243,
      "##ワ": 5244,
      "##イ": 5245,
      "##ラ": 5246,
      "##エ": 5247,
      "##ク": 5248,
      "##プ": 5249,
      "##レ": 5250,
      "##‛": 5251,
      "##": 5252,
      "##ै": 5253,
      "##ग": 5254,
      "##족": 5255,
      "##계": 5256,
      "##ờ": 5257,
      "##ﺛ": 5258,
      "##ら": 5259,
      "##せ": 5260,
      "##者": 5261,
      "##름": 5262,
      "##ⴞ": 5263,
      "##": 5264,
      "##数": 5265,
      "##王": 5266,
      "##卓": 5267,
      "##钧": 5268,
      "##": 5269,
      "##庆": 5270,
      "##允": 5271,
      "##许": 5272,
      "##律": 5273,
      "##师": 5274,
      "##代": 5275,
      "##劳": 5276,
      "##养": 5277,
      "##江": 5278,
      "##ﹰ": 5279,
      "##协": 5280,
      "##调": 5281,
      "##搗": 5282,
      "##ỗ": 5283,
      "##": 5284,
      "##ﺃ": 5285,
      "##颠": 5286,
      "##覆": 5287,
      "##政": 5288,
      "##罪": 5289,
      "##汁": 5290,
      "##粉": 5291,
      "##♀": 5292,
      "##": 5293,
      "##": 5294,
      "##障": 5295,
      "##音": 5296,
      "##ミ": 5297,
      "##ᐡ": 5298,
      "##ᑌ": 5299,
      "##ᙱ": 5300,
      "##〈": 5301,
      "##": 5302,
      "##̂": 5303,
      "##战": 5304,
      "##略": 5305,
      "##̌": 5306,
      "##": 5307,
      "##兵": 5308,
      "##部": 5309,
      "##健": 5310,
      "##골": 5311,
      "##ề": 5312,
      "##即": 5313,
      "##是": 5314,
      "##贷": 5315,
      "##责": 5316,
      "##任": 5317,
      "##ざ": 5318,
      "##ぐ": 5319,
      "##": 5320,
      "##キ": 5321,
      "##ナ": 5322,
      "##ダ": 5323,
      "##投": 5324,
      "##票": 5325,
      "##选": 5326,
      "##总": 5327,
      "##例": 5328,
      "##": 5329,
      "##議": 5330,
      "##タ": 5331,
      "##ө": 5332,
      "##學": 5333,
      "##報": 5334,
      "##績": 5335,
      "##מ": 5336,
      "##ṯ": 5337,
      "##ớ": 5338,
      "##八": 5339,
      "##체": 5340,
      "##검": 5341,
      "##국": 5342,
      "##을": 5343,
      "##楼": 5344,
      "##面": 5345,
      "##電": 5346,
      "##ự": 5347,
      "##て": 5348,
      "##簡": 5349,
      "##単": 5350,
      "##更": 5351,
      "##す": 5352,
      "##こ": 5353,
      "##が": 5354,
      "##ŝ": 5355,
      "##ท": 5356,
      "##โ": 5357,
      "##达": 5358,
      "##欢": 5359,
      "##太": 5360,
      "##平": 5361,
      "##洋": 5362,
      "##ŋ": 5363,
      "##乗": 5364,
      "##責": 5365,
      "##位": 5366,
      "##租": 5367,
      "##約": 5368,
      "##罗": 5369,
      "##邦": 5370,
      "##ょ": 5371,
      "##ブ": 5372,
      "##酒": 5373,
      "##ﱐ": 5374,
      "##套": 5375,
      "##图": 5376,
      "##林": 5377,
      "##忻": 5378,
      "##步": 5379,
      "##严": 5380,
      "##格": 5381,
      "##依": 5382,
      "##死": 5383,
      "##刑": 5384,
      "##质": 5385,
      "##量": 5386,
      "##ᓖ": 5387,
      "##ნ": 5388,
      "##ს": 5389,
      "##鱲": 5390,
      "##角": 5391,
      "##ﻃ": 5392,
      "##˚": 5393,
      "##论": 5394,
      "##记": 5395,
      "##录": 5396,
      "##见": 5397,
      "##ご": 5398,
      "##た": 5399,
      "##ﺹ": 5400,
      "##ɓ": 5401,
      "##神": 5402,
      "##魚": 5403,
      "##ᐯ": 5404,
      "##ᔕ": 5405,
      "##": 5406,
      "##野": 5407,
      "##武": 5408,
      "##俊": 5409,
      "##状": 5410,
      "##况": 5411,
      "##ʀ": 5412,
      "##니": 5413,
      "##다": 5414,
      "##月": 5415,
      "##": 5416,
      "##": 5417,
      "##ﻂ": 5418,
      "##帐": 5419,
      "##空": 5420,
      "##題": 5421,
      "##택": 5422,
      "##연": 5423,
      "##口": 5424,
      "##ᐆ": 5425,
      "##ไ": 5426,
      "##表": 5427,
      "##記": 5428,
      "##京": 5429,
      "##宣": 5430,
      "##版": 5431,
      "##约": 5432,
      "##维": 5433,
      "##自": 5434,
      "##由": 5435,
      "##二": 5436,
      "##难": 5437,
      "##择": 5438,
      "##崎": 5439,
      "##绪": 5440,
      "##雷": 5441,
      "##産": 5442,
      "##ᕝ": 5443,
      "##识": 5444,
      "##夫": 5445,
      "##特": 5446,
      "##ǻ": 5447,
      "##ợ": 5448,
      "##队": 5449,
      "##": 5450,
      "##": 5451,
      "##ғ": 5452,
      "##ɐ": 5453,
      "##ᑑ": 5454,
      "##目": 5455,
      "##": 5456,
      "##": 5457,
      "##ĭ": 5458,
      "##涩": 5459,
      "##厂": 5460,
      "##付": 5461,
      "##款": 5462,
      "##ぽ": 5463,
      "##『": 5464,
      "##ᖔ": 5465,
      "##措": 5466,
      "##": 5467,
      "##証": 5468,
      "##券": 5469,
      "##": 5470,
      "##": 5471,
      "##": 5472,
      "##": 5473,
      "##": 5474,
      "##": 5475,
      "##": 5476,
      "##": 5477,
      "##庭": 5478,
      "##費": 5479,
      "##交": 5480,
      "##ﺺ": 5481,
      "##别": 5482,
      "##顾": 5483,
      "##ﯾ": 5484,
      "##機": 5485,
      "##場": 5486,
      "##학": 5487,
      "##止": 5488,
      "##ך": 5489,
      "##ễ": 5490,
      "##薬": 5491,
      "##雇": 5492,
      "##主": 5493,
      "##库": 5494,
      "##门": 5495,
      "##捐": 5496,
      "##ይ": 5497,
      "##蒂": 5498,
      "##娜": 5499,
      "##香": 5500,
      "##術": 5501,
      "##館": 5502,
      "##☺": 5503,
      "##ở": 5504,
      "##↓": 5505,
      "##ｓ": 5506,
      "##ო": 5507,
      "##ị": 5508,
      "##入": 5509,
      "##込": 5510,
      "##ʹ": 5511,
      "##ב": 5512,
      "##细": 5513,
      "##": 5514,
      "##행": 5515,
      "##좌": 5516,
      "##로": 5517,
      "##۳": 5518,
      "##": 5519,
      "##": 5520,
      "##ི": 5521,
      "##མ": 5522,
      "##做": 5523,
      "##。": 5524,
      "##ﱃ": 5525,
      "##추": 5526,
      "##는": 5527,
      "##ဪ": 5528,
      "##✓": 5529,
      "##": 5530,
      "##性": 5531,
      "##争": 5532,
      "##序": 5533,
      "##木": 5534,
      "##舞": 5535,
      "##名": 5536,
      "##高": 5537,
      "##复": 5538,
      "##犯": 5539,
      "##昨": 5540,
      "##儿": 5541,
      "##童": 5542,
      "##收": 5543,
      "##福": 5544,
      "##郎": 5545,
      "##순": 5546,
      "##료": 5547,
      "##ᖢ": 5548,
      "##油": 5549,
      "##禁": 5550,
      "##伦": 5551,
      "##⅓": 5552,
      "##长": 5553,
      "##克": 5554,
      "##獻": 5555,
      "##血": 5556,
      "##✔": 5557,
      "##ṇ": 5558,
      "##还": 5559,
      "##漏": 5560,
      "##掉": 5561,
      "##到": 5562,
      "##": 5563,
      "##": 5564,
      "##♒": 5565,
      "##": 5566,
      "##ɵ": 5567,
      "##ҏ": 5568,
      "##": 5569,
      "##円": 5570,
      "##범": 5571,
      "##运": 5572,
      "##堂": 5573,
      "##ﺝ": 5574,
      "##ᙶ": 5575,
      "##ル": 5576,
      "##ז": 5577,
      "##⌦": 5578,
      "##駅": 5579,
      "##면": 5580,
      "##제": 5581,
      "##ﻸ": 5582,
      "##着": 5583,
      "##ﲬ": 5584,
      "##桃": 5585,
      "##（": 5586,
      "##式": 5587,
      "##医": 5588,
      "##边": 5589,
      "##ณ": 5590,
      "##ภ": 5591,
      "##找": 5592,
      "##缩": 5593,
      "##小": 5594,
      "##贫": 5595,
      "##富": 5596,
      "##差": 5597,
      "##距": 5598,
      "##淹": 5599,
      "##ᓘ": 5600,
      "##效": 5601,
      "##现": 5602,
      "##ो": 5603,
      "##ि": 5604,
      "##ी": 5605,
      "##": 5606,
      "##": 5607,
      "##宿": 5608,
      "##명": 5609,
      "##‫": 5610,
      "##": 5611,
      "##，": 5612,
      "##甸": 5613,
      "##岛": 5614,
      "##码": 5615,
      "##顶": 5616,
      "##绍": 5617,
      "##欧": 5618,
      "##验": 5619,
      "##应": 5620,
      "##ɨ": 5621,
      "##ᐴ": 5622,
      "##당": 5623,
      "##": 5624,
      "##啦": 5625,
      "##佑": 5626,
      "##衫": 5627,
      "##坂": 5628,
      "##ț": 5629,
      "##柳": 5630,
      "##川": 5631,
      "##商": 5632,
      "##店": 5633,
      "##断": 5634,
      "##查": 5635,
      "##偿": 5636,
      "##湾": 5637,
      "##间": 5638,
      "##艺": 5639,
      "##΄": 5640,
      "##ᐢ": 5641,
      "##语": 5642,
      "##ຽ": 5643,
      "##ງ": 5644,
      "##ຈ": 5645,
      "##ັ": 5646,
      "##ນ": 5647,
      "##同": 5648,
      "##ユ": 5649,
      "##ロ": 5650,
      "##云": 5651,
      "##笔": 5652,
      "##雲": 5653,
      "##": 5654,
      "##": 5655,
      "##ム": 5656,
      "##々": 5657,
      "##수": 5658,
      "##次": 5659,
      "##": 5660,
      "##飼": 5661,
      "##": 5662,
      "##洪": 5663,
      "##ိ": 5664,
      "##构": 5665,
      "##促": 5666,
      "##→": 5667,
      "##ᐲ": 5668,
      "##": 5669,
      "##赤": 5670,
      "##嶺": 5671,
      "##夜": 5672,
      "##惨": 5673,
      "##劇": 5674,
      "##凡": 5675,
      "##台": 5676,
      "##": 5677,
      "##": 5678,
      "##ﺷ": 5679,
      "##疗": 5680,
      "##并": 5681,
      "##致": 5682,
      "##引": 5683,
      "##立": 5684,
      "##期": 5685,
      "##稳": 5686,
      "##派": 5687,
      "##团": 5688,
      "##额": 5689,
      "##修": 5690,
      "##助": 5691,
      "##←": 5692,
      "##草": 5693,
      "##東": 5694,
      "##׀": 5695,
      "##滑": 5696,
      "##冰": 5697,
      "##어": 5698,
      "##聞": 5699,
      "##ᐁ": 5700,
      "##⌫": 5701,
      "##接": 5702,
      "##附": 5703,
      "##✢": 5704,
      "##宮": 5705,
      "##环": 5706,
      "##境": 5707,
      "##ธ": 5708,
      "##됩": 5709,
      "##何": 5710,
      "##経": 5711,
      "##安": 5712,
      "##ﻵ": 5713,
      "##坐": 5714,
      "##凭": 5715,
      "##妮": 5716,
      "##": 5717,
      "##閡": 5718,
      "##ფ": 5719,
      "##극": 5720,
      "##기": 5721,
      "##ﻆ": 5722,
      "##ქ": 5723,
      "##島": 5724,
      "##ɡ": 5725,
      "##価": 5726,
      "##値": 5727,
      "##則": 5728,
      "##そ": 5729,
      "##能": 5730,
      "##司": 5731,
      "##较": 5732,
      "##墅": 5733,
      "##两": 5734,
      "##个": 5735,
      "##馆": 5736,
      "##": 5737,
      "##背": 5738,
      "##済": 5739,
      "##ტ": 5740,
      "##მ": 5741,
      "##ბ": 5742,
      "##ặ": 5743,
      "##우": 5744,
      "##": 5745,
      "##": 5746,
      "##ﻍ": 5747,
      "##圣": 5748,
      "##卢": 5749,
      "##驻": 5750,
      "##给": 5751,
      "##秘": 5752,
      "##沢": 5753,
      "##池": 5754,
      "##일": 5755,
      "##ủ": 5756,
      "##": 5757,
      "##降": 5758,
      "##ẽ": 5759,
      "##화": 5760,
      "##ძ": 5761,
      "##全": 5762,
      "##險": 5763,
      "##،": 5764,
      "##線": 5765,
      "##視": 5766,
      "##ﺈ": 5767,
      "##ὺ": 5768,
      "##水": 5769,
      "##ﱰ": 5770,
      "##유": 5771,
      "##刘": 5772,
      "##静": 5773,
      "##怡": 5774,
      "##속": 5775,
      "##중": 5776,
      "##": 5777,
      "##输": 5778,
      "##フ": 5779,
      "##ォ": 5780,
      "##된": 5781,
      "##哈": 5782,
      "##글": 5783,
      "##』": 5784,
      "##۷": 5785,
      "##帰": 5786,
      "##千": 5787,
      "##博": 5788,
      "##娱": 5789,
      "##薪": 5790,
      "##역": 5791,
      "##ㄞ": 5792,
      "##ˊ": 5793,
      "##": 5794,
      "##鱼": 5795,
      "##렉": 5796,
      "##상": 5797,
      "##드": 5798,
      "##르": 5799,
      "##변": 5800,
      "##만": 5801,
      "##熨": 5802,
      "##斗": 5803,
      "##紙": 5804,
      "##임": 5805,
      "##马": 5806,
      "##阳": 5807,
      "##干": 5808,
      "##前": 5809,
      "##頭": 5810,
      "##̤": 5811,
      "##威": 5812,
      "##逊": 5813,
      "##宫": 5814,
      "##必": 5815,
      "##無": 5816,
      "##업": 5817,
      "##ᒫ": 5818,
      "##ũ": 5819,
      "##忙": 5820,
      "##激": 5821,
      "##優": 5822,
      "##真": 5823,
      "##๑": 5824,
      "##ﱘ": 5825,
      "##ᓭ": 5826,
      "##呆": 5827,
      "##": 5828,
      "##": 5829,
      "##申": 5830,
      "##": 5831,
      "##ầ": 5832,
      "##": 5833,
      "##客": 5834,
      "##～": 5835,
      "##姓": 5836,
      "##ฯ": 5837,
      "##器": 5838,
      "##購": 5839,
      "##泥": 5840,
      "##寻": 5841,
      "##良": 5842,
      "##म": 5843,
      "##ा": 5844,
      "##थ": 5845,
      "##ỷ": 5846,
      "##≡": 5847,
      "##": 5848,
      "##贝": 5849,
      "##": 5850,
      "##": 5851,
      "##♦": 5852,
      "##简": 5853,
      "##姆": 5854,
      "##透": 5855,
      "##": 5856,
      "##球": 5857,
      "##释": 5858,
      "##放": 5859,
      "##潜": 5860,
      "##ﱠ": 5861,
      "##": 5862,
      "##猎": 5863,
      "##ﹼ": 5864,
      "##藏": 5865,
      "##舫": 5866,
      "##氏": 5867,
      "##吴": 5868,
      "##宝": 5869,
      "##玉": 5870,
      "##ĩ": 5871,
      "##念": 5872,
      "##ỹ": 5873,
      "##ল": 5874,
      "##ে": 5875,
      "##ক": 5876,
      "##্": 5877,
      "##স": 5878,
      "##া": 5879,
      "##ঁ": 5880,
      "##দ": 5881,
      "##র": 5882,
      "##洛": 5883,
      "##泳": 5884,
      "##診": 5885,
      "##鍵": 5886,
      "##": 5887,
      "##优": 5888,
      "##秀": 5889,
      "##棋": 5890,
      "##": 5891,
      "##か": 5892,
      "##五": 5893,
      "##悬": 5894,
      "##疑": 5895,
      "##ﺖ": 5896,
      "##음": 5897,
      "##津": 5898,
      "##贴": 5899,
      "##想": 5900,
      "##没": 5901,
      "##获": 5902,
      "##得": 5903,
      "##۰": 5904,
      "##۹": 5905,
      "##米": 5906,
      "##町": 5907,
      "##적": 5908,
      "##親": 5909,
      "##だ": 5910,
      "##思": 5911,
      "##簽": 5912,
      "##≠": 5913,
      "##ၝ": 5914,
      "##雄": 5915,
      "##ﳎ": 5916,
      "##鹿": 5917,
      "##越": 5918,
      "##": 5919,
      "##민": 5920,
      "##正": 5921,
      "##纲": 5922,
      "##幾": 5923,
      "##针": 5924,
      "##": 5925,
      "##": 5926,
      "##": 5927,
      "##": 5928,
      "##": 5929,
      "##": 5930,
      "##": 5931,
      "##": 5932,
      "##橋": 5933,
      "##ど": 5934,
      "##な": 5935,
      "##シ": 5936,
      "##ɹ": 5937,
      "##": 5938,
      "##始": 5939,
      "##ド": 5940,
      "##届": 5941,
      "##ổ": 5942,
      "##✉": 5943,
      "##穴": 5944,
      "##時": 5945,
      "##ﺚ": 5946,
      "##古": 5947,
      "##档": 5948,
      "##职": 5949,
      "##危": 5950,
      "##惧": 5951,
      "##ﺙ": 5952,
      "##부": 5953,
      "##하": 5954,
      "##ต": 5955,
      "##์": 5956,
      "##ๆ": 5957,
      "##ℓ": 5958,
      "##伝": 5959,
      "##谐": 5960,
      "##华": 5961,
      "##콜": 5962,
      "##む": 5963,
      "##つ": 5964,
      "##み": 5965,
      "##↔": 5966,
      "##˘": 5967,
      "##说": 5968,
      "##觀": 5969,
      "##考": 5970,
      "##星": 5971,
      "##吹": 5972,
      "##飛": 5973,
      "##ỳ": 5974,
      "##軍": 5975,
      "##ֿ": 5976,
      "##叙": 5977,
      "##ญ": 5978,
      "##˝": 5979,
      "##伊": 5980,
      "##豆": 5981,
      "##稲": 5982,
      "##ᖦ": 5983,
      "##표": 5984,
      "##란": 5985,
      "##": 5986,
      "##ᖄ": 5987,
      "##宅": 5988,
      "##话": 5989,
      "##御": 5990,
      "##座": 5991,
      "##ۆ": 5992,
      "##ڤ": 5993,
      "##": 5994,
      "##": 5995,
      "##": 5996,
      "##": 5997,
      "##": 5998,
      "##": 5999,
      "##": 6000,
      "##": 6001,
      "##": 6002,
      "##": 6003,
      "##": 6004,
      "##": 6005,
      "##": 6006,
      "##": 6007,
      "##": 6008,
      "##": 6009,
      "##": 6010,
      "##": 6011,
      "##": 6012,
      "##": 6013,
      "##": 6014,
      "##": 6015,
      "##": 6016,
      "##咬": 6017,
      "##紧": 6018,
      "##バ": 6019,
      "##ʃ": 6020,
      "##里": 6021,
      "##、": 6022,
      "##反": 6023,
      "##映": 6024,
      "##ც": 6025,
      "##链": 6026,
      "##━": 6027,
      "##": 6028,
      "##": 6029,
      "##ỉ": 6030,
      "##ᒑ": 6031,
      "##清": 6032,
      "##寺": 6033,
      "##十": 6034,
      "##已": 6035,
      "##병": 6036,
      "##원": 6037,
      "##稅": 6038,
      "##評": 6039,
      "##ﺊ": 6040,
      "##覇": 6041,
      "##送": 6042,
      "##ᙲ": 6043,
      "##ữ": 6044,
      "##े": 6045,
      "##प": 6046,
      "##ल": 6047,
      "##テ": 6048,
      "##ṭ": 6049,
      "##荫": 6050,
      "##䨂": 6051,
      "##䨢": 6052,
      "##䰂": 6053,
      "##䰄": 6054,
      "##䰚": 6055,
      "##䰨": 6056,
      "##䰦": 6057,
      "##䰪": 6058,
      "##艳": 6059,
      "##য": 6060,
      "##ু": 6061,
      "##ম": 6062,
      "##ﮫ": 6063,
      "##過": 6064,
      "##积": 6065,
      "##配": 6066,
      "##规": 6067,
      "##需": 6068,
      "##▬": 6069,
      "##裏": 6070,
      "##様": 6071,
      "##余": 6072,
      "##晏": 6073,
      "##類": 6074,
      "##似": 6075,
      "##設": 6076,
      "##備": 6077,
      "##ུ": 6078,
      "##ག": 6079,
      "##‐": 6080,
      "##青": 6081,
      "##華": 6082,
      "##ᒦ": 6083,
      "##": 6084,
      "##ᕑ": 6085,
      "##退": 6086,
      "##休": 6087,
      "##計": 6088,
      "##劃": 6089,
      "##參": 6090,
      "##門": 6091,
      "##╚": 6092,
      "##ᐟ": 6093,
      "##友": 6094,
      "##": 6095,
      "##丨": 6096,
      "##唸": 6097,
      "##骨": 6098,
      "##ʒ": 6099,
      "##尼": 6100,
      "##≤": 6101,
      "##峪": 6102,
      "##": 6103,
      "##": 6104,
      "##ǐ": 6105,
      "##仁": 6106,
      "##忠": 6107,
      "##승": 6108,
      "##۱": 6109,
      "##流": 6110,
      "##̨": 6111,
      "##ﳍ": 6112,
      "##除": 6113,
      "##鉴": 6114,
      "##耀": 6115,
      "##گ": 6116,
      "##祝": 6117,
      "##コ": 6118,
      "##ﰲ": 6119,
      "##물": 6120,
      "##̹": 6121,
      "##琮": 6122,
      "##ᐤ": 6123,
      "##며": 6124,
      "##류": 6125,
      "##聚": 6126,
      "##留": 6127,
      "##負": 6128,
      "##茂": 6129,
      "##楠": 6130,
      "##₤": 6131,
      "##୭": 6132,
      "##永": 6133,
      "##州": 6134,
      "##ǉ": 6135,
      "##初": 6136,
      "##ү": 6137,
      "##ә": 6138,
      "##先": 6139,
      "##析": 6140,
      "##万": 6141,
      "##账": 6142,
      "##ף": 6143,
      "##绩": 6144,
      "##受": 6145,
      "##関": 6146,
      "##え": 6147,
      "##幌": 6148,
      "##校": 6149,
      "##ǘ": 6150,
      "##阜": 6151,
      "##ぶ": 6152,
      "##치": 6153,
      "##": 6154,
      "##莹": 6155,
      "##向": 6156,
      "##举": 6157,
      "##˙": 6158,
      "##升": 6159,
      "##屋": 6160,
      "##ΰ": 6161,
      "##邮": 6162,
      "##ᒌ": 6163,
      "##駄": 6164,
      "##𠄲": 6165,
      "##食": 6166,
      "##ﻶ": 6167,
      "##게": 6168,
      "##୦": 6169,
      "##୯": 6170,
      "##负": 6171,
      "##고": 6172,
      "##ʻ": 6173,
      "##번": 6174,
      "##호": 6175,
      "##六": 6176,
      "##馬": 6177,
      "##田": 6178,
      "##ϕ": 6179,
      "##研": 6180,
      "##究": 6181,
      "##」": 6182,
      "##چ": 6183,
      "##测": 6184,
      "##冤": 6185,
      "##浦": 6186,
      "##": 6187,
      "##索": 6188,
      "##ヒ": 6189,
      "##囚": 6190,
      "##徒": 6191,
      "##": 6192,
      "##등": 6193,
      "##록": 6194,
      "##抜": 6195,
      "##擢": 6196,
      "##綴": 6197,
      "##▼": 6198,
      "##丸": 6199,
      "##소": 6200,
      "##订": 6201,
      "##涉": 6202,
      "##声": 6203,
      "##稿": 6204,
      "##批": 6205,
      "##等": 6206,
      "##を": 6207,
      "##紹": 6208,
      "##介": 6209,
      "##然": 6210,
      "##□": 6211,
      "##葉": 6212,
      "##这": 6213,
      "##哥": 6214,
      "##楽": 6215,
      "##": 6216,
      "##牌": 6217,
      "##": 6218,
      "##ﯿ": 6219,
      "##阅": 6220,
      "##̵": 6221,
      "##̡": 6222,
      "##ӝ": 6223,
      "##̄": 6224,
      "##育": 6225,
      "##补": 6226,
      "##˛": 6227,
      "##라": 6228,
      "##": 6229,
      "##∏": 6230,
      "##늘": 6231,
      "##ペ": 6232,
      "##ジ": 6233,
      "##へ": 6234,
      "##希": 6235,
      "##痴": 6236,
      "##ᕉ": 6237,
      "##換": 6238,
      "##呂": 6239,
      "##囧": 6240,
      "##栄": 6241,
      "##宁": 6242,
      "##○": 6243,
      "##溜": 6244,
      "##": 6245,
      "##味": 6246,
      "##ΐ": 6247,
      "##击": 6248,
      "##ศ": 6249,
      "##操": 6250,
      "##宏": 6251,
      "##허": 6252,
      "##対": 6253,
      "##幹": 6254,
      "##│": 6255,
      "##終": 6256,
      "##羅": 6257,
      "##茵": 6258,
      "##벽": 6259,
      "##曲": 6260,
      "##培": 6261,
      "##训": 6262,
      "##력": 6263,
      "##": 6264,
      "##拨": 6265,
      "##监": 6266,
      "##督": 6267,
      "##념": 6268,
      "##⇓": 6269,
      "##魂": 6270,
      "##笑": 6271,
      "##浄": 6272,
      "##苏": 6273,
      "##輿": 6274,
      "##担": 6275,
      "##ᓈ": 6276,
      "##囲": 6277,
      "##": 6278,
      "##李": 6279,
      "##锋": 6280,
      "##股": 6281,
      "##": 6282,
      "##兒": 6283,
      "##纪": 6284,
      "##察": 6285,
      "##⁄": 6286,
      "##￼": 6287,
      "##浆": 6288,
      "##러": 6289,
      "##ﺶ": 6290,
      "##敷": 6291,
      "##ぞ": 6292,
      "##纽": 6293,
      "##洱": 6294,
      "##გ": 6295,
      "##予": 6296,
      "##诉": 6297,
      "##讼": 6298,
      "##软": 6299,
      "##艇": 6300,
      "##检": 6301,
      "##⊔": 6302,
      "##ฏ": 6303,
      "##ำ": 6304,
      "##甜": 6305,
      "##则": 6306,
      "##굴": 6307,
      "##＠": 6308,
      "##【": 6309,
      "##番": 6310,
      "##叟": 6311,
      "##递": 6312,
      "##კ": 6313,
      "##ừ": 6314,
      "##ฑ": 6315,
      "##买": 6316,
      "##当": 6317,
      "##ば": 6318,
      "##": 6319,
      "##爪": 6320,
      "##此": 6321,
      "##ﳔ": 6322,
      "##敏": 6323,
      "##ษ": 6324,
      "##今": 6325,
      "##": 6326,
      "##捷": 6327,
      "##運": 6328,
      "##マ": 6329,
      "##": 6330,
      "##會": 6331,
      "##습": 6332,
      "##火": 6333,
      "##拟": 6334,
      "##態": 6335,
      "##ﱄ": 6336,
      "##署": 6337,
      "##ᕚ": 6338,
      "##浴": 6339,
      "##德": 6340,
      "##ズ": 6341,
      "##충": 6342,
      "##분": 6343,
      "##한": 6344,
      "##势": 6345,
      "##望": 6346,
      "##착": 6347,
      "##姦": 6348,
      "##": 6349,
      "##掌": 6350,
      "##": 6351,
      "##各": 6352,
      "##趋": 6353,
      "##添": 6354,
      "##ḳ": 6355,
      "##ṣ": 6356,
      "##釣": 6357,
      "##点": 6358,
      "##布": 6359,
      "##⇒": 6360,
      "##ﺇ": 6361,
      "##": 6362,
      "##風": 6363,
      "##ⅳ": 6364,
      "##ｖ": 6365,
      "##婆": 6366,
      "##续": 6367,
      "##": 6368,
      "##ﲰ": 6369,
      "##ベ": 6370,
      "##﻿": 6371,
      "##承": 6372,
      "##摇": 6373,
      "##尾": 6374,
      "##按": 6375,
      "##揭": 6376,
      "##協": 6377,
      "##迎": 6378,
      "##撮": 6379,
      "##起": 6380,
      "##须": 6381,
      "##虑": 6382,
      "##善": 6383,
      "##ẳ": 6384,
      "##長": 6385,
      "##屄": 6386,
      "##造": 6387,
      "##∈": 6388,
      "##": 6389,
      "##業": 6390,
      "##": 6391,
      "##შ": 6392,
      "##僕": 6393,
      "##ฝ": 6394,
      "##素": 6395,
      "##贞": 6396,
      "##": 6397,
      "##絵": 6398,
      "##暫": 6399,
      "##술": 6400,
      "##芋": 6401,
      "##圓": 6402,
      "##": 6403,
      "##雑": 6404,
      "##煮": 6405,
      "##样": 6406,
      "##護": 6407,
      "##": 6408,
      "##": 6409,
      "##": 6410,
      "##": 6411,
      "##": 6412,
      "##瞎": 6413,
      "##搞": 6414,
      "##凄": 6415,
      "##撤": 6416,
      "##销": 6417,
      "##ﲞ": 6418,
      "##班": 6419,
      "##摩": 6420,
      "##ử": 6421,
      "##ŷ": 6422,
      "##↗": 6423,
      "##临": 6424,
      "##假": 6425,
      "##病": 6426,
      "##̊": 6427,
      "##함": 6428,
      "##되": 6429,
      "##월": 6430,
      "##往": 6431,
      "##▪": 6432,
      "##推": 6433,
      "##廣": 6434,
      "##爱": 6435,
      "##广": 6436,
      "##義": 6437,
      "##할": 6438,
      "##": 6439,
      "##轩": 6440,
      "##称": 6441,
      "##顺": 6442,
      "##货": 6443,
      "##応": 6444,
      "##پ": 6445,
      "##排": 6446,
      "##遇": 6447,
      "##⅝": 6448,
      "##장": 6449,
      "##ﳒ": 6450,
      "##도": 6451,
      "##近": 6452,
      "##ጽ": 6453,
      "##콩": 6454,
      "##‮": 6455,
      "##암": 6456,
      "##성": 6457,
      "##継": 6458,
      "##ぎ": 6459,
      "##袋": 6460,
      "##四": 6461,
      "##坛": 6462,
      "##": 6463,
      "##통": 6464,
      "##义": 6465,
      "##急": 6466,
      "##͘": 6467,
      "##陈": 6468,
      "##铭": 6469,
      "##《": 6470,
      "##급": 6471,
      "##温": 6472,
      "##―": 6473,
      "##该": 6474,
      "##話": 6475,
      "##板": 6476,
      "##辑": 6477,
      "##액": 6478,
      "##拥": 6479,
      "##辅": 6480,
      "##": 6481,
      "##寸": 6482,
      "##": 6483,
      "##랍": 6484,
      "##稻": 6485,
      "##埕": 6486,
      "##帳": 6487,
      "##": 6488,
      "##；": 6489,
      "##크": 6490,
      "##：": 6491,
      "##袍": 6492,
      "##": 6493,
      "##능": 6494,
      "##합": 6495,
      "##": 6496,
      "##戸": 6497,
      "##登": 6498,
      "##": 6499,
      "##ニ": 6500,
      "##ぷ": 6501,
      "##漢": 6502,
      "##儀": 6503,
      "##潭": 6504,
      "##縣": 6505,
      "##龙": 6506,
      "##头": 6507,
      "##ホ": 6508,
      "##〉": 6509,
      "##企": 6510,
      "##": 6511,
      "##歌": 6512,
      "##": 6513,
      "##颖": 6514,
      "##단": 6515,
      "##暴": 6516,
      "##零": 6517,
      "##忍": 6518,
      "##征": 6519,
      "##聘": 6520,
      "##あ": 6521,
      "##厅": 6522,
      "##連": 6523,
      "##ゴ": 6524,
      "##感": 6525,
      "##遗": 6526,
      "##憾": 6527,
      "##ﳘ": 6528,
      "##叫": 6529,
      "##］": 6530,
      "##✆": 6531,
      "##答": 6532,
      "##令": 6533,
      "##央": 6534,
      "##ắ": 6535,
      "##װ": 6536,
      "##警": 6537,
      "##卫": 6538,
      "##纳": 6539,
      "##帝": 6540,
      "##汶": 6541,
      "##士": 6542,
      "##松": 6543,
      "##萧": 6544,
      "##洒": 6545,
      "##情": 6546,
      "##∫": 6547,
      "##靠": 6548,
      "##鄉": 6549,
      "##新": 6550,
      "##입": 6551,
      "##했": 6552,
      "##으": 6553,
      "##̩": 6554,
      "##": 6555,
      "##波": 6556,
      "##丽": 6557,
      "##ﺁ": 6558,
      "##❊": 6559,
      "##❍": 6560,
      "##❑": 6561,
      "##❈": 6562,
      "##✂": 6563,
      "##✱": 6564,
      "##❏": 6565,
      "##❖": 6566,
      "##逃": 6567,
      "##୨": 6568,
      "##残": 6569,
      "##银": 6570,
      "##ﰐ": 6571,
      "##偶": 6572,
      "##像": 6573,
      "##启": 6574,
      "##午": 6575,
      "##伏": 6576,
      "##೪": 6577,
      "##献": 6578,
      "##佐": 6579,
      "##花": 6580,
      "##": 6581,
      "##접": 6582,
      "##ұ": 6583,
      "##石": 6584,
      "##浜": 6585,
      "##節": 6586,
      "##句": 6587,
      "##녁": 6588,
      "##노": 6589,
      "##景": 6590,
      "##ﱵ": 6591,
      "##ǝ": 6592,
      "##ʇ": 6593,
      "##ተ": 6594,
      "##ቀ": 6595,
      "##የ": 6596,
      "##ው": 6597,
      "##ọ": 6598,
      "##册": 6599,
      "##ხ": 6600,
      "##黛": 6601,
      "##脑": 6602,
      "##果": 6603,
      "##天": 6604,
      "##乏": 6605,
      "##ẫ": 6606,
      "##蔚": 6607,
      "##용": 6608,
      "##违": 6609,
      "##宪": 6610,
      "##ब": 6611,
      "##य": 6612,
      "##詰": 6613,
      "##ノ": 6614,
      "##진": 6615,
      "##演": 6616,
      "##황": 6617,
      "##۶": 6618,
      "##ᐋ": 6619,
      "##迫": 6620,
      "##呼": 6621,
      "##ĥ": 6622,
      "##ҙ": 6623,
      "##媛": 6624,
      "##结": 6625,
      "##覧": 6626,
      "##く": 6627,
      "##주": 6628,
      "##전": 6629,
      "##망": 6630,
      "##独": 6631,
      "##握": 6632,
      "##奈": 6633,
      "##恵": 6634,
      "##ひ": 6635,
      "##指": 6636,
      "##屈": 6637,
      "##❚": 6638,
      "##认": 6639,
      "##較": 6640,
      "##준": 6641,
      "##晶": 6642,
      "##마": 6643,
      "##＾": 6644,
      "##塔": 6645,
      "##鲁": 6646,
      "##】": 6647,
      "##스": 6648,
      "##트": 6649,
      "##ヨ": 6650,
      "##⊕": 6651,
      "##ህ": 6652,
      "##": 6653,
      "##": 6654,
      "##朝": 6655,
      "##迈": 6656,
      "##好": 6657,
      "##它": 6658,
      "##灾": 6659,
      "##害": 6660,
      "##袭": 6661,
      "##跋": 6662,
      "##扈": 6663,
      "##键": 6664,
      "##智": 6665,
      "##船": 6666,
      "##": 6667,
      "##द": 6668,
      "##व": 6669,
      "##壹": 6670,
      "##井": 6671,
      "##": 6672,
      "##型": 6673,
      "##레": 6674,
      "##터": 6675,
      "##跟": 6676,
      "##踪": 6677,
      "##紗": 6678,
      "##純": 6679,
      "##": 6680,
      "##ｈ": 6681,
      "##ｏ": 6682,
      "##ｕ": 6683,
      "##ｌ": 6684,
      "##ｄ": 6685,
      "##ŵ": 6686,
      "##ᖠ": 6687,
      "##臓": 6688,
      "##賢": 6689,
      "##ḵ": 6690,
      "##佰": 6691,
      "##ằ": 6692,
      "##∼": 6693,
      "##‒": 6694,
      "##◆": 6695,
      "##ҡ": 6696,
      "##示": 6697,
      "##防": 6698,
      "##园": 6699,
      "##ẩ": 6700,
      "##寿": 6701,
      "##ᮖ": 6702,
      "##厨": 6703,
      "##쿤": 6704,
      "##？": 6705,
      "##": 6706,
      "##銘": 6707,
      "##ǵ": 6708,
      "##۴": 6709,
      "##滝": 6710,
      "##菜": 6711,
      "##嘛": 6712,
      "##": 6713,
      "##耳": 6714,
      "##聾": 6715,
      "##弱": 6716,
      "##聽": 6717,
      "##ﺵ": 6718,
      "##ं": 6719,
      "##◊": 6720,
      "##權": 6721,
      "##實": 6722,
      "##ɂ": 6723,
      "##）": 6724,
      "##黄": 6725,
      "##隆": 6726,
      "##ゅ": 6727,
      "##ぴ": 6728,
      "##＊": 6729,
      "##焼": 6730,
      "##ｅ": 6731,
      "##陀": 6732,
      "##峡": 6733,
      "##久": 6734,
      "##나": 6735,
      "##실": 6736,
      "##オ": 6737,
      "##ア": 6738,
      "##財": 6739,
      "##閥": 6740,
      "##号": 6741,
      "##鑒": 6742,
      "##別": 6743,
      "##ﺂ": 6744,
      "##０": 6745,
      "##６": 6746,
      "##巫": 6747,
      "##": 6748,
      "##଎": 6749,
      "##ซ": 6750,
      "##ฃ": 6751,
      "##ฒ": 6752,
      "##打": 6753,
      "##敌": 6754,
      "##ٔ": 6755,
      "##移": 6756,
      "##窗": 6757,
      "##ᖂ": 6758,
      "##闻": 6759,
      "##讨": 6760,
      "##朱": 6761,
      "##ְ": 6762,
      "##ּ": 6763,
      "##ָ": 6764,
      "##ׁ": 6765,
      "##ַ": 6766,
      "##ִ": 6767,
      "##邑": 6768,
      "##람": 6769,
      "##功": 6770,
      "##秉": 6771,
      "##七": 6772,
      "##ɑ": 6773,
      "##矿": 6774,
      "##框": 6775,
      "##架": 6776,
      "##们": 6777,
      "##招": 6778,
      "##ೈ": 6779,
      "##啓": 6780,
      "##翁": 6781,
      "##珠": 6782,
      "##४": 6783,
      "##": 6784,
      "##抵": 6785,
      "##ね": 6786,
      "##頃": 6787,
      "##ზ": 6788,
      "##ⁿ": 6789,
      "##況": 6790,
      "##ֵ": 6791,
      "##೫": 6792,
      "##畿": 6793,
      "##難": 6794,
      "##壊": 6795,
      "##氧": 6796,
      "##糖": 6797,
      "##酸": 6798,
      "##": 6799,
      "##烏": 6800,
      "##龍": 6801,
      "##ㄟ": 6802,
      "##✝": 6803,
      "##請": 6804,
      "##赶": 6805,
      "##ῆ": 6806,
      "##효": 6807,
      "##내": 6808,
      "##群": 6809,
      "##희": 6810,
      "##래": 6811,
      "##森": 6812,
      "##満": 6813,
      "##타": 6814,
      "##悩": 6815,
      "##吗": 6816,
      "##ོ": 6817,
      "##ད": 6818,
      "##ڈ": 6819,
      "##赖": 6820,
      "##愿": 6821,
      "##赠": 6822,
      "##籍": 6823,
      "##玲": 6824,
      "##ၳ": 6825,
      "##待": 6826,
      "##翻": 6827,
      "##₂": 6828,
      "##ʌ": 6829,
      "##鸣": 6830,
      "##茧": 6831,
      "##而": 6832,
      "##符": 6833,
      "##야": 6834,
      "##憶": 6835,
      "##後": 6836,
      "##編": 6837,
      "##ǖ": 6838,
      "##ⅱ": 6839,
      "##̶": 6840,
      "##诗": 6841,
      "##┬": 6842,
      "##┐": 6843,
      "##じ": 6844,
      "##﹏": 6845,
      "##眼": 6846,
      "##鏡": 6847,
      "##論": 6848,
      "##荣": 6849,
      "##粮": 6850,
      "##农": 6851,
      "##": 6852,
      "##ץ": 6853,
      "##천": 6854,
      "##徳": 6855,
      "##创": 6856,
      "##精": 6857,
      "##借": 6858,
      "##경": 6859,
      "##媒": 6860,
      "##": 6861,
      "##豪": 6862,
      "##매": 6863,
      "##": 6864,
      "##床": 6865,
      "##": 6866,
      "##組": 6867,
      "##ṛ": 6868,
      "##从": 6869,
      "##脱": 6870,
      "##ṳ": 6871,
      "##̆": 6872,
      "##整": 6873,
      "##ﻺ": 6874,
      "##朗": 6875,
      "##ʋ": 6876,
      "##ち": 6877,
      "##೭": 6878,
      "##": 6879,
      "##๊": 6880,
      "##재": 6881,
      "##圆": 6882,
      "##连": 6883,
      "##废": 6884,
      "##吟": 6885,
      "##恢": 6886,
      "##復": 6887,
      "##": 6888,
      "##옥": 6889,
      "##": 6890,
      "##색": 6891,
      "##失": 6892,
      "##穷": 6893,
      "##挑": 6894,
      "##落": 6895,
      "##ክ": 6896,
      "##ቶ": 6897,
      "##በ": 6898,
      "##ር": 6899,
      "##顿": 6900,
      "##诺": 6901,
      "##随": 6902,
      "##伸": 6903,
      "##ṃ": 6904,
      "##痛": 6905,
      "##沒": 6906,
      "##辦": 6907,
      "##給": 6908,
      "##朋": 6909,
      "##嗎": 6910,
      "##ヴ": 6911,
      "##ァ": 6912,
      "##출": 6913,
      "##損": 6914,
      "##∇": 6915,
      "##諸": 6916,
      "##材": 6917,
      "##料": 6918,
      "##ẻ": 6919,
      "##鼓": 6920,
      "##励": 6921,
      "##↘": 6922,
      "##峒": 6923,
      "##军": 6924,
      "##庁": 6925,
      "##ᑊ": 6926,
      "##⌂": 6927,
      "##坑": 6928,
      "##儒": 6929,
      "##駛": 6930,
      "##執": 6931,
      "##절": 6932,
      "##୪": 6933,
      "##죄": 6934,
      "##獵": 6935,
      "##授": 6936,
      "##遠": 6937,
      "##姫": 6938,
      "##线": 6939,
      "##礼": 6940,
      "##却": 6941,
      "##仍": 6942,
      "##逢": 6943,
      "##瞬": 6944,
      "##間": 6945,
      "##뜩": 6946,
      "##蒋": 6947,
      "##帮": 6948,
      "##ﻝ": 6949,
      "##⋅": 6950,
      "##九": 6951,
      "##植": 6952,
      "##縄": 6953,
      "##ほ": 6954,
      "##ぼ": 6955,
      "##弗": 6956,
      "##ၢ": 6957,
      "##缺": 6958,
      "##驶": 6959,
      "##慣": 6960,
      "##デ": 6961,
      "##ィ": 6962,
      "##麦": 6963,
      "##濟": 6964,
      "##廚": 6965,
      "##ᑮ": 6966,
      "##ᆠ": 6967,
      "##ھ": 6968,
      "th": 6969,
      "the": 6970,
      "##on": 6971,
      "##ti": 6972,
      "##er": 6973,
      "##en": 6974,
      "##es": 6975,
      "##or": 6976,
      "##in": 6977,
      "##nd": 6978,
      "of": 6979,
      "##ed": 6980,
      "##al": 6981,
      "in": 6982,
      "##tion": 6983,
      "##an": 6984,
      "##ar": 6985,
      "##at": 6986,
      "and": 6987,
      "to": 6988,
      "##it": 6989,
      "##ro": 6990,
      "##is": 6991,
      "##ent": 6992,
      "##ation": 6993,
      "##ic": 6994,
      "##re": 6995,
      "##ing": 6996,
      "##ec": 6997,
      "##ou": 6998,
      "##om": 6999,
      "re": 7000,
      "##as": 7001,
      "##ment": 7002,
      "##il": 7003,
      "##el": 7004,
      "pro": 7005,
      "for": 7006,
      "##le": 7007,
      "con": 7008,
      "##ce": 7009,
      "##st": 7010,
      "##ur": 7011,
      "##th": 7012,
      "on": 7013,
      "##ts": 7014,
      "##ra": 7015,
      "##ol": 7016,
      "be": 7017,
      "##ve": 7018,
      "com": 7019,
      "##id": 7020,
      "##ter": 7021,
      "st": 7022,
      "is": 7023,
      "as": 7024,
      "##ad": 7025,
      "##ion": 7026,
      "that": 7027,
      "##ul": 7028,
      "##ri": 7029,
      "de": 7030,
      "##ir": 7031,
      "##ess": 7032,
      "##ch": 7033,
      "##ly": 7034,
      "##ig": 7035,
      "su": 7036,
      "##ers": 7037,
      "##ith": 7038,
      "or": 7039,
      "##se": 7040,
      "##tin": 7041,
      "wh": 7042,
      "##00": 7043,
      "with": 7044,
      "##pp": 7045,
      "##ate": 7046,
      "##mp": 7047,
      "ac": 7048,
      "##ity": 7049,
      "an": 7050,
      "al": 7051,
      "##op": 7052,
      "##ab": 7053,
      "##ge": 7054,
      "ex": 7055,
      "##ver": 7056,
      "no": 7057,
      "res": 7058,
      "##ac": 7059,
      "by": 7060,
      "##ting": 7061,
      "par": 7062,
      "##ations": 7063,
      "##te": 7064,
      "comm": 7065,
      "##tic": 7066,
      "200": 7067,
      "##ort": 7068,
      "are": 7069,
      "##ow": 7070,
      "##oc": 7071,
      "can": 7072,
      "en": 7073,
      "##ay": 7074,
      "me": 7075,
      "ch": 7076,
      "##os": 7077,
      "##mb": 7078,
      "##ain": 7079,
      "##ut": 7080,
      "##for": 7081,
      "un": 7082,
      "##et": 7083,
      "##oun": 7084,
      "##uc": 7085,
      "at": 7086,
      "ad": 7087,
      "##ect": 7088,
      "##us": 7089,
      "##un": 7090,
      "##im": 7091,
      "##ial": 7092,
      "##vel": 7093,
      "##ud": 7094,
      "##fic": 7095,
      "##qu": 7096,
      "sh": 7097,
      "##iti": 7098,
      "##ld": 7099,
      "##ill": 7100,
      "##od": 7101,
      "##our": 7102,
      "##ew": 7103,
      "##end": 7104,
      "this": 7105,
      "##igh": 7106,
      "##and": 7107,
      "##ther": 7108,
      "it": 7109,
      "app": 7110,
      "inter": 7111,
      "rep": 7112,
      "##ist": 7113,
      "##ational": 7114,
      "inc": 7115,
      "##ure": 7116,
      "##rom": 7117,
      "le": 7118,
      "##iv": 7119,
      "##um": 7120,
      "##tive": 7121,
      "canad": 7122,
      "imp": 7123,
      "##ak": 7124,
      "not": 7125,
      "##am": 7126,
      "##ated": 7127,
      "from": 7128,
      "##ance": 7129,
      "##ip": 7130,
      "comp": 7131,
      "ag": 7132,
      "sp": 7133,
      "##ies": 7134,
      "##ary": 7135,
      "##ear": 7136,
      "reg": 7137,
      "wor": 7138,
      "##ff": 7139,
      "##ould": 7140,
      "##lic": 7141,
      "ha": 7142,
      "##ant": 7143,
      "##iz": 7144,
      "##ments": 7145,
      "was": 7146,
      "rec": 7147,
      "##ard": 7148,
      "##gra": 7149,
      "##form": 7150,
      "##tions": 7151,
      "coun": 7152,
      "##est": 7153,
      "##ence": 7154,
      "prov": 7155,
      "##ans": 7156,
      "##ich": 7157,
      "go": 7158,
      "pr": 7159,
      "##ere": 7160,
      "sec": 7161,
      "##able": 7162,
      "cont": 7163,
      "##erv": 7164,
      "co": 7165,
      "se": 7166,
      "##rou": 7167,
      "all": 7168,
      "##ia": 7169,
      "##all": 7170,
      "19": 7171,
      "##age": 7172,
      "##ust": 7173,
      "exp": 7174,
      "cons": 7175,
      "which": 7176,
      "##sion": 7177,
      "we": 7178,
      "##ities": 7179,
      "he": 7180,
      "have": 7181,
      "##duc": 7182,
      "dis": 7183,
      "will": 7184,
      "##mber": 7185,
      "##velop": 7186,
      "its": 7187,
      "develop": 7188,
      "per": 7189,
      "ar": 7190,
      "acc": 7191,
      "##ib": 7192,
      "ind": 7193,
      "##ap": 7194,
      "pl": 7195,
      "man": 7196,
      "##lo": 7197,
      "has": 7198,
      "work": 7199,
      "##ms": 7200,
      "##ted": 7201,
      "##ates": 7202,
      "##ish": 7203,
      "canada": 7204,
      "##ual": 7205,
      "##eral": 7206,
      "und": 7207,
      "##ub": 7208,
      "##tiv": 7209,
      "ab": 7210,
      "sub": 7211,
      "ne": 7212,
      "their": 7213,
      "tr": 7214,
      "intern": 7215,
      "ass": 7216,
      "##ire": 7217,
      "##ue": 7218,
      "##enc": 7219,
      "inform": 7220,
      "dec": 7221,
      "serv": 7222,
      "tra": 7223,
      "under": 7224,
      "pol": 7225,
      "##ian": 7226,
      "other": 7227,
      "##rop": 7228,
      "##ission": 7229,
      "##ell": 7230,
      "gen": 7231,
      "##ven": 7232,
      "am": 7233,
      "##ore": 7234,
      "pre": 7235,
      "##lud": 7236,
      "##ome": 7237,
      "##min": 7238,
      "##ited": 7239,
      "##vern": 7240,
      "progra": 7241,
      "##gh": 7242,
      "##ign": 7243,
      "servic": 7244,
      "##ous": 7245,
      "##ision": 7246,
      "##so": 7247,
      "##og": 7248,
      "op": 7249,
      "##fer": 7250,
      "##ition": 7251,
      "##em": 7252,
      "commit": 7253,
      "##anc": 7254,
      "govern": 7255,
      "provid": 7256,
      "int": 7257,
      "eu": 7258,
      "str": 7259,
      "##ase": 7260,
      "##ult": 7261,
      "requ": 7262,
      "resp": 7263,
      "also": 7264,
      "##ot": 7265,
      "fin": 7266,
      "supp": 7267,
      "cl": 7268,
      "##ry": 7269,
      "##mm": 7270,
      "information": 7271,
      "international": 7272,
      "##ree": 7273,
      "##ach": 7274,
      "##ord": 7275,
      "##oll": 7276,
      "##if": 7277,
      "new": 7278,
      "##ublic": 7279,
      "mar": 7280,
      "us": 7281,
      "##ail": 7282,
      "part": 7283,
      "includ": 7284,
      "##par": 7285,
      "rel": 7286,
      "##ag": 7287,
      "been": 7288,
      "righ": 7289,
      "##ution": 7290,
      "##ons": 7291,
      "##ical": 7292,
      "##__": 7293,
      "spec": 7294,
      "##ine": 7295,
      "##tit": 7296,
      "count": 7297,
      "##ct": 7298,
      "there": 7299,
      "development": 7300,
      "##ues": 7301,
      "were": 7302,
      "##ild": 7303,
      "trans": 7304,
      "org": 7305,
      "la": 7306,
      "199": 7307,
      "##ace": 7308,
      "min": 7309,
      "proc": 7310,
      "##rib": 7311,
      "year": 7312,
      "commun": 7313,
      "add": 7314,
      "pres": 7315,
      "bo": 7316,
      "inv": 7317,
      "general": 7318,
      "ec": 7319,
      "pe": 7320,
      "sy": 7321,
      "##ress": 7322,
      "partic": 7323,
      "##ose": 7324,
      "##vi": 7325,
      "more": 7326,
      "##ast": 7327,
      "##ong": 7328,
      "##ors": 7329,
      "##tee": 7330,
      "##act": 7331,
      "##enti": 7332,
      "ob": 7333,
      "##alth": 7334,
      "organ": 7335,
      "should": 7336,
      "conc": 7337,
      "ter": 7338,
      "may": 7339,
      "united": 7340,
      "prop": 7341,
      "ins": 7342,
      "##ake": 7343,
      "##ech": 7344,
      "##ility": 7345,
      "report": 7346,
      "##ost": 7347,
      "##ens": 7348,
      "##ection": 7349,
      "##ph": 7350,
      "sa": 7351,
      "health": 7352,
      "you": 7353,
      "offic": 7354,
      "##ific": 7355,
      "national": 7356,
      "##out": 7357,
      "europ": 7358,
      "##ative": 7359,
      "##ures": 7360,
      "public": 7361,
      "grou": 7362,
      "out": 7363,
      "these": 7364,
      "car": 7365,
      "des": 7366,
      "polic": 7367,
      "committee": 7368,
      "europe": 7369,
      "government": 7370,
      "##ari": 7371,
      "pri": 7372,
      "such": 7373,
      "up": 7374,
      "bas": 7375,
      "states": 7376,
      "commission": 7377,
      "pers": 7378,
      "would": 7379,
      "##res": 7380,
      "##lement": 7381,
      "##ory": 7382,
      "they": 7383,
      "##ive": 7384,
      "produc": 7385,
      ").": 7386,
      "##ie": 7387,
      "##ating": 7388,
      "tim": 7389,
      "hum": 7390,
      "##lish": 7391,
      "##reat": 7392,
      "##ents": 7393,
      "##und": 7394,
      "mon": 7395,
      "soc": 7396,
      "##ks": 7397,
      "),": 7398,
      "syst": 7399,
      "one": 7400,
      "el": 7401,
      "##cil": 7402,
      "human": 7403,
      "bet": 7404,
      "cent": 7405,
      "##ang": 7406,
      "##ric": 7407,
      "emp": 7408,
      "##ries": 7409,
      "sc": 7410,
      "any": 7411,
      "pos": 7412,
      "rights": 7413,
      "had": 7414,
      "iss": 7415,
      "##ied": 7416,
      "au": 7417,
      "council": 7418,
      "group": 7419,
      "organiz": 7420,
      "if": 7421,
      "eff": 7422,
      "nations": 7423,
      "##eration": 7424,
      "##onom": 7425,
      "##ond": 7426,
      "do": 7427,
      "##ru": 7428,
      "state": 7429,
      "need": 7430,
      "af": 7431,
      "##loy": 7432,
      "ro": 7433,
      "##ces": 7434,
      "disc": 7435,
      "support": 7436,
      "##tain": 7437,
      "##ular": 7438,
      "##oin": 7439,
      "services": 7440,
      "##ely": 7441,
      "##rough": 7442,
      "##les": 7443,
      "ev": 7444,
      "vi": 7445,
      "prot": 7446,
      "fir": 7447,
      "##ern": 7448,
      "dire": 7449,
      "##we": 7450,
      "over": 7451,
      "econom": 7452,
      "use": 7453,
      "##rac": 7454,
      "##ency": 7455,
      "who": 7456,
      "##ject": 7457,
      "than": 7458,
      "##ep": 7459,
      "##ible": 7460,
      "##ass": 7461,
      "##..": 7462,
      "canadian": 7463,
      "but": 7464,
      "##ke": 7465,
      "##ide": 7466,
      "act": 7467,
      "activ": 7468,
      "##ession": 7469,
      "region": 7470,
      "##earch": 7471,
      "##ollow": 7472,
      "so": 7473,
      "##olog": 7474,
      "follow": 7475,
      "how": 7476,
      "##ade": 7477,
      "10": 7478,
      "##mo": 7479,
      "child": 7480,
      "##au": 7481,
      "##ally": 7482,
      "leg": 7483,
      "env": 7484,
      "countries": 7485,
      "sit": 7486,
      "##ties": 7487,
      "fund": 7488,
      "high": 7489,
      "through": 7490,
      "##echn": 7491,
      "##ater": 7492,
      "##uring": 7493,
      "est": 7494,
      "consid": 7495,
      "our": 7496,
      "artic": 7497,
      "law": 7498,
      "european": 7499,
      "##ween": 7500,
      "##ty": 7501,
      "between": 7502,
      "time": 7503,
      "employ": 7504,
      "##ile": 7505,
      "process": 7506,
      "##air": 7507,
      "del": 7508,
      "##iron": 7509,
      "plan": 7510,
      "##ren": 7511,
      "environ": 7512,
      "level": 7513,
      "first": 7514,
      "##ret": 7515,
      "nu": 7516,
      "techn": 7517,
      "applic": 7518,
      "programm": 7519,
      "##ame": 7520,
      "##ural": 7521,
      "manage": 7522,
      "some": 7523,
      "##ange": 7524,
      "gu": 7525,
      "##ects": 7526,
      "##hip": 7527,
      "##cc": 7528,
      "into": 7529,
      "tw": 7530,
      "environment": 7531,
      "incre": 7532,
      "implement": 7533,
      "mr": 7534,
      "auth": 7535,
      "secur": 7536,
      "##ister": 7537,
      "##graph": 7538,
      "##ax": 7539,
      "form": 7540,
      "appro": 7541,
      "##omm": 7542,
      "##vention": 7543,
      "hel": 7544,
      "##der": 7545,
      "system": 7546,
      "te": 7547,
      "including": 7548,
      "id": 7549,
      "##ight": 7550,
      "##ack": 7551,
      "##als": 7552,
      "cap": 7553,
      "ann": 7554,
      "import": 7555,
      "##ound": 7556,
      "##ati": 7557,
      "##view": 7558,
      "doc": 7559,
      "##tives": 7560,
      "##ateg": 7561,
      "regul": 7562,
      "ph": 7563,
      "##ten": 7564,
      "management": 7565,
      "meas": 7566,
      "##one": 7567,
      "contin": 7568,
      "research": 7569,
      "must": 7570,
      "adv": 7571,
      "made": 7572,
      "mee": 7573,
      "##ective": 7574,
      "es": 7575,
      "##tical": 7576,
      "pur": 7577,
      "##ablish": 7578,
      "author": 7579,
      "establish": 7580,
      "##ob": 7581,
      "##ved": 7582,
      "security": 7583,
      "cor": 7584,
      "peop": 7585,
      "##red": 7586,
      "service": 7587,
      "well": 7588,
      "##ft": 7589,
      "financ": 7590,
      "number": 7591,
      "##led": 7592,
      "only": 7593,
      "those": 7594,
      "meeting": 7595,
      "trad": 7596,
      "##ration": 7597,
      "##ef": 7598,
      "##ected": 7599,
      "economic": 7600,
      "##ings": 7601,
      "where": 7602,
      "concern": 7603,
      "##omen": 7604,
      "oper": 7605,
      "##part": 7606,
      "repres": 7607,
      "policy": 7608,
      "decision": 7609,
      "article": 7610,
      "li": 7611,
      "##ards": 7612,
      "##its": 7613,
      "resol": 7614,
      "di": 7615,
      "agree": 7616,
      "shall": 7617,
      "##rit": 7618,
      "social": 7619,
      "member": 7620,
      "##fore": 7621,
      "equ": 7622,
      "##____": 7623,
      "resour": 7624,
      "ca": 7625,
      "when": 7626,
      "##inc": 7627,
      "instit": 7628,
      "##ount": 7629,
      "propos": 7630,
      "about": 7631,
      "av": 7632,
      "women": 7633,
      "cour": 7634,
      "##mbers": 7635,
      "person": 7636,
      "##ise": 7637,
      "two": 7638,
      "activities": 7639,
      "ens": 7640,
      "secret": 7641,
      "community": 7642,
      "##now": 7643,
      "##eng": 7644,
      "##utions": 7645,
      "see": 7646,
      "fe": 7647,
      "bec": 7648,
      "12": 7649,
      "##ving": 7650,
      "main": 7651,
      "sign": 7652,
      "special": 7653,
      "loc": 7654,
      "docu": 7655,
      "##ys": 7656,
      "20": 7657,
      "depart": 7658,
      "stud": 7659,
      "particular": 7660,
      "particip": 7661,
      "nor": 7662,
      "sch": 7663,
      "##ety": 7664,
      "##ference": 7665,
      "##wn": 7666,
      "med": 7667,
      "within": 7668,
      "again": 7669,
      "people": 7670,
      "dra": 7671,
      "def": 7672,
      "non": 7673,
      "his": 7674,
      "exper": 7675,
      "##ork": 7676,
      "dat": 7677,
      "##old": 7678,
      "review": 7679,
      "set": 7680,
      "represent": 7681,
      "order": 7682,
      "program": 7683,
      "your": 7684,
      "provide": 7685,
      "years": 7686,
      "##ants": 7687,
      "##xt": 7688,
      "##ruc": 7689,
      "##oint": 7690,
      "##ood": 7691,
      "para": 7692,
      "initi": 7693,
      "fac": 7694,
      "##iod": 7695,
      "11": 7696,
      "asse": 7697,
      "strateg": 7698,
      "red": 7699,
      "2005": 7700,
      "##ning": 7701,
      "val": 7702,
      "fur": 7703,
      "consider": 7704,
      "##til": 7705,
      "##cep": 7706,
      "tak": 7707,
      "direct": 7708,
      "dep": 7709,
      "##ays": 7710,
      "conf": 7711,
      "cur": 7712,
      "them": 7713,
      "access": 7714,
      "2006": 7715,
      "members": 7716,
      "mod": 7717,
      "recomm": 7718,
      "##ivers": 7719,
      "world": 7720,
      "##ability": 7721,
      "##uation": 7722,
      "recommend": 7723,
      "##go": 7724,
      "educ": 7725,
      "##orts": 7726,
      "stand": 7727,
      "respons": 7728,
      "char": 7729,
      "15": 7730,
      "accord": 7731,
      "##ath": 7732,
      "##ffer": 7733,
      "ref": 7734,
      "##ining": 7735,
      "##ters": 7736,
      "##erg": 7737,
      "##ident": 7738,
      "##mit": 7739,
      "aff": 7740,
      "sur": 7741,
      "period": 7742,
      "##man": 7743,
      "contrib": 7744,
      "##land": 7745,
      "during": 7746,
      "cost": 7747,
      "##ized": 7748,
      "assist": 7749,
      "##av": 7750,
      "##ble": 7751,
      "ben": 7752,
      "mark": 7753,
      "bus": 7754,
      "##tim": 7755,
      "2004": 7756,
      "following": 7757,
      "cri": 7758,
      "financial": 7759,
      "ef": 7760,
      "ver": 7761,
      "require": 7762,
      "most": 7763,
      "based": 7764,
      "##ince": 7765,
      "##iness": 7766,
      "##tern": 7767,
      "##rol": 7768,
      "bu": 7769,
      "inf": 7770,
      "provision": 7771,
      "children": 7772,
      "##ases": 7773,
      "##are": 7774,
      "inst": 7775,
      "bel": 7776,
      "dem": 7777,
      "adop": 7778,
      "implementation": 7779,
      "impro": 7780,
      "indust": 7781,
      "##ok": 7782,
      "session": 7783,
      "resources": 7784,
      "assess": 7785,
      "##very": 7786,
      "rele": 7787,
      "##ite": 7788,
      "##tice": 7789,
      "ext": 7790,
      "qu": 7791,
      "ful": 7792,
      "##ines": 7793,
      "##itions": 7794,
      "know": 7795,
      "further": 7796,
      "##ice": 7797,
      "air": 7798,
      "minister": 7799,
      "##ever": 7800,
      "against": 7801,
      "##ute": 7802,
      "data": 7803,
      "avail": 7804,
      "country": 7805,
      "ma": 7806,
      "convention": 7807,
      "present": 7808,
      "##yp": 7809,
      "addition": 7810,
      "rece": 7811,
      "project": 7812,
      "paragraph": 7813,
      "used": 7814,
      "issues": 7815,
      "resolution": 7816,
      "end": 7817,
      "##ful": 7818,
      "##ey": 7819,
      "being": 7820,
      "2007": 7821,
      "business": 7822,
      "each": 7823,
      "requir": 7824,
      "curr": 7825,
      "measures": 7826,
      "working": 7827,
      "fed": 7828,
      "her": 7829,
      "##ently": 7830,
      "##ix": 7831,
      "poss": 7832,
      "address": 7833,
      "prac": 7834,
      "office": 7835,
      "2003": 7836,
      "both": 7837,
      "br": 7838,
      "coll": 7839,
      "##lear": 7840,
      "mo": 7841,
      "provided": 7842,
      "##arm": 7843,
      "programme": 7844,
      "action": 7845,
      "regard": 7846,
      "coop": 7847,
      "##me": 7848,
      "good": 7849,
      "promo": 7850,
      "sect": 7851,
      "admin": 7852,
      "amend": 7853,
      "what": 7854,
      "could": 7855,
      "differ": 7856,
      "##tal": 7857,
      "ensure": 7858,
      "comple": 7859,
      "however": 7860,
      "treat": 7861,
      "pay": 7862,
      "cre": 7863,
      "qual": 7864,
      "##ential": 7865,
      "department": 7866,
      "specific": 7867,
      "##ences": 7868,
      "ques": 7869,
      "##eg": 7870,
      "##ause": 7871,
      "##ism": 7872,
      "##arge": 7873,
      "partn": 7874,
      "resul": 7875,
      "protection": 7876,
      "after": 7877,
      "assemb": 7878,
      "2002": 7879,
      "##ily": 7880,
      "##ages": 7881,
      "cond": 7882,
      "##ough": 7883,
      "important": 7884,
      "##aff": 7885,
      "trade": 7886,
      "##illion": 7887,
      "section": 7888,
      "prior": 7889,
      "fra": 7890,
      "cer": 7891,
      "##ivid": 7892,
      "case": 7893,
      "many": 7894,
      "related": 7895,
      "indic": 7896,
      "fr": 7897,
      "vari": 7898,
      "13": 7899,
      "available": 7900,
      "##ilit": 7901,
      "regional": 7902,
      "rem": 7903,
      "em": 7904,
      "fact": 7905,
      "training": 7906,
      "tax": 7907,
      "##li": 7908,
      "board": 7909,
      "control": 7910,
      "18": 7911,
      "2001": 7912,
      "##row": 7913,
      "ris": 7914,
      "##gin": 7915,
      "##atives": 7916,
      "take": 7917,
      "##pr": 7918,
      "##king": 7919,
      "identi": 7920,
      "assembly": 7921,
      "technolog": 7922,
      "##ss": 7923,
      "mat": 7924,
      "education": 7925,
      "make": 7926,
      "##tis": 7927,
      "agreement": 7928,
      "000": 7929,
      "right": 7930,
      "14": 7931,
      "##ilities": 7932,
      "##udge": 7933,
      "30": 7934,
      "areas": 7935,
      "att": 7936,
      "##port": 7937,
      "##oci": 7938,
      "parties": 7939,
      "##ex": 7940,
      "saf": 7941,
      "2000": 7942,
      "view": 7943,
      "ser": 7944,
      "##ital": 7945,
      "sel": 7946,
      "help": 7947,
      "deter": 7948,
      "lead": 7949,
      "nat": 7950,
      "opp": 7951,
      "pop": 7952,
      "##amp": 7953,
      "administ": 7954,
      "associ": 7955,
      "sm": 7956,
      "col": 7957,
      "document": 7958,
      "prepar": 7959,
      "aw": 7960,
      "prof": 7961,
      "proced": 7962,
      "##ral": 7963,
      "design": 7964,
      "eng": 7965,
      "area": 7966,
      "##ization": 7967,
      "##fici": 7968,
      "##ibility": 7969,
      "##ased": 7970,
      "##erc": 7971,
      "second": 7972,
      "lim": 7973,
      "dist": 7974,
      "##ium": 7975,
      "off": 7976,
      "giv": 7977,
      "invol": 7978,
      "great": 7979,
      "individ": 7980,
      "fam": 7981,
      "individual": 7982,
      "respect": 7983,
      "cooperation": 7984,
      "##ta": 7985,
      "##itor": 7986,
      "organizations": 7987,
      "obj": 7988,
      "##ulation": 7989,
      "while": 7990,
      "##por": 7991,
      "communic": 7992,
      "benef": 7993,
      "long": 7994,
      "cult": 7995,
      "president": 7996,
      "##ropri": 7997,
      "partners": 7998,
      "##omes": 7999,
      "perform": 8000,
      "three": 8001,
      "lo": 8002,
      "lab": 8003,
      "16": 8004,
      "00": 8005,
      "discus": 8006,
      "exc": 8007,
      "##iel": 8008,
      "federal": 8009,
      "##ised": 8010,
      "market": 8011,
      "before": 8012,
      "fl": 8013,
      "determin": 8014,
      "ra": 8015,
      "##ecess": 8016,
      "union": 8017,
      "##ests": 8018,
      "organization": 8019,
      "princ": 8020,
      "staff": 8021,
      "occ": 8022,
      "party": 8023,
      "##ov": 8024,
      "conference": 8025,
      "poli": 8026,
      "##teg": 8027,
      "peace": 8028,
      "##ination": 8029,
      "princip": 8030,
      "##ued": 8031,
      "contain": 8032,
      "total": 8033,
      "##ined": 8034,
      "since": 8035,
      "application": 8036,
      "legal": 8037,
      "##ested": 8038,
      "##ength": 8039,
      "call": 8040,
      "same": 8041,
      "##lia": 8042,
      "build": 8043,
      "##vely": 8044,
      "priv": 8045,
      "care": 8046,
      "ach": 8047,
      "##atory": 8048,
      "own": 8049,
      "##aking": 8050,
      "maj": 8051,
      "very": 8052,
      "account": 8053,
      "##own": 8054,
      "water": 8055,
      "appropri": 8056,
      "parlia": 8057,
      "sol": 8058,
      "##ower": 8059,
      "proper": 8060,
      "allow": 8061,
      "achie": 8062,
      "ii": 8063,
      "lang": 8064,
      "agency": 8065,
      "secretary": 8066,
      "net": 8067,
      "environmental": 8068,
      "sector": 8069,
      "place": 8070,
      "required": 8071,
      "gr": 8072,
      "##ances": 8073,
      "##isl": 8074,
      "court": 8075,
      "draft": 8076,
      "##ool": 8077,
      "##ds": 8078,
      "necess": 8079,
      "17": 8080,
      "compan": 8081,
      "anal": 8082,
      "25": 8083,
      "identif": 8084,
      "vis": 8085,
      "budge": 8086,
      "legisl": 8087,
      "##ortun": 8088,
      "parliament": 8089,
      "date": 8090,
      "ear": 8091,
      "consult": 8092,
      "##ross": 8093,
      "##ience": 8094,
      "food": 8095,
      "assistance": 8096,
      "fram": 8097,
      "21": 8098,
      "elect": 8099,
      "integ": 8100,
      "2008": 8101,
      "major": 8102,
      "desc": 8103,
      "##ction": 8104,
      "million": 8105,
      "products": 8106,
      "##lus": 8107,
      "purp": 8108,
      "ban": 8109,
      "tel": 8110,
      "results": 8111,
      "include": 8112,
      "##ize": 8113,
      "##urn": 8114,
      "##gress": 8115,
      "found": 8116,
      "##....": 8117,
      "##lob": 8118,
      "##reed": 8119,
      "transport": 8120,
      "whe": 8121,
      "bro": 8122,
      "because": 8123,
      "sal": 8124,
      "proble": 8125,
      "##ife": 8126,
      "among": 8127,
      "framew": 8128,
      "effective": 8129,
      "eval": 8130,
      "stat": 8131,
      "approach": 8132,
      "##io": 8133,
      "langu": 8134,
      "ite": 8135,
      "possible": 8136,
      "##vant": 8137,
      "##oura": 8138,
      "summ": 8139,
      "land": 8140,
      "glob": 8141,
      "##jects": 8142,
      "##forts": 8143,
      "political": 8144,
      "##ians": 8145,
      "viol": 8146,
      "##stain": 8147,
      "list": 8148,
      "official": 8149,
      "efforts": 8150,
      "cla": 8151,
      "gra": 8152,
      "local": 8153,
      "without": 8154,
      "ret": 8155,
      "enc": 8156,
      "typ": 8157,
      "198": 8158,
      "det": 8159,
      "afric": 8160,
      "univers": 8161,
      "##ges": 8162,
      "requirements": 8163,
      "##ems": 8164,
      "disp": 8165,
      "reduc": 8166,
      "industry": 8167,
      "examp": 8168,
      "opportun": 8169,
      "receiv": 8170,
      "imm": 8171,
      "guid": 8172,
      "improve": 8173,
      "does": 8174,
      "sustain": 8175,
      "subs": 8176,
      "my": 8177,
      "role": 8178,
      "##orting": 8179,
      "republic": 8180,
      ".,": 8181,
      "capac": 8182,
      "basis": 8183,
      "now": 8184,
      "regulations": 8185,
      "grow": 8186,
      "##day": 8187,
      "risk": 8188,
      "##ture": 8189,
      "civ": 8190,
      "##ogn": 8191,
      "persons": 8192,
      "record": 8193,
      "refer": 8194,
      "jus": 8195,
      "clear": 8196,
      "lin": 8197,
      "signific": 8198,
      "##eric": 8199,
      "conditions": 8200,
      "##idence": 8201,
      "##une": 8202,
      "territ": 8203,
      "fish": 8204,
      "budget": 8205,
      "recogn": 8206,
      "strength": 8207,
      "like": 8208,
      "framework": 8209,
      "thir": 8210,
      "taken": 8211,
      "invest": 8212,
      "dece": 8213,
      "##over": 8214,
      "change": 8215,
      "##ron": 8216,
      "chang": 8217,
      "issue": 8218,
      "global": 8219,
      "##rip": 8220,
      "employe": 8221,
      "developing": 8222,
      "subst": 8223,
      "##tics": 8224,
      "necessary": 8225,
      "appropriate": 8226,
      "given": 8227,
      "##ately": 8228,
      "subject": 8229,
      "##cept": 8230,
      "key": 8231,
      "##ified": 8232,
      "conduc": 8233,
      "##lain": 8234,
      "submit": 8235,
      "fut": 8236,
      "groups": 8237,
      "quality": 8238,
      "coord": 8239,
      "##eign": 8240,
      "civil": 8241,
      "she": 8242,
      "mul": 8243,
      "needs": 8244,
      "post": 8245,
      "aud": 8246,
      "centre": 8247,
      "##sp": 8248,
      "##ules": 8249,
      "monitor": 8250,
      "##roduc": 8251,
      "december": 8252,
      "foc": 8253,
      "employment": 8254,
      "##ule": 8255,
      "relevant": 8256,
      "##________": 8257,
      "ve": 8258,
      "day": 8259,
      "decl": 8260,
      "way": 8261,
      "reas": 8262,
      "claim": 8263,
      "assessment": 8264,
      "##ind": 8265,
      "meth": 8266,
      "increase": 8267,
      "small": 8268,
      "projects": 8269,
      "school": 8270,
      "future": 8271,
      "deleg": 8272,
      "established": 8273,
      "remain": 8274,
      "##ious": 8275,
      "##stand": 8276,
      "reports": 8277,
      "four": 8278,
      "common": 8279,
      "term": 8280,
      "##isting": 8281,
      "24": 8282,
      "22": 8283,
      "ori": 8284,
      "current": 8285,
      "##ceed": 8286,
      "##eness": 8287,
      "men": 8288,
      "class": 8289,
      "express": 8290,
      "held": 8291,
      "force": 8292,
      "site": 8293,
      "##ness": 8294,
      "question": 8295,
      "bod": 8296,
      "##ves": 8297,
      "adopted": 8298,
      "whether": 8299,
      "##ator": 8300,
      "vol": 8301,
      "31": 8302,
      "full": 8303,
      "head": 8304,
      "##els": 8305,
      "web": 8306,
      "month": 8307,
      "continue": 8308,
      "significant": 8309,
      "different": 8310,
      "systems": 8311,
      "fiel": 8312,
      "provisions": 8313,
      "sever": 8314,
      "situation": 8315,
      "ur": 8316,
      "##ators": 8317,
      "progress": 8318,
      "compe": 8319,
      "rest": 8320,
      "therefore": 8321,
      "##up": 8322,
      "mater": 8323,
      "##encies": 8324,
      "june": 8325,
      "institutions": 8326,
      "mission": 8327,
      "capacity": 8328,
      "proposed": 8329,
      "rev": 8330,
      "sou": 8331,
      "mu": 8332,
      "programs": 8333,
      "technical": 8334,
      "less": 8335,
      "fun": 8336,
      "cases": 8337,
      "safety": 8338,
      "focus": 8339,
      "##ening": 8340,
      "##ww": 8341,
      "23": 8342,
      "##ling": 8343,
      "##ner": 8344,
      "population": 8345,
      "means": 8346,
      "ht": 8347,
      "every": 8348,
      "1999": 8349,
      "chair": 8350,
      "##tig": 8351,
      "##enda": 8352,
      "www": 8353,
      "##read": 8354,
      "sour": 8355,
      "accordance": 8356,
      "fil": 8357,
      "annex": 8358,
      "material": 8359,
      "##ledge": 8360,
      "corpor": 8361,
      "find": 8362,
      "certain": 8363,
      "relations": 8364,
      "bi": 8365,
      "cod": 8366,
      "succ": 8367,
      "##ender": 8368,
      "sk": 8369,
      "real": 8370,
      "enter": 8371,
      "soci": 8372,
      "vo": 8373,
      "bri": 8374,
      "##ked": 8375,
      "##rug": 8376,
      "et": 8377,
      "beh": 8378,
      "##ouse": 8379,
      "policies": 8380,
      "foreign": 8381,
      "obs": 8382,
      "agenda": 8383,
      "technology": 8384,
      "life": 8385,
      "deb": 8386,
      "##oms": 8387,
      "comb": 8388,
      "const": 8389,
      "deli": 8390,
      "##round": 8391,
      "##ged": 8392,
      "##fication": 8393,
      "pot": 8394,
      "result": 8395,
      "##--": 8396,
      "##to": 8397,
      "example": 8398,
      "march": 8399,
      "even": 8400,
      "direc": 8401,
      "##co": 8402,
      "considered": 8403,
      "director": 8404,
      "##uly": 8405,
      "##ract": 8406,
      "analys": 8407,
      "spe": 8408,
      "cover": 8409,
      "funding": 8410,
      "rules": 8411,
      "##ergy": 8412,
      "method": 8413,
      "americ": 8414,
      "constit": 8415,
      "costs": 8416,
      "##ariat": 8417,
      "back": 8418,
      "##airs": 8419,
      "impact": 8420,
      "##vious": 8421,
      "##ended": 8422,
      "sen": 8423,
      "said": 8424,
      "inves": 8425,
      "sep": 8426,
      "##atic": 8427,
      "success": 8428,
      "##ists": 8429,
      "##ale": 8430,
      "annual": 8431,
      "various": 8432,
      "struc": 8433,
      "bar": 8434,
      "bl": 8435,
      "strategy": 8436,
      "secretariat": 8437,
      "according": 8438,
      "ed": 8439,
      "levels": 8440,
      "##ris": 8441,
      "netw": 8442,
      "amount": 8443,
      "##ina": 8444,
      "##ario": 8445,
      "additional": 8446,
      "aid": 8447,
      "point": 8448,
      "third": 8449,
      "il": 8450,
      "family": 8451,
      "study": 8452,
      "cust": 8453,
      "##ror": 8454,
      "developed": 8455,
      "standards": 8456,
      "war": 8457,
      "##val": 8458,
      "sim": 8459,
      "##mination": 8460,
      "pat": 8461,
      "##uce": 8462,
      "property": 8463,
      "communities": 8464,
      "performance": 8465,
      "provides": 8466,
      "drug": 8467,
      "knowledge": 8468,
      "##iss": 8469,
      "##lig": 8470,
      "table": 8471,
      "chall": 8472,
      "##ensive": 8473,
      "position": 8474,
      "free": 8475,
      "energy": 8476,
      "surve": 8477,
      "##ather": 8478,
      "society": 8479,
      "wel": 8480,
      "terms": 8481,
      "competi": 8482,
      "production": 8483,
      "six": 8484,
      "making": 8485,
      "ont": 8486,
      "pen": 8487,
      "operations": 8488,
      "##uf": 8489,
      "home": 8490,
      "income": 8491,
      "hand": 8492,
      "purs": 8493,
      "last": 8494,
      "##osed": 8495,
      "authorities": 8496,
      "did": 8497,
      "interest": 8498,
      "note": 8499,
      "recommendations": 8500,
      "##eal": 8501,
      "star": 8502,
      "jan": 8503,
      "##alf": 8504,
      "tre": 8505,
      "##ward": 8506,
      "sw": 8507,
      "building": 8508,
      "septe": 8509,
      "using": 8510,
      "authority": 8511,
      "investig": 8512,
      "26": 8513,
      "rate": 8514,
      "cal": 8515,
      "##gg": 8516,
      "representative": 8517,
      "september": 8518,
      "item": 8519,
      "value": 8520,
      "##tices": 8521,
      "pa": 8522,
      "enh": 8523,
      "##ending": 8524,
      "let": 8525,
      "##inal": 8526,
      "read": 8527,
      "then": 8528,
      "##mental": 8529,
      "##atis": 8530,
      "##ove": 8531,
      "mand": 8532,
      "broad": 8533,
      "28": 8534,
      "private": 8535,
      "##tention": 8536,
      "encoura": 8537,
      "exec": 8538,
      "cop": 8539,
      "received": 8540,
      "##ick": 8541,
      "manag": 8542,
      "programmes": 8543,
      "legislation": 8544,
      "status": 8545,
      "##ality": 8546,
      "##enn": 8547,
      "detail": 8548,
      "oct": 8549,
      "##ories": 8550,
      "goods": 8551,
      "##sequ": 8552,
      "29": 8553,
      "ple": 8554,
      "above": 8555,
      "origin": 8556,
      "##ying": 8557,
      "oblig": 8558,
      "affairs": 8559,
      "field": 8560,
      "increased": 8561,
      "apr": 8562,
      "##asing": 8563,
      "du": 8564,
      "partnership": 8565,
      "27": 8566,
      "##ification": 8567,
      "estim": 8568,
      "ontario": 8569,
      "##irc": 8570,
      "ge": 8571,
      "50": 8572,
      "exam": 8573,
      "show": 8574,
      "lic": 8575,
      "sup": 8576,
      "here": 8577,
      "##acy": 8578,
      "conte": 8579,
      "sustainable": 8580,
      "treaty": 8581,
      "line": 8582,
      "##lusion": 8583,
      "##other": 8584,
      "conflic": 8585,
      "##itiz": 8586,
      "##echan": 8587,
      "cultural": 8588,
      "##ury": 8589,
      "##ectives": 8590,
      ");": 8591,
      "discussion": 8592,
      "##men": 8593,
      "july": 8594,
      "several": 8595,
      "works": 8596,
      "mechan": 8597,
      "open": 8598,
      "hear": 8599,
      "##rated": 8600,
      "lear": 8601,
      "april": 8602,
      "profession": 8603,
      "previous": 8604,
      "##ier": 8605,
      "regulation": 8606,
      "trib": 8607,
      "understand": 8608,
      "evaluation": 8609,
      "hist": 8610,
      "##ober": 8611,
      "justice": 8612,
      "offer": 8613,
      "discri": 8614,
      "##rial": 8615,
      "##uts": 8616,
      "apply": 8617,
      "october": 8618,
      "##minal": 8619,
      "circ": 8620,
      "another": 8621,
      "##ask": 8622,
      "jud": 8623,
      "##wa": 8624,
      "undert": 8625,
      "introduc": 8626,
      "nove": 8627,
      "distrib": 8628,
      "##tively": 8629,
      "##uary": 8630,
      "particularly": 8631,
      "aim": 8632,
      "##ruction": 8633,
      "analysis": 8634,
      "november": 8635,
      "participation": 8636,
      "cred": 8637,
      "##vent": 8638,
      "ent": 8639,
      "pass": 8640,
      "request": 8641,
      "liv": 8642,
      "democ": 8643,
      "documents": 8644,
      "##till": 8645,
      "##hold": 8646,
      "##med": 8647,
      "monitoring": 8648,
      "north": 8649,
      "agric": 8650,
      "changes": 8651,
      "01": 8652,
      "treatment": 8653,
      "carri": 8654,
      "##oss": 8655,
      "down": 8656,
      "##bec": 8657,
      "upon": 8658,
      "concerning": 8659,
      "benefits": 8660,
      "shar": 8661,
      "##mission": 8662,
      "included": 8663,
      "##urs": 8664,
      "language": 8665,
      "agricult": 8666,
      "maintain": 8667,
      "div": 8668,
      "statis": 8669,
      "##rative": 8670,
      "existing": 8671,
      "terror": 8672,
      "growth": 8673,
      "due": 8674,
      "best": 8675,
      "compar": 8676,
      "january": 8677,
      "age": 8678,
      "##vement": 8679,
      "##onse": 8680,
      "observ": 8681,
      "central": 8682,
      "bank": 8683,
      "asp": 8684,
      "contract": 8685,
      "##uss": 8686,
      "lib": 8687,
      "##eria": 8688,
      "sci": 8689,
      "##ced": 8690,
      "transfer": 8691,
      "##ipment": 8692,
      "response": 8693,
      "declar": 8694,
      "##hib": 8695,
      "south": 8696,
      "joint": 8697,
      "##ections": 8698,
      "##ices": 8699,
      "met": 8700,
      "##ock": 8701,
      "##imum": 8702,
      "##cent": 8703,
      "large": 8704,
      "entit": 8705,
      "next": 8706,
      "##ends": 8707,
      "arr": 8708,
      "contact": 8709,
      "complain": 8710,
      "abor": 8711,
      "advis": 8712,
      "appl": 8713,
      "##utes": 8714,
      "##ief": 8715,
      "inn": 8716,
      "return": 8717,
      "institution": 8718,
      "planning": 8719,
      "##ber": 8720,
      "natural": 8721,
      "governments": 8722,
      "hot": 8723,
      "##ics": 8724,
      "ms": 8725,
      "responsible": 8726,
      "eth": 8727,
      "better": 8728,
      "##ope": 8729,
      "##ev": 8730,
      "##ficient": 8731,
      "concerned": 8732,
      "potential": 8733,
      "procedures": 8734,
      "proposal": 8735,
      "##vers": 8736,
      "agencies": 8737,
      "objectives": 8738,
      "##yl": 8739,
      "submitted": 8740,
      "##ton": 8741,
      "investment": 8742,
      "play": 8743,
      "##epend": 8744,
      "administrative": 8745,
      "five": 8746,
      "##que": 8747,
      "still": 8748,
      "citiz": 8749,
      "company": 8750,
      "##ually": 8751,
      "regist": 8752,
      "product": 8753,
      "targe": 8754,
      "labour": 8755,
      "refl": 8756,
      "activity": 8757,
      "1998": 8758,
      "##ales": 8759,
      "prim": 8760,
      "milit": 8761,
      "emerg": 8762,
      "criminal": 8763,
      "instru": 8764,
      "amendment": 8765,
      "consideration": 8766,
      "initiatives": 8767,
      "##tif": 8768,
      "final": 8769,
      "##way": 8770,
      "##itive": 8771,
      "step": 8772,
      "reference": 8773,
      "respond": 8774,
      "##hic": 8775,
      "practices": 8776,
      "deal": 8777,
      "top": 8778,
      "reporting": 8779,
      "travel": 8780,
      "equipment": 8781,
      "##goti": 8782,
      "dr": 8783,
      "que": 8784,
      "##ior": 8785,
      "least": 8786,
      "personal": 8787,
      "##ban": 8788,
      "statement": 8789,
      "promote": 8790,
      "aborig": 8791,
      "negoti": 8792,
      "initiative": 8793,
      "##ned": 8794,
      "reason": 8795,
      "university": 8796,
      "importance": 8797,
      "##ufact": 8798,
      "code": 8799,
      "team": 8800,
      "strategic": 8801,
      "pan": 8802,
      "##ecting": 8803,
      "##ological": 8804,
      "##incial": 8805,
      "military": 8806,
      "purpose": 8807,
      "##tp": 8808,
      "bal": 8809,
      "manufact": 8810,
      "aboriginal": 8811,
      "##oses": 8812,
      "decisions": 8813,
      "##ours": 8814,
      "tow": 8815,
      "40": 8816,
      "facilit": 8817,
      "having": 8818,
      "welc": 8819,
      "##ocol": 8820,
      "problems": 8821,
      "providing": 8822,
      "alth": 8823,
      "procedure": 8824,
      "name": 8825,
      "much": 8826,
      "independ": 8827,
      "##nel": 8828,
      "##ars": 8829,
      "although": 8830,
      "strong": 8831,
      "tribun": 8832,
      "capital": 8833,
      "power": 8834,
      "##force": 8835,
      "esp": 8836,
      "pursu": 8837,
      "##line": 8838,
      "provincial": 8839,
      "canadians": 8840,
      "plans": 8841,
      "domes": 8842,
      "infr": 8843,
      "gre": 8844,
      "execu": 8845,
      "##elf": 8846,
      "eas": 8847,
      "##ready": 8848,
      "noted": 8849,
      "low": 8850,
      "domestic": 8851,
      "already": 8852,
      "##az": 8853,
      "regarding": 8854,
      "guidel": 8855,
      "expl": 8856,
      "pap": 8857,
      "meetings": 8858,
      "context": 8859,
      "pub": 8860,
      "africa": 8861,
      "port": 8862,
      "network": 8863,
      "protocol": 8864,
      "house": 8865,
      "##tle": 8866,
      "vic": 8867,
      "tool": 8868,
      "reform": 8869,
      "vehic": 8870,
      "##uty": 8871,
      "##ilar": 8872,
      "meet": 8873,
      "##ne": 8874,
      "just": 8875,
      "press": 8876,
      "operation": 8877,
      "##thern": 8878,
      "rad": 8879,
      "standard": 8880,
      "effec": 8881,
      "experience": 8882,
      "temp": 8883,
      "communication": 8884,
      "reach": 8885,
      "##ured": 8886,
      "employees": 8887,
      "proceed": 8888,
      "evidence": 8889,
      "limited": 8890,
      "dif": 8891,
      "discrimination": 8892,
      "##ially": 8893,
      "100": 8894,
      "obtain": 8895,
      "wee": 8896,
      "##abor": 8897,
      "principles": 8898,
      "gender": 8899,
      "##gether": 8900,
      "effect": 8901,
      "similar": 8902,
      "sl": 8903,
      "percent": 8904,
      "60": 8905,
      "questions": 8906,
      "ren": 8907,
      "##arian": 8908,
      "##thers": 8909,
      "type": 8910,
      "diffic": 8911,
      "increasing": 8912,
      "responsibility": 8913,
      "association": 8914,
      "##ither": 8915,
      "##edi": 8916,
      "##onst": 8917,
      "opportunities": 8918,
      "police": 8919,
      "sing": 8920,
      "phys": 8921,
      "dev": 8922,
      "involved": 8923,
      "##sc": 8924,
      "innov": 8925,
      "room": 8926,
      "representatives": 8927,
      "##omp": 8928,
      "consum": 8929,
      "delegation": 8930,
      "administration": 8931,
      "prevention": 8932,
      "media": 8933,
      "together": 8934,
      "able": 8935,
      "lit": 8936,
      "##//": 8937,
      "##uted": 8938,
      "##aced": 8939,
      "##osure": 8940,
      "##dic": 8941,
      "http": 8942,
      "ess": 8943,
      "##isc": 8944,
      "taking": 8945,
      "##ising": 8946,
      "tribunal": 8947,
      "##ient": 8948,
      "greater": 8949,
      "exch": 8950,
      "effects": 8951,
      "conflict": 8952,
      "://": 8953,
      "division": 8954,
      "rule": 8955,
      "feb": 8956,
      "job": 8957,
      "belie": 8958,
      "si": 8959,
      "short": 8960,
      "wish": 8961,
      "nuc": 8962,
      "##rc": 8963,
      "agreements": 8964,
      "poin": 8965,
      "conn": 8966,
      "reported": 8967,
      "##acter": 8968,
      "chap": 8969,
      "##equ": 8970,
      "##less": 8971,
      "funds": 8972,
      "##ature": 8973,
      "citizens": 8974,
      "gc": 8975,
      "##inion": 8976,
      "violence": 8977,
      "today": 8978,
      "cann": 8979,
      "describ": 8980,
      "##yc": 8981,
      "don": 8982,
      "##urance": 8983,
      "page": 8984,
      "02": 8985,
      "benefit": 8986,
      "##ave": 8987,
      "##ription": 8988,
      "executive": 8989,
      "recent": 8990,
      ".\"": 8991,
      "publish": 8992,
      "challeng": 8993,
      "contrac": 8994,
      "##lu": 8995,
      "relating": 8996,
      "days": 8997,
      "occup": 8998,
      "matter": 8999,
      "range": 9000,
      "outc": 9001,
      "##rench": 9002,
      "##reh": 9003,
      "61": 9004,
      "guidelines": 9005,
      "##ology": 9006,
      "##ering": 9007,
      "##ruary": 9008,
      "201": 9009,
      "internal": 9010,
      "february": 9011,
      "expected": 9012,
      "sex": 9013,
      "marke": 9014,
      "##ograph": 9015,
      "##ateral": 9016,
      "studies": 9017,
      "compli": 9018,
      "towards": 9019,
      "function": 9020,
      "im": 9021,
      "lar": 9022,
      "##itation": 9023,
      "practice": 9024,
      "ground": 9025,
      "fif": 9026,
      "priority": 9027,
      "minist": 9028,
      "hold": 9029,
      "##ills": 9030,
      "aut": 9031,
      "opinion": 9032,
      "continued": 9033,
      "sched": 9034,
      "decid": 9035,
      "discuss": 9036,
      "past": 9037,
      "agreed": 9038,
      "scienti": 9039,
      "##unic": 9040,
      "consist": 9041,
      "ger": 9042,
      "register": 9043,
      "espec": 9044,
      "##oung": 9045,
      "commerc": 9046,
      "ele": 9047,
      "##atch": 9048,
      "##ffic": 9049,
      "young": 9050,
      "especially": 9051,
      "medical": 9052,
      "1997": 9053,
      "##rec": 9054,
      "french": 9055,
      "aug": 9056,
      "regular": 9057,
      "course": 9058,
      "##itional": 9059,
      "##ins": 9060,
      "perman": 9061,
      "##inary": 9062,
      "become": 9063,
      "bra": 9064,
      "nuclear": 9065,
      "forces": 9066,
      "##ison": 9067,
      "months": 9068,
      "dise": 9069,
      "give": 9070,
      "coordin": 9071,
      "04": 9072,
      "ste": 9073,
      "##ronic": 9074,
      "compreh": 9075,
      "##thing": 9076,
      "audit": 9077,
      "unit": 9078,
      "bre": 9079,
      "far": 9080,
      "identified": 9081,
      "defin": 9082,
      "197": 9083,
      "hotel": 9084,
      "multi": 9085,
      "individuals": 9086,
      "cannot": 9087,
      "often": 9088,
      "commissioner": 9089,
      "measure": 9090,
      "early": 9091,
      "##sw": 9092,
      "cand": 9093,
      "adj": 9094,
      "directive": 9095,
      "##ises": 9096,
      "##ounts": 9097,
      "put": 9098,
      "across": 9099,
      "repl": 9100,
      "text": 9101,
      "companies": 9102,
      "commercial": 9103,
      "pursuant": 9104,
      "nature": 9105,
      "##........": 9106,
      "youth": 9107,
      "self": 9108,
      "##iation": 9109,
      "vers": 9110,
      "ir": 9111,
      "referred": 9112,
      "currently": 9113,
      "altern": 9114,
      "purposes": 9115,
      "appeal": 9116,
      "##emp": 9117,
      "thus": 9118,
      "achieve": 9119,
      "species": 9120,
      "##ats": 9121,
      "remo": 9122,
      "##isation": 9123,
      "traffic": 9124,
      "categ": 9125,
      "strengthen": 9126,
      "nam": 9127,
      "compon": 9128,
      "##ably": 9129,
      "model": 9130,
      "communications": 9131,
      "few": 9132,
      "camp": 9133,
      "includes": 9134,
      "fail": 9135,
      "contributions": 9136,
      "others": 9137,
      "below": 9138,
      "har": 9139,
      "##astruc": 9140,
      "attention": 9141,
      "insp": 9142,
      "##tification": 9143,
      "cf": 9144,
      "forms": 9145,
      "contribution": 9146,
      "appear": 9147,
      "##akes": 9148,
      "leaders": 9149,
      "problem": 9150,
      "prepared": 9151,
      "grant": 9152,
      "##ane": 9153,
      "35": 9154,
      "infrastruc": 9155,
      "lik": 9156,
      "workers": 9157,
      "mean": 9158,
      "divers": 9159,
      "establishment": 9160,
      "declaration": 9161,
      "permanent": 9162,
      "##action": 9163,
      "03": 9164,
      "##ump": 9165,
      "comprehensive": 9166,
      "aver": 9167,
      "ke": 9168,
      "old": 9169,
      "##ash": 9170,
      "ot": 9171,
      "crit": 9172,
      "rapp": 9173,
      "##aran": 9174,
      "substan": 9175,
      "candid": 9176,
      "officer": 9177,
      "higher": 9178,
      "promotion": 9179,
      "share": 9180,
      "demand": 9181,
      "##orte": 9182,
      "##aries": 9183,
      "survey": 9184,
      "##izing": 9185,
      "compliance": 9186,
      "please": 9187,
      "):": 9188,
      "outs": 9189,
      "fully": 9190,
      "overall": 9191,
      "expend": 9192,
      "look": 9193,
      "road": 9194,
      "##af": 9195,
      "approved": 9196,
      "arrange": 9197,
      "mig": 9198,
      "professional": 9199,
      "rates": 9200,
      "associated": 9201,
      "2009": 9202,
      "facilities": 9203,
      "cross": 9204,
      "reven": 9205,
      "test": 9206,
      "##oph": 9207,
      "mal": 9208,
      "##iting": 9209,
      "event": 9210,
      "po": 9211,
      "mor": 9212,
      "opportunity": 9213,
      "august": 9214,
      "serious": 9215,
      "threat": 9216,
      "island": 9217,
      "exerc": 9218,
      "##anced": 9219,
      "##uge": 9220,
      "interp": 9221,
      "1996": 9222,
      "clo": 9223,
      "participants": 9224,
      "larg": 9225,
      "quebec": 9226,
      "actions": 9227,
      "arch": 9228,
      "bodies": 9229,
      "commitment": 9230,
      "coordination": 9231,
      "##ery": 9232,
      "behalf": 9233,
      "freed": 9234,
      "needed": 9235,
      "expendit": 9236,
      "##tiveness": 9237,
      "weap": 9238,
      "continu": 9239,
      "might": 9240,
      "sent": 9241,
      "personnel": 9242,
      "##tish": 9243,
      "##overty": 9244,
      "requested": 9245,
      "poverty": 9246,
      ".)": 9247,
      "##ug": 9248,
      "get": 9249,
      "##ortion": 9250,
      "##has": 9251,
      "cho": 9252,
      "minor": 9253,
      "until": 9254,
      "simp": 9255,
      "collabor": 9256,
      "##……": 9257,
      "dri": 9258,
      "basic": 9259,
      "challenges": 9260,
      "tur": 9261,
      "mandate": 9262,
      "harm": 9263,
      "rapporte": 9264,
      "description": 9265,
      "05": 9266,
      "bord": 9267,
      "conclud": 9268,
      "light": 9269,
      "paid": 9270,
      "sugg": 9271,
      "##anch": 9272,
      "priorities": 9273,
      "source": 9274,
      "african": 9275,
      "internet": 9276,
      "lack": 9277,
      "character": 9278,
      "fre": 9279,
      "prevent": 9280,
      "russ": 9281,
      "mail": 9282,
      "experi": 9283,
      "regions": 9284,
      "upd": 9285,
      "##abilities": 9286,
      "clim": 9287,
      "##de": 9288,
      "enti": 9289,
      "33": 9290,
      "contained": 9291,
      "relationship": 9292,
      "##rab": 9293,
      "##isms": 9294,
      "##ify": 9295,
      "conclusion": 9296,
      "arg": 9297,
      "adoption": 9298,
      "either": 9299,
      "infrastructure": 9300,
      "understanding": 9301,
      "issued": 9302,
      "british": 9303,
      "called": 9304,
      "separ": 9305,
      "space": 9306,
      "##ink": 9307,
      "##xic": 9308,
      "##lemen": 9309,
      "##umb": 9310,
      "body": 9311,
      "crime": 9312,
      "industrial": 9313,
      "exchange": 9314,
      "##ogue": 9315,
      "delivery": 9316,
      "##ways": 9317,
      "reduction": 9318,
      "single": 9319,
      "32": 9320,
      "##rate": 9321,
      "##ah": 9322,
      "begin": 9323,
      "forum": 9324,
      "##istan": 9325,
      "economy": 9326,
      "demonst": 9327,
      "win": 9328,
      "dial": 9329,
      "##ratic": 9330,
      "acqu": 9331,
      "45": 9332,
      "##itarian": 9333,
      "##ental": 9334,
      "abs": 9335,
      "fav": 9336,
      "processes": 9337,
      "statistics": 9338,
      "proposals": 9339,
      "##gn": 9340,
      "hiv": 9341,
      "emphas": 9342,
      "search": 9343,
      "carry": 9344,
      "resource": 9345,
      "max": 9346,
      "constitution": 9347,
      "german": 9348,
      "06": 9349,
      "##tawa": 9350,
      "stake": 9351,
      "city": 9352,
      "emission": 9353,
      "defence": 9354,
      "complete": 9355,
      "volun": 9356,
      "ottawa": 9357,
      "average": 9358,
      "##he": 9359,
      "applications": 9360,
      "terrorism": 9361,
      "ministry": 9362,
      "fig": 9363,
      "matters": 9364,
      "paper": 9365,
      "enforce": 9366,
      "presented": 9367,
      "institute": 9368,
      "accept": 9369,
      "notice": 9370,
      "##esting": 9371,
      "bur": 9372,
      "rati": 9373,
      "essential": 9374,
      "##ulated": 9375,
      "him": 9376,
      "jur": 9377,
      "factors": 9378,
      "caus": 9379,
      "entitled": 9380,
      "carried": 9381,
      "strategies": 9382,
      "forward": 9383,
      "writ": 9384,
      "hos": 9385,
      "requests": 9386,
      "want": 9387,
      "king": 9388,
      "humanitarian": 9389,
      "done": 9390,
      "iii": 9391,
      "objective": 9392,
      "letter": 9393,
      "##unch": 9394,
      "criteria": 9395,
      "##ih": 9396,
      "insurance": 9397,
      "hon": 9398,
      "intell": 9399,
      "competition": 9400,
      "occur": 9401,
      "supply": 9402,
      "##eping": 9403,
      "den": 9404,
      "distribution": 9405,
      "integrated": 9406,
      "restric": 9407,
      "guaran": 9408,
      "operational": 9409,
      "reduce": 9410,
      "##ark": 9411,
      "famil": 9412,
      "financing": 9413,
      "##reg": 9414,
      "mid": 9415,
      "climate": 9416,
      "goals": 9417,
      "visit": 9418,
      "obligations": 9419,
      "consequ": 9420,
      "culture": 9421,
      "satis": 9422,
      "mus": 9423,
      "isra": 9424,
      "satisf": 9425,
      "##ically": 9426,
      "east": 9427,
      "israel": 9428,
      "struct": 9429,
      "employee": 9430,
      "##erve": 9431,
      "chem": 9432,
      "departments": 9433,
      "principle": 9434,
      "summary": 9435,
      "democratic": 9436,
      "bring": 9437,
      "scientific": 9438,
      "55": 9439,
      "##pl": 9440,
      "...": 9441,
      "resid": 9442,
      "addressed": 9443,
      "##by": 9444,
      "chapter": 9445,
      "once": 9446,
      "##ibilities": 9447,
      "subsection": 9448,
      "gas": 9449,
      "expressed": 9450,
      "concerns": 9451,
      "equal": 9452,
      "electronic": 9453,
      "events": 9454,
      "sources": 9455,
      "gener": 9456,
      "conduct": 9457,
      "version": 9458,
      "successful": 9459,
      "rapporteur": 9460,
      "##int": 9461,
      "living": 9462,
      "advisory": 9463,
      "hy": 9464,
      "aids": 9465,
      "deliver": 9466,
      "##oy": 9467,
      "compet": 9468,
      "near": 9469,
      "languages": 9470,
      "english": 9471,
      "36": 9472,
      "anti": 9473,
      "materials": 9474,
      "loss": 9475,
      "elim": 9476,
      "applicable": 9477,
      "copy": 9478,
      "students": 9479,
      "pales": 9480,
      "pack": 9481,
      "applied": 9482,
      "adequ": 9483,
      "palestin": 9484,
      "notes": 9485,
      "articles": 9486,
      "##ipp": 9487,
      "northern": 9488,
      "difficult": 9489,
      "former": 9490,
      "regulatory": 9491,
      "##eries": 9492,
      "pros": 9493,
      "stre": 9494,
      "primary": 9495,
      "aust": 9496,
      "##abit": 9497,
      "comments": 9498,
      "science": 9499,
      "values": 9500,
      "farm": 9501,
      "##osition": 9502,
      "identify": 9503,
      "wide": 9504,
      "alle": 9505,
      "trust": 9506,
      "circum": 9507,
      "independent": 9508,
      "positive": 9509,
      "around": 9510,
      "points": 9511,
      "america": 9512,
      "enhance": 9513,
      "mention": 9514,
      "experts": 9515,
      "lat": 9516,
      "directly": 9517,
      "whole": 9518,
      "rural": 9519,
      "##ervation": 9520,
      "##use": 9521,
      "##________________": 9522,
      "1995": 9523,
      "conducted": 9524,
      "##xim": 9525,
      "recommendation": 9526,
      "sites": 9527,
      "outside": 9528,
      ")(": 9529,
      "credit": 9530,
      "territory": 9531,
      "ri": 9532,
      "learning": 9533,
      "branch": 9534,
      "prec": 9535,
      "##aster": 9536,
      "throughout": 9537,
      "determine": 9538,
      "refuge": 9539,
      "##areness": 9540,
      "##ides": 9541,
      "awareness": 9542,
      "##ring": 9543,
      "news": 9544,
      "panel": 9545,
      "aspects": 9546,
      "##uter": 9547,
      "samp": 9548,
      "##mon": 9549,
      "41": 9550,
      "consultation": 9551,
      "active": 9552,
      "##oh": 9553,
      "week": 9554,
      "norm": 9555,
      "alloc": 9556,
      "laws": 9557,
      "amendments": 9558,
      "consultations": 9559,
      "fall": 9560,
      "clos": 9561,
      "discl": 9562,
      "hours": 9563,
      "--": 9564,
      "teach": 9565,
      "content": 9566,
      "immedi": 9567,
      "bul": 9568,
      "##going": 9569,
      "juris": 9570,
      "34": 9571,
      "##holders": 9572,
      "vote": 9573,
      "registration": 9574,
      "designed": 9575,
      "announ": 9576,
      "##na": 9577,
      "cr": 9578,
      "calc": 9579,
      "##uel": 9580,
      "dialogue": 9581,
      "ord": 9582,
      "##cer": 9583,
      "export": 9584,
      "##of": 9585,
      "limit": 9586,
      "payment": 9587,
      "inj": 9588,
      "corporation": 9589,
      "receive": 9590,
      "evalu": 9591,
      "##arily": 9592,
      "create": 9593,
      "custom": 9594,
      "approval": 9595,
      "likely": 9596,
      "influ": 9597,
      "structure": 9598,
      "transportation": 9599,
      "yet": 9600,
      "##oid": 9601,
      "ill": 9602,
      "france": 9603,
      "##ables": 9604,
      "rac": 9605,
      "come": 9606,
      "exist": 9607,
      "technologies": 9608,
      "##aps": 9609,
      "decided": 9610,
      "##ension": 9611,
      "incor": 9612,
      "stated": 9613,
      "along": 9614,
      "known": 9615,
      "methods": 9616,
      "90": 9617,
      "##----": 9618,
      "interests": 9619,
      "american": 9620,
      "gl": 9621,
      "funda": 9622,
      "rather": 9623,
      "contribute": 9624,
      "indicated": 9625,
      "##ique": 9626,
      "province": 9627,
      "charter": 9628,
      "##aw": 9629,
      "lower": 9630,
      "fle": 9631,
      "mob": 9632,
      "stress": 9633,
      "weapons": 9634,
      "undertak": 9635,
      "##hop": 9636,
      "##be": 9637,
      "ce": 9638,
      "elig": 9639,
      "##rup": 9640,
      "supported": 9641,
      "committed": 9642,
      "##ennium": 9643,
      "mechanisms": 9644,
      "extern": 9645,
      "completed": 9646,
      "chief": 9647,
      "##aged": 9648,
      "selection": 9649,
      "tour": 9650,
      "##acts": 9651,
      "fair": 9652,
      "webs": 9653,
      "circumst": 9654,
      "##elves": 9655,
      "##ps": 9656,
      "##oles": 9657,
      "west": 9658,
      "enforcement": 9659,
      "##ene": 9660,
      "arab": 9661,
      "##ones": 9662,
      "situ": 9663,
      "instruments": 9664,
      "governmental": 9665,
      "##lementing": 9666,
      "concent": 9667,
      "##ients": 9668,
      "skills": 9669,
      "protect": 9670,
      "compens": 9671,
      "iv": 9672,
      "##elling": 9673,
      "price": 9674,
      "tri": 9675,
      "immig": 9676,
      "pension": 9677,
      "##oming": 9678,
      "statements": 9679,
      "construction": 9680,
      "##ense": 9681,
      "##her": 9682,
      "dam": 9683,
      "conven": 9684,
      "rail": 9685,
      "##enous": 9686,
      "##orial": 9687,
      "ministers": 9688,
      "appoint": 9689,
      "took": 9690,
      "07": 9691,
      "task": 9692,
      "renew": 9693,
      "close": 9694,
      "bure": 9695,
      "agriculture": 9696,
      "tor": 9697,
      "say": 9698,
      "##bs": 9699,
      "\".": 9700,
      "##lan": 9701,
      "external": 9702,
      "workshop": 9703,
      "file": 9704,
      "wes": 9705,
      "##tees": 9706,
      "ic": 9707,
      "37": 9708,
      "submission": 9709,
      "rom": 9710,
      "##rary": 9711,
      "suf": 9712,
      "too": 9713,
      "##dom": 9714,
      "extent": 9715,
      "affected": 9716,
      "elements": 9717,
      "ensuring": 9718,
      "hous": 9719,
      "##ging": 9720,
      "operating": 9721,
      "integration": 9722,
      "tools": 9723,
      "42": 9724,
      "mic": 9725,
      "circumstances": 9726,
      "chemical": 9727,
      "guide": 9728,
      "jurisdic": 9729,
      "##ler": 9730,
      "##tional": 9731,
      "traditional": 9732,
      "permit": 9733,
      "##ume": 9734,
      "manner": 9735,
      "ide": 9736,
      "approxim": 9737,
      "institutional": 9738,
      "china": 9739,
      "defined": 9740,
      "##cra": 9741,
      "cn": 9742,
      "anim": 9743,
      "sectors": 9744,
      "strengthening": 9745,
      "payments": 9746,
      "complex": 9747,
      "histor": 9748,
      "##itage": 9749,
      "adjust": 9750,
      "##ght": 9751,
      "##olid": 9752,
      "implementing": 9753,
      "reasons": 9754,
      "##ficiency": 9755,
      "chec": 9756,
      "##bo": 9757,
      "purch": 9758,
      "counter": 9759,
      "alber": 9760,
      "generally": 9761,
      "bir": 9762,
      "oil": 9763,
      "mont": 9764,
      "records": 9765,
      "believe": 9766,
      "speak": 9767,
      "indig": 9768,
      "minimum": 9769,
      "heritage": 9770,
      "stor": 9771,
      "physical": 9772,
      "habit": 9773,
      "published": 9774,
      "##ipl": 9775,
      "fundamental": 9776,
      "fri": 9777,
      "etc": 9778,
      "implemented": 9779,
      "##duce": 9780,
      "##istic": 9781,
      "times": 9782,
      "peoples": 9783,
      "claims": 9784,
      "08": 9785,
      "though": 9786,
      "##ik": 9787,
      "columb": 9788,
      "enterpr": 9789,
      "itself": 9790,
      "debate": 9791,
      "acts": 9792,
      "promoting": 9793,
      "incorpor": 9794,
      "56": 9795,
      "described": 9796,
      "forest": 9797,
      "judic": 9798,
      "art": 9799,
      "##ung": 9800,
      "officers": 9801,
      "displ": 9802,
      "##active": 9803,
      "1994": 9804,
      "indigenous": 9805,
      "cris": 9806,
      "links": 9807,
      "99": 9808,
      "38": 9809,
      "families": 9810,
      "never": 9811,
      "modern": 9812,
      "recall": 9813,
      "recommended": 9814,
      "launch": 9815,
      "##tific": 9816,
      "stakeholders": 9817,
      "responsibilities": 9818,
      "tele": 9819,
      "##edic": 9820,
      "why": 9821,
      "exercise": 9822,
      "determined": 9823,
      "vir": 9824,
      "fa": 9825,
      "pati": 9826,
      "clearly": 9827,
      "scope": 9828,
      "phot": 9829,
      "located": 9830,
      "death": 9831,
      "fisheries": 9832,
      "parts": 9833,
      "95": 9834,
      "er": 9835,
      "applicant": 9836,
      "sens": 9837,
      "corre": 9838,
      "arrangements": 9839,
      "sea": 9840,
      "territories": 9841,
      "base": 9842,
      "steps": 9843,
      "dou": 9844,
      "columbia": 9845,
      "##unicip": 9846,
      "##omin": 9847,
      "1990": 9848,
      "##ival": 9849,
      "cell": 9850,
      "municip": 9851,
      "run": 9852,
      "confir": 9853,
      "billion": 9854,
      "##ulations": 9855,
      "##ourn": 9856,
      "unf": 9857,
      "##ont": 9858,
      "informed": 9859,
      ",\"": 9860,
      "western": 9861,
      "59": 9862,
      "emergency": 9863,
      "facilitate": 9864,
      "negotiations": 9865,
      "history": 9866,
      "susp": 9867,
      "hosp": 9868,
      "types": 9869,
      "39": 9870,
      "critical": 9871,
      "##orks": 9872,
      "relig": 9873,
      "dated": 9874,
      "requires": 9875,
      "markets": 9876,
      "##ground": 9877,
      "prohib": 9878,
      "created": 9879,
      "ira": 9880,
      "neg": 9881,
      "58": 9882,
      "subsequ": 9883,
      "##ipo": 9884,
      "legislative": 9885,
      "organized": 9886,
      "poll": 9887,
      "pd": 9888,
      "der": 9889,
      "phase": 9890,
      "assign": 9891,
      "44": 9892,
      "##ania": 9893,
      "border": 9894,
      "definition": 9895,
      "series": 9896,
      "##ai": 9897,
      "chairman": 9898,
      "proceedings": 9899,
      "offices": 9900,
      "nation": 9901,
      "mass": 9902,
      "senior": 9903,
      "ep": 9904,
      "commitments": 9905,
      "prosec": 9906,
      "cro": 9907,
      "money": 9908,
      "participate": 9909,
      "intended": 9910,
      "##orn": 9911,
      "tit": 9912,
      "resolutions": 9913,
      "agricultural": 9914,
      "ongoing": 9915,
      "views": 9916,
      "##enses": 9917,
      "57": 9918,
      "vehicle": 9919,
      "advance": 9920,
      "excell": 9921,
      "drugs": 9922,
      "##oral": 9923,
      "governance": 9924,
      "bureau": 9925,
      "customs": 9926,
      "creation": 9927,
      "flow": 9928,
      "engine": 9929,
      "enj": 9930,
      "signed": 9931,
      "htm": 9932,
      "75": 9933,
      "ps": 9934,
      "flo": 9935,
      "##ank": 9936,
      "mer": 9937,
      "##erous": 9938,
      "fo": 9939,
      "improving": 9940,
      "website": 9941,
      "asked": 9942,
      "subsid": 9943,
      "kingdom": 9944,
      "transpar": 9945,
      "adap": 9946,
      "51": 9947,
      "centres": 9948,
      "smo": 9949,
      "##ament": 9950,
      "freedom": 9951,
      "maximum": 9952,
      "sett": 9953,
      "whose": 9954,
      "patent": 9955,
      "log": 9956,
      "later": 9957,
      "items": 9958,
      "improved": 9959,
      "encourage": 9960,
      "##ensus": 9961,
      "##tims": 9962,
      "detailed": 9963,
      "avoid": 9964,
      "equality": 9965,
      "euro": 9966,
      "uk": 9967,
      "ital": 9968,
      "ways": 9969,
      "victims": 9970,
      "release": 9971,
      "corporate": 9972,
      "size": 9973,
      "##ese": 9974,
      "award": 9975,
      "superv": 9976,
      "deg": 9977,
      "favour": 9978,
      "%)": 9979,
      "accomp": 9980,
      "specified": 9981,
      "host": 9982,
      "ability": 9983,
      "vac": 9984,
      "70": 9985,
      "\",": 9986,
      "effectiveness": 9987,
      "river": 9988,
      "##resp": 9989,
      "##aces": 9990,
      "09": 9991,
      "always": 9992,
      "mainten": 9993,
      "##avi": 9994,
      "wid": 9995,
      "finance": 9996,
      "rap": 9997,
      "48": 9998,
      "follows": 9999,
      "planned": 10000,
      "disease": 10001,
      "start": 10002,
      "43": 10003,
      "registered": 10004,
      "joh": 10005,
      "green": 10006,
      "achieved": 10007,
      "written": 10008,
      "informal": 10009,
      "##overy": 10010,
      "##asting": 10011,
      "49": 10012,
      "setting": 10013,
      "maintenance": 10014,
      "##ls": 10015,
      "bil": 10016,
      "rein": 10017,
      "armed": 10018,
      "scre": 10019,
      "location": 10020,
      "revenue": 10021,
      "officials": 10022,
      "##itable": 10023,
      "mess": 10024,
      "196": 10025,
      "##lier": 10026,
      "##ma": 10027,
      "collection": 10028,
      "leave": 10029,
      "##20": 10030,
      "approximately": 10031,
      "turn": 10032,
      "80": 10033,
      "consistent": 10034,
      "iraq": 10035,
      "emissions": 10036,
      "frequ": 10037,
      "excep": 10038,
      "##rant": 10039,
      "election": 10040,
      "added": 10041,
      "wipo": 10042,
      "schedule": 10043,
      "depend": 10044,
      "##tial": 10045,
      "innovation": 10046,
      "emb": 10047,
      "educational": 10048,
      "jap": 10049,
      "licence": 10050,
      "poor": 10051,
      "schools": 10052,
      "adequate": 10053,
      "balance": 10054,
      "gain": 10055,
      "debt": 10056,
      "##bon": 10057,
      "journ": 10058,
      "initial": 10059,
      "##hol": 10060,
      "longer": 10061,
      "thems": 10062,
      "answ": 10063,
      "waste": 10064,
      "themselves": 10065,
      "depos": 10066,
      "##gan": 10067,
      "append": 10068,
      "fisc": 10069,
      "assets": 10070,
      "alberta": 10071,
      "##yst": 10072,
      "fax": 10073,
      "supporting": 10074,
      "##ctions": 10075,
      "link": 10076,
      "majority": 10077,
      "mentioned": 10078,
      "##yn": 10079,
      "supplement": 10080,
      "mill": 10081,
      "japan": 10082,
      "##ulate": 10083,
      "##orary": 10084,
      "colle": 10085,
      "##tified": 10086,
      "recognized": 10087,
      "words": 10088,
      "##rought": 10089,
      "fiscal": 10090,
      "indicators": 10091,
      "introduction": 10092,
      "estimated": 10093,
      "brief": 10094,
      "##ha": 10095,
      "soft": 10096,
      "##lim": 10097,
      "les": 10098,
      "##let": 10099,
      "amb": 10100,
      "##enced": 10101,
      "explain": 10102,
      "move": 10103,
      "##ired": 10104,
      "clar": 10105,
      "##ware": 10106,
      "led": 10107,
      "outcome": 10108,
      "relation": 10109,
      "urban": 10110,
      "enable": 10111,
      "draw": 10112,
      "##bour": 10113,
      "harmon": 10114,
      "preparation": 10115,
      "investigation": 10116,
      "tal": 10117,
      "mag": 10118,
      "details": 10119,
      "sexual": 10120,
      "presid": 10121,
      "cle": 10122,
      "##lantic": 10123,
      "”.": 10124,
      "index": 10125,
      "##craft": 10126,
      "original": 10127,
      "expand": 10128,
      "dest": 10129,
      "undertaken": 10130,
      "##loyment": 10131,
      "##ze": 10132,
      "radio": 10133,
      "russian": 10134,
      "sales": 10135,
      "##ude": 10136,
      "##most": 10137,
      "feed": 10138,
      "effort": 10139,
      "##ana": 10140,
      "##zer": 10141,
      "tari": 10142,
      "consumer": 10143,
      "disclosure": 10144,
      "park": 10145,
      "broadc": 10146,
      "##iter": 10147,
      "##know": 10148,
      "expert": 10149,
      "oce": 10150,
      "produced": 10151,
      "tariff": 10152,
      "grad": 10153,
      "##tity": 10154,
      "##tise": 10155,
      "500": 10156,
      "cd": 10157,
      "micro": 10158,
      "requirement": 10159,
      "deputy": 10160,
      "cyc": 10161,
      "remains": 10162,
      "transl": 10163,
      "advice": 10164,
      "teleph": 10165,
      "reserv": 10166,
      "covered": 10167,
      "actual": 10168,
      "germany": 10169,
      "revised": 10170,
      "aimed": 10171,
      "territorial": 10172,
      "exceed": 10173,
      "##crib": 10174,
      "fire": 10175,
      "##ruit": 10176,
      "##mes": 10177,
      "47": 10178,
      "datab": 10179,
      "##izes": 10180,
      "medic": 10181,
      "think": 10182,
      "compensation": 10183,
      "##actions": 10184,
      "##uk": 10185,
      "alternative": 10186,
      "##ece": 10187,
      "##arters": 10188,
      "##lies": 10189,
      "establishing": 10190,
      "couns": 10191,
      "calls": 10192,
      "stage": 10193,
      "compared": 10194,
      "dim": 10195,
      "risks": 10196,
      "ip": 10197,
      "##gen": 10198,
      "desp": 10199,
      "entry": 10200,
      "##wh": 10201,
      "substances": 10202,
      "users": 10203,
      "54": 10204,
      "fourth": 10205,
      "summit": 10206,
      "expenses": 10207,
      "publications": 10208,
      "takes": 10209,
      "scale": 10210,
      "hard": 10211,
      "hyd": 10212,
      "leadership": 10213,
      "aircraft": 10214,
      "decre": 10215,
      "62": 10216,
      "96": 10217,
      "mc": 10218,
      "mut": 10219,
      "peaceke": 10220,
      "half": 10221,
      "valid": 10222,
      "install": 10223,
      "round": 10224,
      "palestinian": 10225,
      "estimates": 10226,
      "##ae": 10227,
      "discussions": 10228,
      "functions": 10229,
      "guidance": 10230,
      "##umption": 10231,
      "appendix": 10232,
      "46": 10233,
      "##onto": 10234,
      "pil": 10235,
      "formal": 10236,
      "##ites": 10237,
      "reduced": 10238,
      "penal": 10239,
      "accep": 10240,
      "enjoy": 10241,
      "interpret": 10242,
      "lake": 10243,
      "shown": 10244,
      "pac": 10245,
      "##tary": 10246,
      "entire": 10247,
      "marine": 10248,
      "##gment": 10249,
      "mechanism": 10250,
      "cc": 10251,
      "atlantic": 10252,
      "introduced": 10253,
      "cause": 10254,
      "fulf": 10255,
      "dig": 10256,
      "connection": 10257,
      "##inces": 10258,
      "63": 10259,
      "little": 10260,
      "housing": 10261,
      "movement": 10262,
      "doll": 10263,
      "sound": 10264,
      "##eless": 10265,
      "crisis": 10266,
      "cat": 10267,
      "##illed": 10268,
      "publication": 10269,
      "##lands": 10270,
      "efficiency": 10271,
      "effectively": 10272,
      "##nes": 10273,
      "##ux": 10274,
      "ethn": 10275,
      "positions": 10276,
      "processing": 10277,
      "privacy": 10278,
      "intellect": 10279,
      "distric": 10280,
      "toronto": 10281,
      "finally": 10282,
      "autom": 10283,
      "provinces": 10284,
      "##ives": 10285,
      "##put": 10286,
      "##atures": 10287,
      "amended": 10288,
      "disarm": 10289,
      "habitat": 10290,
      "combat": 10291,
      "pdf": 10292,
      "##01": 10293,
      "background": 10294,
      "sufficient": 10295,
      "##more": 10296,
      "eligible": 10297,
      "##rain": 10298,
      "expect": 10299,
      "goal": 10300,
      "elections": 10301,
      "partnerships": 10302,
      "53": 10303,
      "mrs": 10304,
      "target": 10305,
      "vehicles": 10306,
      "trafficking": 10307,
      "##pa": 10308,
      "appell": 10309,
      "##aign": 10310,
      "afgh": 10311,
      "trac": 10312,
      "vul": 10313,
      "##ert": 10314,
      "##atively": 10315,
      "##mpt": 10316,
      "telephone": 10317,
      "intellectual": 10318,
      "util": 10319,
      "federation": 10320,
      "duty": 10321,
      "exemp": 10322,
      "useful": 10323,
      "campaign": 10324,
      "##ques": 10325,
      "certific": 10326,
      "recovery": 10327,
      "lt": 10328,
      "collaboration": 10329,
      "##ley": 10330,
      "prices": 10331,
      "peacekeeping": 10332,
      "##rad": 10333,
      "extre": 10334,
      "join": 10335,
      "prem": 10336,
      "arms": 10337,
      "conv": 10338,
      "apprec": 10339,
      "municipal": 10340,
      "quan": 10341,
      "##gar": 10342,
      "ship": 10343,
      "keep": 10344,
      "recently": 10345,
      "exhib": 10346,
      "##ions": 10347,
      "##enge": 10348,
      "category": 10349,
      "##rid": 10350,
      "clin": 10351,
      "break": 10352,
      "##ights": 10353,
      "##ding": 10354,
      "candidates": 10355,
      "##tivity": 10356,
      "highl": 10357,
      "##ixed": 10358,
      "john": 10359,
      "persp": 10360,
      "1993": 10361,
      "disarmament": 10362,
      "judicial": 10363,
      "##va": 10364,
      "computer": 10365,
      "sask": 10366,
      "offers": 10367,
      "contracting": 10368,
      "85": 10369,
      "accountability": 10370,
      "obtained": 10371,
      "52": 10372,
      "fem": 10373,
      "iden": 10374,
      "arm": 10375,
      "bey": 10376,
      "afghan": 10377,
      "je": 10378,
      "delegations": 10379,
      "mil": 10380,
      "discussed": 10381,
      "regim": 10382,
      "##racy": 10383,
      "cooper": 10384,
      "listed": 10385,
      "core": 10386,
      "dur": 10387,
      "condition": 10388,
      "concept": 10389,
      "mem": 10390,
      "##lor": 10391,
      "component": 10392,
      "beyond": 10393,
      "makes": 10394,
      "##uting": 10395,
      "”,": 10396,
      "challenge": 10397,
      "paragraphs": 10398,
      "cha": 10399,
      "##amic": 10400,
      "##ox": 10401,
      "determination": 10402,
      "vulner": 10403,
      "65": 10404,
      "despite": 10405,
      "##yal": 10406,
      "##respond": 10407,
      "multil": 10408,
      "correspond": 10409,
      "live": 10410,
      "attach": 10411,
      "units": 10412,
      "##cs": 10413,
      "##licit": 10414,
      "interview": 10415,
      "behavi": 10416,
[...]
