{
  "version": "1.0",
  "truncation": null,
  "padding": null,
  "added_tokens": [
    {
      "id": 0,
      "content": "[PAD]",
      "single_word": false,
      "lstrip": false,
      "rstrip": false,
      "normalized": false,
      "special": true
    },
    {
      "id": 1,
      "content": "[BOS]",
      "single_word": false,
      "lstrip": false,
      "rstrip": false,
      "normalized": false,
      "special": true
    },
    {
      "id": 2,
      "content": "[EOS]",
      "single_word": false,
      "lstrip": false,
      "rstrip": false,
      "normalized": false,
      "special": true
    },
    {
      "id": 3,
      "content": "[UNK]",
      "single_word": false,
      "lstrip": false,
      "rstrip": false,
      "normalized": false,
      "special": true
    }
  ],
  "normalizer": {
    "type": "Sequence",
    "normalizers": [
      {
        "type": "NFC"
      },
      {
        "type": "Lowercase"
      }
    ]
  },
  "pre_tokenizer": {
    "type": "Whitespace"
  },
  "post_processor": null,
  "decoder": null,
  "model": {
    "type": "WordPiece",
    "unk_token": "[UNK]",
    "continuing_subword_prefix": "##",
    "max_input_chars_per_word": 100,
    "vocab": {
      "[PAD]": 0,
      "[BOS]": 1,
      "[EOS]": 2,
      "[UNK]": 3,
      "\u0001": 4,
      "\u0002": 5,
      "\u0003": 6,
      "\u0004": 7,
      "\u0005": 8,
      "\u0006": 9,
      "\u0007": 10,
      "\b": 11,
      "\u000e": 12,
      "\u000f": 13,
      "\u0010": 14,
      "\u0011": 15,
      "\u0012": 16,
      "\u0013": 17,
      "\u0014": 18,
      "\u0015": 19,
      "\u0016": 20,
      "\u0017": 21,
      "\u0018": 22,
      "\u0019": 23,
      "\u001a": 24,
      "\u001b": 25,
      "\u001c": 26,
      "\u001d": 27,
      "\u001e": 28,
      "\u001f": 29,
      "!": 30,
      "\"": 31,
      "#": 32,
      "$": 33,
      "%": 34,
      "&": 35,
      "'": 36,
      "(": 37,
      ")": 38,
      "*": 39,
      "+": 40,
      ",": 41,
      "-": 42,
      ".": 43,
      "/": 44,
      "0": 45,
      "1": 46,
      "2": 47,
      "3": 48,
      "4": 49,
      "5": 50,
      "6": 51,
      "7": 52,
      "8": 53,
      "9": 54,
      ":": 55,
      ";": 56,
      "<": 57,
      "=": 58,
      ">": 59,
      "?": 60,
      "@": 61,
      "[": 62,
      "\\": 63,
      "]": 64,
      "^": 65,
      "_": 66,
      "`": 67,
      "a": 68,
      "b": 69,
      "c": 70,
      "d": 71,
      "e": 72,
      "f": 73,
      "g": 74,
      "h": 75,
      "i": 76,
      "j": 77,
      "k": 78,
      "l": 79,
      "m": 80,
      "n": 81,
      "o": 82,
      "p": 83,
      "q": 84,
      "r": 85,
      "s": 86,
      "t": 87,
      "u": 88,
      "v": 89,
      "w": 90,
      "x": 91,
      "y": 92,
      "z": 93,
      "{": 94,
      "|": 95,
      "}": 96,
      "~": 97,
      "": 98,
      "": 99,
      "": 100,
      "": 101,
      "": 102,
      "": 103,
      "": 104,
      "": 105,
      "": 106,
      "": 107,
      "": 108,
      "": 109,
      "": 110,
      "": 111,
      "": 112,
      "": 113,
      "": 114,
      "": 115,
      "": 116,
      "": 117,
      "": 118,
      "": 119,
      "": 120,
      "": 121,
      "": 122,
      "": 123,
      "": 124,
      "": 125,
      "": 126,
      "": 127,
      "": 128,
      "": 129,
      "¡": 130,
      "¢": 131,
      "£": 132,
      "¤": 133,
      "¥": 134,
      "¦": 135,
      "§": 136,
      "¨": 137,
      "©": 138,
      "ª": 139,
      "«": 140,
      "¬": 141,
      "­": 142,
      "®": 143,
      "¯": 144,
      "°": 145,
      "±": 146,
      "²": 147,
      "³": 148,
      "´": 149,
      "µ": 150,
      "¶": 151,
      "·": 152,
      "¸": 153,
      "¹": 154,
      "º": 155,
      "»": 156,
      "¼": 157,
      "½": 158,
      "¾": 159,
      "¿": 160,
      "×": 161,
      "ß": 162,
      "à": 163,
      "á": 164,
      "â": 165,
      "ã": 166,
      "ä": 167,
      "å": 168,
      "æ": 169,
      "ç": 170,
      "è": 171,
      "é": 172,
      "ê": 173,
      "ë": 174,
      "ì": 175,
      "í": 176,
      "î": 177,
      "ï": 178,
      "ð": 179,
      "ñ": 180,
      "ò": 181,
      "ó": 182,
      "ô": 183,
      "õ": 184,
      "ö": 185,
      "÷": 186,
      "ø": 187,
      "ù": 188,
      "ú": 189,
      "û": 190,
      "ü": 191,
      "ý": 192,
      "þ": 193,
      "ÿ": 194,
      "ā": 195,
      "ă": 196,
      "ą": 197,
      "ć": 198,
      "ĉ": 199,
      "ċ": 200,
      "č": 201,
      "ď": 202,
      "đ": 203,
      "ē": 204,
      "ĕ": 205,
      "ė": 206,
      "ę": 207,
      "ě": 208,
      "ĝ": 209,
      "ğ": 210,
      "ġ": 211,
      "ģ": 212,
      "ĥ": 213,
      "ħ": 214,
      "ĩ": 215,
      "ī": 216,
      "ĭ": 217,
      "į": 218,
      "ı": 219,
      "ĳ": 220,
      "ĵ": 221,
      "ķ": 222,
      "ĸ": 223,
      "ĺ": 224,
      "ļ": 225,
      "ľ": 226,
      "ŀ": 227,
      "ł": 228,
      "ń": 229,
      "ņ": 230,
      "ň": 231,
      "ŋ": 232,
      "ō": 233,
      "ŏ": 234,
      "ő": 235,
      "œ": 236,
      "ŕ": 237,
      "ř": 238,
      "ś": 239,
      "ŝ": 240,
      "ş": 241,
      "š": 242,
      "ţ": 243,
      "ť": 244,
      "ŧ": 245,
      "ũ": 246,
      "ū": 247,
      "ŭ": 248,
      "ů": 249,
      "ű": 250,
      "ų": 251,
      "ŵ": 252,
      "ŷ": 253,
      "ź": 254,
      "ż": 255,
      "ž": 256,
      "ƅ": 257,
      "ƒ": 258,
      "ƙ": 259,
      "ƚ": 260,
      "ơ": 261,
      "ƣ": 262,
      "ư": 263,
      "ƴ": 264,
      "ƶ": 265,
      "ƹ": 266,
      "ƽ": 267,
      "ǌ": 268,
      "ǎ": 269,
      "ǐ": 270,
      "ǒ": 271,
      "ǔ": 272,
      "ǖ": 273,
      "ǘ": 274,
      "ǜ": 275,
      "ǧ": 276,
      "ǫ": 277,
      "ǯ": 278,
      "ǰ": 279,
      "ǹ": 280,
      "ǻ": 281,
      "ǽ": 282,
      "ǿ": 283,
      "ȅ": 284,
      "ȇ": 285,
      "ȏ": 286,
      "ȗ": 287,
      "ș": 288,
      "ț": 289,
      "ȣ": 290,
      "ȩ": 291,
      "ȫ": 292,
      "ȷ": 293,
      "ȸ": 294,
      "ȹ": 295,
      "ɂ": 296,
      "ɐ": 297,
      "ɑ": 298,
      "ɓ": 299,
      "ɔ": 300,
      "ɗ": 301,
      "ə": 302,
      "ɚ": 303,
      "ɛ": 304,
      "ɠ": 305,
      "ɣ": 306,
      "ɨ": 307,
      "ɪ": 308,
      "ɲ": 309,
      "ɳ": 310,
      "ɵ": 311,
      "ɶ": 312,
      "ɷ": 313,
      "ɽ": 314,
      "ɾ": 315,
      "ʀ": 316,
      "ʁ": 317,
      "ʃ": 318,
      "ʊ": 319,
      "ʌ": 320,
      "ʒ": 321,
      "ʔ": 322,
      "ʡ": 323,
      "ʢ": 324,
      "ʮ": 325,
      "ʰ": 326,
      "ʱ": 327,
      "ʳ": 328,
      "ʴ": 329,
      "ʵ": 330,
      "ʹ": 331,
      "ʺ": 332,
      "ʻ": 333,
      "ʼ": 334,
      "ʽ": 335,
      "ʾ": 336,
      "ʿ": 337,
      "ˆ": 338,
      "ˇ": 339,
      "ˈ": 340,
      "ː": 341,
      "˗": 342,
      "˘": 343,
      "˙": 344,
      "˚": 345,
      "˛": 346,
      "˜": 347,
      "˝": 348,
      "ˢ": 349,
      "ˮ": 350,
      "˲": 351,
      "˼": 352,
      "˽": 353,
      "˾": 354,
      "̀": 355,
      "́": 356,
      "̂": 357,
      "̃": 358,
      "̄": 359,
      "̆": 360,
      "̇": 361,
      "̊": 362,
      "̌": 363,
      "̍": 364,
      "̐": 365,
      "̤": 366,
      "̥": 367,
      "̨": 368,
      "̩": 369,
      "̱": 370,
      "̳": 371,
      "̵": 372,
      "̶": 373,
      "̸": 374,
      "̹": 375,
      "ͣ": 376,
      "ͨ": 377,
      "ͬ": 378,
      "ͳ": 379,
      "ͷ": 380,
      "ͺ": 381,
      "ͻ": 382,
      "ͼ": 383,
      "΄": 384,
      "ΐ": 385,
      "ά": 386,
      "έ": 387,
      "ή": 388,
      "ί": 389,
      "ΰ": 390,
      "α": 391,
      "β": 392,
      "γ": 393,
      "δ": 394,
      "ε": 395,
      "ζ": 396,
      "η": 397,
      "θ": 398,
      "ι": 399,
      "κ": 400,
      "λ": 401,
      "μ": 402,
      "ν": 403,
      "ξ": 404,
      "ο": 405,
      "π": 406,
      "ρ": 407,
      "ς": 408,
      "σ": 409,
      "τ": 410,
      "υ": 411,
      "φ": 412,
      "χ": 413,
      "ψ": 414,
      "ω": 415,
      "ϊ": 416,
      "ϋ": 417,
      "ό": 418,
      "ύ": 419,
      "ώ": 420,
      "ϑ": 421,
      "ϒ": 422,
      "ϕ": 423,
      "ϖ": 424,
      "ϣ": 425,
      "ϵ": 426,
      "ϸ": 427,
      "ϻ": 428,
      "а": 429,
      "б": 430,
      "в": 431,
      "г": 432,
      "д": 433,
      "е": 434,
      "ж": 435,
      "з": 436,
      "и": 437,
      "й": 438,
      "к": 439,
      "л": 440,
      "м": 441,
      "н": 442,
      "о": 443,
      "п": 444,
      "р": 445,
      "с": 446,
      "т": 447,
      "у": 448,
      "ф": 449,
      "х": 450,
      "ц": 451,
      "ч": 452,
      "ш": 453,
      "щ": 454,
      "ъ": 455,
      "ы": 456,
      "ь": 457,
      "э": 458,
      "ю": 459,
      "я": 460,
      "ё": 461,
      "ђ": 462,
      "ѓ": 463,
      "є": 464,
      "ѕ": 465,
      "і": 466,
      "ї": 467,
      "ј": 468,
      "љ": 469,
      "њ": 470,
      "ћ": 471,
      "ќ": 472,
      "ў": 473,
      "џ": 474,
      "ѥ": 475,
      "ѭ": 476,
      "ѯ": 477,
      "ѷ": 478,
      "ѹ": 479,
      "ґ": 480,
      "ғ": 481,
      "ҙ": 482,
      "қ": 483,
      "ҡ": 484,
      "ң": 485,
      "ҫ": 486,
      "ү": 487,
      "ұ": 488,
      "ҳ": 489,
      "ҵ": 490,
      "һ": 491,
      "ҽ": 492,
      "ә": 493,
      "ӡ": 494,
      "ӣ": 495,
      "ө": 496,
      "ӫ": 497,
      "ӭ": 498,
      "ӱ": 499,
      "ӵ": 500,
      "ӻ": 501,
      "ӿ": 502,
      "ԁ": 503,
      "ԡ": 504,
      "ԥ": 505,
      "ԭ": 506,
      "ա": 507,
      "բ": 508,
      "ժ": 509,
      "լ": 510,
      "խ": 511,
      "ձ": 512,
      "ղ": 513,
      "մ": 514,
      "չ": 515,
      "վ": 516,
      "֪": 517,
      "ֲ": 518,
      "ַ": 519,
      "ָ": 520,
      "ֹ": 521,
      "ֽ": 522,
      "־": 523,
      "ֿ": 524,
      "׀": 525,
      "א": 526,
      "ב": 527,
      "ג": 528,
      "ד": 529,
      "ה": 530,
      "ו": 531,
      "ז": 532,
      "ח": 533,
      "ט": 534,
      "י": 535,
      "ך": 536,
      "כ": 537,
      "ל": 538,
      "ם": 539,
      "מ": 540,
      "ן": 541,
      "נ": 542,
      "ס": 543,
      "ע": 544,
      "ף": 545,
      "פ": 546,
      "צ": 547,
      "ק": 548,
      "ר": 549,
      "ש": 550,
      "ת": 551,
      "׬": 552,
      "׳": 553,
      "״": 554,
      "׵": 555,
      "׼": 556,
      "،": 557,
      "؛": 558,
      "؟": 559,
      "ء": 560,
      "آ": 561,
      "أ": 562,
      "ؤ": 563,
      "إ": 564,
      "ئ": 565,
      "ا": 566,
      "ب": 567,
      "ة": 568,
      "ت": 569,
      "ث": 570,
      "ج": 571,
      "ح": 572,
      "خ": 573,
      "د": 574,
      "ذ": 575,
      "ر": 576,
      "ز": 577,
      "س": 578,
      "ش": 579,
      "ص": 580,
      "ض": 581,
      "ط": 582,
      "ظ": 583,
      "ع": 584,
      "غ": 585,
      "ـ": 586,
      "ف": 587,
      "ق": 588,
      "ك": 589,
      "ل": 590,
      "م": 591,
      "ن": 592,
      "ه": 593,
      "و": 594,
      "ى": 595,
      "ي": 596,
      "ً": 597,
      "َ": 598,
      "ُ": 599,
      "ِ": 600,
      "ّ": 601,
      "ْ": 602,
      "ٔ": 603,
      "٠": 604,
      "١": 605,
      "٢": 606,
      "٣": 607,
      "٤": 608,
      "٥": 609,
      "٦": 610,
      "٧": 611,
      "٨": 612,
      "٩": 613,
      "٭": 614,
      "ٱ": 615,
      "ٷ": 616,
      "پ": 617,
      "چ": 618,
      "ڈ": 619,
      "ژ": 620,
      "ڤ": 621,
      "ک": 622,
      "گ": 623,
      "ڱ": 624,
      "ڶ": 625,
      "ں": 626,
      "ھ": 627,
      "ہ": 628,
      "ی": 629,
      "ے": 630,
      "ۚ": 631,
      "ۡ": 632,
      "ۣ": 633,
      "۰": 634,
      "۱": 635,
      "۲": 636,
      "۳": 637,
      "۴": 638,
      "۵": 639,
      "۶": 640,
      "۸": 641,
      "۹": 642,
      "ۺ": 643,
      "ۿ": 644,
      "܌": 645,
      "ܡ": 646,
      "ܲ": 647,
      "ܵ": 648,
      "ݵ": 649,
      "ݸ": 650,
      "޺": 651,
      "߲": 652,
      "ߵ": 653,
      "߶": 654,
      "߷": 655,
      "߹": 656,
      "߻": 657,
      "ࠬ": 658,
      "ं": 659,
      "अ": 660,
      "आ": 661,
      "क": 662,
      "ग": 663,
      "छ": 664,
      "ज": 665,
      "ट": 666,
      "ण": 667,
      "त": 668,
      "थ": 669,
      "द": 670,
      "न": 671,
      "प": 672,
      "ब": 673,
      "म": 674,
      "य": 675,
      "र": 676,
      "ल": 677,
      "स": 678,
      "ह": 679,
      "ा": 680,
      "ि": 681,
      "ी": 682,
      "ू": 683,
      "ृ": 684,
      "े": 685,
      "ै": 686,
      "ो": 687,
      "्": 688,
      "ॐ": 689,
      "०": 690,
      "२": 691,
      "४": 692,
      "५": 693,
      "ঁ": 694,
      "আ": 695,
      "ক": 696,
      "দ": 697,
      "ম": 698,
      "য": 699,
      "র": 700,
      "ল": 701,
      "স": 702,
      "া": 703,
      "ু": 704,
      "ে": 705,
      "্": 706,
      "ૻ": 707,
      "୦": 708,
      "୧": 709,
      "୨": 710,
      "୫": 711,
      "୯": 712,
      "ಐ": 713,
      "ಯ": 714,
      "ರ": 715,
      "ವ": 716,
      "ಶ": 717,
      "ಾ": 718,
      "ೈ": 719,
      "್": 720,
      "೦": 721,
      "೧": 722,
      "೨": 723,
      "೪": 724,
      "೫": 725,
      "೭": 726,
      "೯": 727,
      "ം": 728,
      "ഋ": 729,
      "മ": 730,
      "യ": 731,
      "ല": 732,
      "ള": 733,
      "ാ": 734,
      "൅": 735,
      "ൺ": 736,
      "ก": 737,
      "ข": 738,
      "ค": 739,
      "ง": 740,
      "จ": 741,
      "ฉ": 742,
      "ช": 743,
      "ซ": 744,
      "ญ": 745,
      "ฏ": 746,
      "ณ": 747,
      "ด": 748,
      "ต": 749,
      "ถ": 750,
      "ท": 751,
      "ธ": 752,
      "น": 753,
      "บ": 754,
      "ป": 755,
      "ผ": 756,
      "ฝ": 757,
      "พ": 758,
      "ฟ": 759,
      "ภ": 760,
      "ม": 761,
      "ย": 762,
      "ร": 763,
      "ล": 764,
      "ว": 765,
      "ศ": 766,
      "ษ": 767,
      "ส": 768,
      "ห": 769,
      "อ": 770,
      "ะ": 771,
      "ั": 772,
      "า": 773,
      "ำ": 774,
      "ิ": 775,
      "ี": 776,
      "ึ": 777,
      "ื": 778,
      "ุ": 779,
      "ู": 780,
      "เ": 781,
      "แ": 782,
      "โ": 783,
      "ใ": 784,
      "ไ": 785,
      "ๆ": 786,
      "็": 787,
      "่": 788,
      "้": 789,
      "๊": 790,
      "์": 791,
      "๑": 792,
      "ྭ": 793,
      "ဪ": 794,
      "ိ": 795,
      "၄": 796,
      "ၛ": 797,
      "ၝ": 798,
      "ၡ": 799,
      "ၧ": 800,
      "ၱ": 801,
      "ა": 802,
      "ბ": 803,
      "გ": 804,
      "დ": 805,
      "ე": 806,
      "ვ": 807,
      "თ": 808,
      "ი": 809,
      "კ": 810,
      "ლ": 811,
      "მ": 812,
      "ნ": 813,
      "ო": 814,
      "პ": 815,
      "რ": 816,
      "ს": 817,
      "ტ": 818,
      "უ": 819,
      "ფ": 820,
      "ქ": 821,
      "ღ": 822,
      "შ": 823,
      "ც": 824,
      "ხ": 825,
      "ህ": 826,
      "መ": 827,
      "ም": 828,
      "ረ": 829,
      "ር": 830,
      "ስ": 831,
      "ሻ": 832,
      "ቀ": 833,
      "በ": 834,
      "ተ": 835,
      "ት": 836,
      "ቶ": 837,
      "አ": 838,
      "ኣ": 839,
      "እ": 840,
      "ኦ": 841,
      "ክ": 842,
      "ው": 843,
      "ዓ": 844,
      "የ": 845,
      "ይ": 846,
      "ገ": 847,
      "ጨ": 848,
      "ጽ": 849,
      "፣": 850,
      "ᐁ": 851,
      "ᐃ": 852,
      "ᐅ": 853,
      "ᐊ": 854,
      "ᐋ": 855,
      "ᐟ": 856,
      "ᐠ": 857,
      "ᐡ": 858,
      "ᐢ": 859,
      "ᐣ": 860,
      "ᐤ": 861,
      "ᐦ": 862,
      "ᐧ": 863,
      "ᐨ": 864,
      "ᐯ": 865,
      "ᐱ": 866,
      "ᐳ": 867,
      "ᐴ": 868,
      "ᐸ": 869,
      "ᑈ": 870,
      "ᑉ": 871,
      "ᑊ": 872,
      "ᑌ": 873,
      "ᑎ": 874,
      "ᑏ": 875,
      "ᑐ": 876,
      "ᑑ": 877,
      "ᑕ": 878,
      "ᑖ": 879,
      "ᑥ": 880,
      "ᑦ": 881,
      "ᑫ": 882,
      "ᑭ": 883,
      "ᑮ": 884,
      "ᑯ": 885,
      "ᑰ": 886,
      "ᑲ": 887,
      "ᒂ": 888,
      "ᒃ": 889,
      "ᒋ": 890,
      "ᒍ": 891,
      "ᒎ": 892,
      "ᒐ": 893,
      "ᒠ": 894,
      "ᒡ": 895,
      "ᒥ": 896,
      "ᒦ": 897,
      "ᒧ": 898,
      "ᒪ": 899,
      "ᒫ": 900,
      "ᒻ": 901,
      "ᓀ": 902,
      "ᓂ": 903,
      "ᓃ": 904,
      "ᓄ": 905,
      "ᓅ": 906,
      "ᓇ": 907,
      "ᓈ": 908,
      "ᓐ": 909,
      "ᓕ": 910,
      "ᓖ": 911,
      "ᓗ": 912,
      "ᓘ": 913,
      "ᓚ": 914,
      "ᓪ": 915,
      "ᓭ": 916,
      "ᓯ": 917,
      "ᓰ": 918,
      "ᓱ": 919,
      "ᓲ": 920,
      "ᓴ": 921,
      "ᓵ": 922,
      "ᔅ": 923,
      "ᔌ": 924,
      "ᔍ": 925,
      "ᔎ": 926,
      "ᔏ": 927,
      "ᔑ": 928,
      "ᔓ": 929,
      "ᔕ": 930,
      "ᔨ": 931,
      "ᔩ": 932,
      "ᔪ": 933,
      "ᔫ": 934,
      "ᔭ": 935,
      "ᔮ": 936,
      "ᔾ": 937,
      "ᕆ": 938,
      "ᕈ": 939,
      "ᕋ": 940,
      "ᕌ": 941,
      "ᕐ": 942,
      "ᕑ": 943,
      "ᕕ": 944,
      "ᕖ": 945,
      "ᕗ": 946,
      "ᕙ": 947,
      "ᕝ": 948,
      "ᕿ": 949,
      "ᖁ": 950,
      "ᖃ": 951,
      "ᖅ": 952,
      "ᖏ": 953,
      "ᖑ": 954,
      "ᖓ": 955,
      "ᖕ": 956,
      "ᖢ": 957,
      "ᙱ": 958,
      "ᴰ": 959,
      "ᴹ": 960,
      "ᵉ": 961,
      "ᵐ": 962,
      "ᵓ": 963,
      "ḍ": 964,
      "ḏ": 965,
      "ḥ": 966,
      "ḫ": 967,
      "ḵ": 968,
      "ḷ": 969,
      "ṃ": 970,
      "ṇ": 971,
      "ṣ": 972,
      "ṩ": 973,
      "ṭ": 974,
      "ṯ": 975,
      "ṳ": 976,
      "ẃ": 977,
      "ẕ": 978,
      "ạ": 979,
      "ả": 980,
      "ấ": 981,
      "ầ": 982,
      "ẩ": 983,
      "ậ": 984,
      "ắ": 985,
      "ằ": 986,
      "ẳ": 987,
      "ặ": 988,
      "ẹ": 989,
      "ẻ": 990,
      "ẽ": 991,
      "ế": 992,
      "ề": 993,
      "ể": 994,
      "ễ": 995,
      "ệ": 996,
      "ỉ": 997,
      "ị": 998,
      "ọ": 999,
      "ỏ": 1000,
      "ố": 1001,
      "ồ": 1002,
      "ổ": 1003,
      "ỗ": 1004,
      "ộ": 1005,
      "ớ": 1006,
      "ờ": 1007,
      "ở": 1008,
      "ỡ": 1009,
      "ợ": 1010,
      "ụ": 1011,
      "ủ": 1012,
      "ứ": 1013,
      "ừ": 1014,
      "ử": 1015,
      "ữ": 1016,
      "ự": 1017,
      "ỳ": 1018,
      "ỷ": 1019,
      "ἀ": 1020,
      "ἄ": 1021,
      "ἰ": 1022,
      "ὁ": 1023,
      "ὺ": 1024,
      "᾿": 1025,
      "ῆ": 1026,
      "​": 1027,
      "‌": 1028,
      "‍": 1029,
      "‎": 1030,
      "‏": 1031,
      "‐": 1032,
      "‑": 1033,
      "‒": 1034,
      "–": 1035,
      "—": 1036,
      "―": 1037,
      "‖": 1038,
      "‘": 1039,
      "’": 1040,
      "‚": 1041,
      "‛": 1042,
      "“": 1043,
      "”": 1044,
      "„": 1045,
      "‟": 1046,
      "†": 1047,
      "‡": 1048,
      "•": 1049,
      "‣": 1050,
      "‥": 1051,
      "…": 1052,
      "‧": 1053,
      "‪": 1054,
      "‫": 1055,
      "‬": 1056,
      "‭": 1057,
      "‰": 1058,
      "′": 1059,
      "″": 1060,
      "‴": 1061,
      "‹": 1062,
      "›": 1063,
      "※": 1064,
      "‾": 1065,
      "⁁": 1066,
      "⁄": 1067,
      "⁏": 1068,
      "⁪": 1069,
      "⁬": 1070,
      "⁭": 1071,
      "⁮": 1072,
      "⁯": 1073,
      "⁰": 1074,
      "⁴": 1075,
      "⁵": 1076,
      "⁽": 1077,
      "⁾": 1078,
      "ⁿ": 1079,
      "₂": 1080,
      "₤": 1081,
      "₩": 1082,
      "€": 1083,
      "⃞": 1084,
      "℃": 1085,
      "ℇ": 1086,
      "ℓ": 1087,
      "№": 1088,
      "ℜ": 1089,
      "℡": 1090,
      "™": 1091,
      "ℤ": 1092,
      "⅓": 1093,
      "⅔": 1094,
      "⅛": 1095,
      "⅜": 1096,
      "⅝": 1097,
      "⅞": 1098,
      "ⅱ": 1099,
      "←": 1100,
      "↑": 1101,
      "→": 1102,
      "↓": 1103,
      "↔": 1104,
      "↕": 1105,
      "↗": 1106,
      "↘": 1107,
      "↝": 1108,
      "↵": 1109,
      "⇅": 1110,
      "⇆": 1111,
      "⇌": 1112,
      "⇑": 1113,
      "⇒": 1114,
      "⇓": 1115,
      "⇔": 1116,
      "⇕": 1117,
      "⇗": 1118,
      "⇘": 1119,
      "⇙": 1120,
      "⇢": 1121,
      "⇨": 1122,
      "∀": 1123,
      "∂": 1124,
      "∃": 1125,
      "∅": 1126,
      "∆": 1127,
      "∇": 1128,
      "∈": 1129,
      "∋": 1130,
      "∏": 1131,
      "∑": 1132,
      "−": 1133,
      "∕": 1134,
      "∗": 1135,
      "∘": 1136,
      "∙": 1137,
      "√": 1138,
      "∝": 1139,
      "∞": 1140,
      "∩": 1141,
      "∪": 1142,
      "∫": 1143,
      "∴": 1144,
      "∶": 1145,
      "∼": 1146,
      "≅": 1147,
      "≈": 1148,
      "≍": 1149,
      "≠": 1150,
      "≡": 1151,
      "≤": 1152,
      "≥": 1153,
      "≪": 1154,
      "≫": 1155,
      "⊂": 1156,
      "⊃": 1157,
      "⊇": 1158,
      "⊔": 1159,
      "⊕": 1160,
      "⊠": 1161,
      "⋅": 1162,
      "⋞": 1163,
      "⋟": 1164,
      "⌂": 1165,
      "⌃": 1166,
      "⌋": 1167,
      "⌘": 1168,
      "⌠": 1169,
      "⌦": 1170,
      "⌧": 1171,
      "⌫": 1172,
      "⎛": 1173,
      "⎜": 1174,
      "⎝": 1175,
      "⎞": 1176,
      "⎟": 1177,
      "⎠": 1178,
      "⎡": 1179,
      "⎢": 1180,
      "⎣": 1181,
      "⎤": 1182,
      "⎥": 1183,
      "⎦": 1184,
      "⎧": 1185,
      "⎨": 1186,
      "⎩": 1187,
      "⎮": 1188,
      "⎯": 1189,
      "⏐": 1190,
      "⏹": 1191,
      "①": 1192,
      "②": 1193,
      "③": 1194,
      "─": 1195,
      "━": 1196,
      "│": 1197,
      "└": 1198,
      "┴": 1199,
      "║": 1200,
      "╔": 1201,
      "╚": 1202,
      "╦": 1203,
      "╩": 1204,
      "╬": 1205,
      "▀": 1206,
      "█": 1207,
      "▌": 1208,
      "▐": 1209,
      "░": 1210,
      "▒": 1211,
      "▓": 1212,
      "▘": 1213,
      "■": 1214,
      "□": 1215,
      "▢": 1216,
      "▧": 1217,
      "▪": 1218,
      "▫": 1219,
      "▬": 1220,
      "▲": 1221,
      "▵": 1222,
      "▷": 1223,
      "▸": 1224,
      "►": 1225,
      "▼": 1226,
      "◄": 1227,
      "◆": 1228,
      "◇": 1229,
      "◊": 1230,
      "○": 1231,
      "◎": 1232,
      "●": 1233,
      "◗": 1234,
      "◘": 1235,
      "◙": 1236,
      "◦": 1237,
      "☀": 1238,
      "★": 1239,
      "☆": 1240,
      "☎": 1241,
      "☐": 1242,
      "☑": 1243,
      "☛": 1244,
      "☺": 1245,
      "☻": 1246,
      "☼": 1247,
      "♀": 1248,
      "♂": 1249,
      "♒": 1250,
      "♕": 1251,
      "♠": 1252,
      "♣": 1253,
      "♥": 1254,
      "♦": 1255,
      "♪": 1256,
      "♫": 1257,
      "♲": 1258,
      "✁": 1259,
      "✄": 1260,
      "✆": 1261,
      "✇": 1262,
      "✈": 1263,
      "✉": 1264,
      "✏": 1265,
      "✐": 1266,
      "✓": 1267,
      "✔": 1268,
      "✕": 1269,
      "✖": 1270,
      "✗": 1271,
      "✘": 1272,
      "✜": 1273,
      "✝": 1274,
      "✢": 1275,
      "✤": 1276,
      "✦": 1277,
      "✧": 1278,
      "✳": 1279,
      "✵": 1280,
      "✿": 1281,
      "❁": 1282,
      "❆": 1283,
      "❋": 1284,
      "❍": 1285,
      "❏": 1286,
      "❐": 1287,
      "❑": 1288,
      "❒": 1289,
      "❖": 1290,
      "❙": 1291,
      "❚": 1292,
      "❯": 1293,
      "❶": 1294,
      "❷": 1295,
      "➀": 1296,
      "➁": 1297,
      "➄": 1298,
      "➊": 1299,
      "➋": 1300,
      "➌": 1301,
      "➍": 1302,
      "➎": 1303,
      "➏": 1304,
      "➓": 1305,
      "➔": 1306,
      "➘": 1307,
      "➙": 1308,
      "➚": 1309,
      "➛": 1310,
      "➜": 1311,
      "➝": 1312,
      "➞": 1313,
      "➟": 1314,
      "➠": 1315,
      "➡": 1316,
      "➢": 1317,
      "➣": 1318,
      "➤": 1319,
      "➥": 1320,
      "➧": 1321,
      "➨": 1322,
      "➩": 1323,
      "➪": 1324,
      "➫": 1325,
      "➮": 1326,
      "➯": 1327,
      "➲": 1328,
      "➾": 1329,
      "⡣": 1330,
      "⣬": 1331,
      "ⴃ": 1332,
      "ⴐ": 1333,
      "ⴑ": 1334,
      "ⴓ": 1335,
      "ⴗ": 1336,
      "ⴞ": 1337,
      "、": 1338,
      "。": 1339,
      "〈": 1340,
      "〉": 1341,
      "《": 1342,
      "》": 1343,
      "「": 1344,
      "」": 1345,
      "『": 1346,
      "』": 1347,
      "【": 1348,
      "】": 1349,
      "〜": 1350,
      "あ": 1351,
      "い": 1352,
      "う": 1353,
      "え": 1354,
      "お": 1355,
      "か": 1356,
      "が": 1357,
      "き": 1358,
      "ぎ": 1359,
      "く": 1360,
      "ぐ": 1361,
      "け": 1362,
      "げ": 1363,
      "こ": 1364,
      "ご": 1365,
      "さ": 1366,
      "ざ": 1367,
      "し": 1368,
      "じ": 1369,
      "す": 1370,
      "ず": 1371,
      "せ": 1372,
      "ぜ": 1373,
      "そ": 1374,
      "ぞ": 1375,
      "た": 1376,
      "だ": 1377,
      "ち": 1378,
      "っ": 1379,
      "つ": 1380,
      "て": 1381,
      "で": 1382,
      "と": 1383,
      "ど": 1384,
      "な": 1385,
      "に": 1386,
      "ぬ": 1387,
      "ね": 1388,
      "の": 1389,
      "は": 1390,
      "ば": 1391,
      "ひ": 1392,
      "び": 1393,
      "ふ": 1394,
      "ぶ": 1395,
      "へ": 1396,
      "べ": 1397,
      "ほ": 1398,
      "ぼ": 1399,
      "ぽ": 1400,
      "ま": 1401,
      "み": 1402,
      "む": 1403,
      "め": 1404,
      "も": 1405,
      "ゃ": 1406,
      "や": 1407,
      "ゆ": 1408,
      "ょ": 1409,
      "よ": 1410,
      "ら": 1411,
      "り": 1412,
      "る": 1413,
      "れ": 1414,
      "ろ": 1415,
      "わ": 1416,
      "を": 1417,
      "ん": 1418,
      "ァ": 1419,
      "ア": 1420,
      "ィ": 1421,
      "イ": 1422,
      "ウ": 1423,
      "エ": 1424,
      "ォ": 1425,
      "オ": 1426,
      "カ": 1427,
      "ガ": 1428,
      "キ": 1429,
      "ギ": 1430,
      "ク": 1431,
      "グ": 1432,
      "ケ": 1433,
      "ゲ": 1434,
      "コ": 1435,
      "ゴ": 1436,
      "サ": 1437,
      "ザ": 1438,
      "シ": 1439,
      "ジ": 1440,
      "ス": 1441,
      "ズ": 1442,
      "セ": 1443,
      "ゼ": 1444,
      "ソ": 1445,
      "ゾ": 1446,
      "タ": 1447,
      "ダ": 1448,
      "チ": 1449,
      "ッ": 1450,
      "ツ": 1451,
      "テ": 1452,
      "デ": 1453,
      "ト": 1454,
      "ド": 1455,
      "ナ": 1456,
      "ニ": 1457,
      "ヌ": 1458,
      "ネ": 1459,
      "ノ": 1460,
      "ハ": 1461,
      "バ": 1462,
      "パ": 1463,
      "ヒ": 1464,
      "ビ": 1465,
      "ピ": 1466,
      "フ": 1467,
      "ブ": 1468,
      "プ": 1469,
      "ヘ": 1470,
      "ベ": 1471,
      "ペ": 1472,
      "ホ": 1473,
      "ボ": 1474,
      "ポ": 1475,
      "マ": 1476,
      "ミ": 1477,
      "ム": 1478,
      "メ": 1479,
      "モ": 1480,
      "ャ": 1481,
      "ヤ": 1482,
      "ュ": 1483,
      "ユ": 1484,
      "ョ": 1485,
      "ヨ": 1486,
      "ラ": 1487,
      "リ": 1488,
      "ル": 1489,
      "レ": 1490,
      "ロ": 1491,
      "ワ": 1492,
      "ン": 1493,
      "ヴ": 1494,
      "・": 1495,
      "ー": 1496,
      "ㄣ": 1497,
      "ㄤ": 1498,
      "ㄧ": 1499,
      "㣬": 1500,
      "㵼": 1501,
      "䁲": 1502,
      "䨂": 1503,
      "䨢": 1504,
      "䰂": 1505,
      "䰄": 1506,
      "䰚": 1507,
      "䰦": 1508,
      "䰨": 1509,
      "䰪": 1510,
      "一": 1511,
      "七": 1512,
      "万": 1513,
      "丈": 1514,
      "三": 1515,
      "上": 1516,
      "下": 1517,
      "不": 1518,
      "与": 1519,
      "专": 1520,
      "世": 1521,
      "业": 1522,
      "东": 1523,
      "两": 1524,
      "严": 1525,
      "丨": 1526,
      "个": 1527,
      "中": 1528,
      "临": 1529,
      "丸": 1530,
      "丹": 1531,
      "为": 1532,
      "主": 1533,
      "丽": 1534,
      "举": 1535,
      "乃": 1536,
      "久": 1537,
      "义": 1538,
      "之": 1539,
      "乌": 1540,
      "乏": 1541,
      "乐": 1542,
      "乗": 1543,
      "九": 1544,
      "也": 1545,
      "习": 1546,
      "书": 1547,
      "买": 1548,
      "了": 1549,
      "予": 1550,
      "争": 1551,
      "事": 1552,
      "二": 1553,
      "于": 1554,
      "云": 1555,
      "互": 1556,
      "五": 1557,
      "井": 1558,
      "亚": 1559,
      "些": 1560,
      "交": 1561,
      "产": 1562,
      "享": 1563,
      "京": 1564,
      "人": 1565,
      "仁": 1566,
      "今": 1567,
      "介": 1568,
      "从": 1569,
      "他": 1570,
      "付": 1571,
      "仙": 1572,
      "代": 1573,
      "令": 1574,
      "以": 1575,
      "们": 1576,
      "仲": 1577,
      "件": 1578,
      "价": 1579,
      "任": 1580,
      "份": 1581,
      "企": 1582,
      "伊": 1583,
      "伏": 1584,
      "休": 1585,
      "众": 1586,
      "优": 1587,
      "会": 1588,
      "伝": 1589,
      "传": 1590,
      "伯": 1591,
      "估": 1592,
      "伴": 1593,
      "伶": 1594,
      "伸": 1595,
      "但": 1596,
      "佈": 1597,
      "位": 1598,
      "住": 1599,
      "佐": 1600,
      "佑": 1601,
      "体": 1602,
      "何": 1603,
      "余": 1604,
      "佛": 1605,
      "作": 1606,
      "佩": 1607,
      "佰": 1608,
      "佱": 1609,
      "佳": 1610,
      "使": 1611,
      "例": 1612,
      "供": 1613,
      "依": 1614,
      "価": 1615,
      "便": 1616,
      "促": 1617,
      "俄": 1618,
      "俊": 1619,
      "保": 1620,
      "信": 1621,
      "修": 1622,
      "倍": 1623,
      "倒": 1624,
      "候": 1625,
      "借": 1626,
      "値": 1627,
      "债": 1628,
      "值": 1629,
      "做": 1630,
      "停": 1631,
      "健": 1632,
      "偵": 1633,
      "偿": 1634,
      "傅": 1635,
      "储": 1636,
      "催": 1637,
      "像": 1638,
      "僚": 1639,
      "儀": 1640,
      "儒": 1641,
      "儿": 1642,
      "允": 1643,
      "元": 1644,
      "兆": 1645,
      "先": 1646,
      "光": 1647,
      "克": 1648,
      "免": 1649,
      "児": 1650,
      "兒": 1651,
      "入": 1652,
      "全": 1653,
      "八": 1654,
      "公": 1655,
      "六": 1656,
      "兰": 1657,
      "共": 1658,
      "关": 1659,
      "兵": 1660,
      "其": 1661,
      "具": 1662,
      "典": 1663,
      "兹": 1664,
      "养": 1665,
      "内": 1666,
      "円": 1667,
      "册": 1668,
      "写": 1669,
      "军": 1670,
      "农": 1671,
      "冠": 1672,
      "冤": 1673,
      "冰": 1674,
      "冲": 1675,
      "决": 1676,
      "况": 1677,
      "冷": 1678,
      "净": 1679,
      "凄": 1680,
      "准": 1681,
      "减": 1682,
      "几": 1683,
      "凯": 1684,
      "出": 1685,
      "击": 1686,
      "函": 1687,
      "分": 1688,
      "切": 1689,
      "刑": 1690,
      "划": 1691,
      "列": 1692,
      "刘": 1693,
      "则": 1694,
      "刚": 1695,
      "创": 1696,
      "初": 1697,
      "判": 1698,
      "別": 1699,
      "利": 1700,
      "别": 1701,
      "到": 1702,
      "制": 1703,
      "刷": 1704,
      "券": 1705,
      "則": 1706,
      "前": 1707,
      "剥": 1708,
      "副": 1709,
      "劃": 1710,
      "力": 1711,
      "办": 1712,
      "功": 1713,
      "加": 1714,
      "务": 1715,
      "动": 1716,
      "助": 1717,
      "努": 1718,
      "劳": 1719,
      "势": 1720,
      "勒": 1721,
      "動": 1722,
      "勘": 1723,
      "務": 1724,
      "勢": 1725,
      "包": 1726,
      "匈": 1727,
      "化": 1728,
      "北": 1729,
      "区": 1730,
      "医": 1731,
      "匿": 1732,
      "區": 1733,
      "十": 1734,
      "千": 1735,
      "升": 1736,
      "午": 1737,
      "华": 1738,
      "协": 1739,
      "卓": 1740,
      "協": 1741,
      "单": 1742,
      "南": 1743,
      "単": 1744,
      "博": 1745,
      "占": 1746,
      "卡": 1747,
      "卢": 1748,
      "卫": 1749,
      "印": 1750,
      "危": 1751,
      "即": 1752,
      "厂": 1753,
      "厄": 1754,
      "厅": 1755,
      "厉": 1756,
      "原": 1757,
      "厨": 1758,
      "去": 1759,
      "参": 1760,
      "參": 1761,
      "及": 1762,
      "友": 1763,
      "反": 1764,
      "収": 1765,
      "发": 1766,
      "取": 1767,
      "受": 1768,
      "变": 1769,
      "叙": 1770,
      "叟": 1771,
      "口": 1772,
      "古": 1773,
      "句": 1774,
      "另": 1775,
      "只": 1776,
      "叫": 1777,
      "可": 1778,
      "台": 1779,
      "号": 1780,
      "司": 1781,
      "吁": 1782,
      "各": 1783,
      "合": 1784,
      "吉": 1785,
      "吊": 1786,
      "同": 1787,
      "名": 1788,
      "后": 1789,
      "向": 1790,
      "吗": 1791,
      "吧": 1792,
      "含": 1793,
      "吴": 1794,
      "吹": 1795,
      "呂": 1796,
      "呆": 1797,
      "告": 1798,
      "员": 1799,
      "周": 1800,
      "味": 1801,
      "呼": 1802,
      "和": 1803,
      "咨": 1804,
      "咬": 1805,
      "品": 1806,
      "哈": 1807,
      "响": 1808,
      "員": 1809,
      "哥": 1810,
      "唱": 1811,
      "唸": 1812,
      "商": 1813,
      "啦": 1814,
      "喜": 1815,
      "單": 1816,
      "嗎": 1817,
      "嘉": 1818,
      "嘛": 1819,
      "噌": 1820,
      "器": 1821,
      "四": 1822,
      "回": 1823,
      "因": 1824,
      "団": 1825,
      "囧": 1826,
      "园": 1827,
      "囲": 1828,
      "围": 1829,
      "国": 1830,
      "图": 1831,
      "圆": 1832,
      "圍": 1833,
      "園": 1834,
      "圖": 1835,
      "土": 1836,
      "在": 1837,
      "圭": 1838,
      "地": 1839,
      "场": 1840,
      "址": 1841,
      "坂": 1842,
      "坐": 1843,
      "坑": 1844,
      "坚": 1845,
      "坛": 1846,
      "坦": 1847,
      "垂": 1848,
      "型": 1849,
      "垒": 1850,
      "埃": 1851,
      "城": 1852,
      "域": 1853,
      "埵": 1854,
      "執": 1855,
      "培": 1856,
      "基": 1857,
      "堂": 1858,
      "堡": 1859,
      "報": 1860,
      "場": 1861,
      "塔": 1862,
      "塞": 1863,
      "塾": 1864,
      "境": 1865,
      "增": 1866,
      "墨": 1867,
      "壊": 1868,
      "士": 1869,
      "壹": 1870,
      "处": 1871,
      "备": 1872,
      "変": 1873,
      "复": 1874,
      "外": 1875,
      "多": 1876,
      "够": 1877,
      "夠": 1878,
      "大": 1879,
      "天": 1880,
      "太": 1881,
      "夫": 1882,
      "头": 1883,
      "夷": 1884,
      "奈": 1885,
      "奉": 1886,
      "套": 1887,
      "奥": 1888,
      "女": 1889,
      "奸": 1890,
      "好": 1891,
      "如": 1892,
      "妖": 1893,
      "妮": 1894,
      "妻": 1895,
      "始": 1896,
      "姓": 1897,
      "委": 1898,
      "姫": 1899,
      "威": 1900,
      "娅": 1901,
      "娜": 1902,
      "娱": 1903,
      "媒": 1904,
      "媛": 1905,
      "嫁": 1906,
      "嫩": 1907,
      "嬉": 1908,
      "子": 1909,
      "孔": 1910,
      "字": 1911,
      "存": 1912,
      "孟": 1913,
      "学": 1914,
      "學": 1915,
      "宁": 1916,
      "它": 1917,
      "宅": 1918,
      "宇": 1919,
      "安": 1920,
      "宋": 1921,
      "完": 1922,
      "宗": 1923,
      "官": 1924,
      "定": 1925,
      "宛": 1926,
      "宜": 1927,
      "宝": 1928,
      "实": 1929,
      "実": 1930,
      "审": 1931,
      "客": 1932,
      "室": 1933,
      "宫": 1934,
      "宮": 1935,
      "家": 1936,
      "容": 1937,
      "宾": 1938,
      "宿": 1939,
      "寄": 1940,
      "富": 1941,
      "寓": 1942,
      "察": 1943,
      "實": 1944,
      "寸": 1945,
      "对": 1946,
      "寺": 1947,
      "寻": 1948,
      "导": 1949,
      "対": 1950,
      "寿": 1951,
      "射": 1952,
      "将": 1953,
      "專": 1954,
      "尊": 1955,
      "對": 1956,
      "小": 1957,
      "少": 1958,
      "尔": 1959,
      "尙": 1960,
      "尤": 1961,
      "就": 1962,
      "尼": 1963,
      "尾": 1964,
      "局": 1965,
      "层": 1966,
      "屄": 1967,
      "居": 1968,
      "屈": 1969,
      "届": 1970,
      "屋": 1971,
      "屑": 1972,
      "展": 1973,
      "山": 1974,
      "岐": 1975,
      "岛": 1976,
      "岡": 1977,
      "岩": 1978,
      "岭": 1979,
      "峪": 1980,
      "島": 1981,
      "崎": 1982,
      "川": 1983,
      "州": 1984,
      "巡": 1985,
      "工": 1986,
      "差": 1987,
      "已": 1988,
      "巴": 1989,
      "市": 1990,
      "布": 1991,
      "帆": 1992,
      "师": 1993,
      "希": 1994,
      "帐": 1995,
      "带": 1996,
      "師": 1997,
      "席": 1998,
      "帮": 1999,
      "帳": 2000,
      "常": 2001,
      "幌": 2002,
      "干": 2003,
      "平": 2004,
      "年": 2005,
      "并": 2006,
      "幹": 2007,
      "广": 2008,
      "庁": 2009,
      "広": 2010,
      "庄": 2011,
      "庆": 2012,
      "序": 2013,
      "应": 2014,
      "店": 2015,
      "府": 2016,
      "度": 2017,
      "座": 2018,
      "庫": 2019,
      "庭": 2020,
      "康": 2021,
      "庸": 2022,
      "廉": 2023,
      "廚": 2024,
      "延": 2025,
      "廷": 2026,
      "建": 2027,
      "开": 2028,
      "弃": 2029,
      "弄": 2030,
      "式": 2031,
      "引": 2032,
      "弗": 2033,
      "张": 2034,
      "弱": 2035,
      "强": 2036,
      "弾": 2037,
      "当": 2038,
      "录": 2039,
      "形": 2040,
      "影": 2041,
      "役": 2042,
      "往": 2043,
      "征": 2044,
      "径": 2045,
      "待": 2046,
      "律": 2047,
      "後": 2048,
      "徐": 2049,
      "得": 2050,
      "御": 2051,
      "復": 2052,
      "微": 2053,
      "徳": 2054,
      "德": 2055,
      "心": 2056,
      "必": 2057,
      "忆": 2058,
      "志": 2059,
      "忘": 2060,
      "忙": 2061,
      "応": 2062,
      "忠": 2063,
      "快": 2064,
      "念": 2065,
      "忻": 2066,
      "态": 2067,
      "思": 2068,
      "怡": 2069,
      "急": 2070,
      "性": 2071,
      "总": 2072,
      "恢": 2073,
      "恩": 2074,
      "息": 2075,
      "悠": 2076,
      "悩": 2077,
      "悬": 2078,
      "情": 2079,
      "惯": 2080,
      "想": 2081,
      "意": 2082,
      "愛": 2083,
      "感": 2084,
      "態": 2085,
      "慶": 2086,
      "憶": 2087,
      "戈": 2088,
      "成": 2089,
      "我": 2090,
      "或": 2091,
      "战": 2092,
      "戯": 2093,
      "戴": 2094,
      "戶": 2095,
      "户": 2096,
      "戸": 2097,
      "房": 2098,
      "所": 2099,
      "扈": 2100,
      "手": 2101,
      "才": 2102,
      "打": 2103,
      "托": 2104,
      "执": 2105,
      "扬": 2106,
      "批": 2107,
      "找": 2108,
      "承": 2109,
      "技": 2110,
      "把": 2111,
      "投": 2112,
      "折": 2113,
      "抜": 2114,
      "护": 2115,
      "报": 2116,
      "抵": 2117,
      "担": 2118,
      "拉": 2119,
      "拓": 2120,
      "招": 2121,
      "拜": 2122,
      "拟": 2123,
      "拥": 2124,
      "择": 2125,
      "括": 2126,
      "拼": 2127,
      "拿": 2128,
      "持": 2129,
      "指": 2130,
      "按": 2131,
      "挡": 2132,
      "挪": 2133,
      "挿": 2134,
      "捐": 2135,
      "损": 2136,
      "换": 2137,
      "据": 2138,
      "捷": 2139,
      "授": 2140,
      "掌": 2141,
      "排": 2142,
      "探": 2143,
      "接": 2144,
      "控": 2145,
      "推": 2146,
      "措": 2147,
      "掻": 2148,
      "揃": 2149,
      "提": 2150,
      "換": 2151,
      "握": 2152,
      "揭": 2153,
      "援": 2154,
      "搁": 2155,
      "損": 2156,
      "搗": 2157,
      "搞": 2158,
      "摇": 2159,
      "摊": 2160,
      "摩": 2161,
      "撒": 2162,
      "撤": 2163,
      "撮": 2164,
      "擁": 2165,
      "操": 2166,
      "支": 2167,
      "收": 2168,
      "改": 2169,
      "放": 2170,
      "政": 2171,
      "故": 2172,
      "效": 2173,
      "敌": 2174,
      "敏": 2175,
      "救": 2176,
      "教": 2177,
      "散": 2178,
      "数": 2179,
      "整": 2180,
      "敷": 2181,
      "文": 2182,
      "斎": 2183,
      "斗": 2184,
      "料": 2185,
      "斤": 2186,
      "断": 2187,
      "斯": 2188,
      "新": 2189,
      "方": 2190,
      "於": 2191,
      "施": 2192,
      "旅": 2193,
      "旗": 2194,
      "无": 2195,
      "日": 2196,
      "旦": 2197,
      "时": 2198,
      "明": 2199,
      "易": 2200,
      "星": 2201,
      "春": 2202,
      "昨": 2203,
      "昭": 2204,
      "是": 2205,
      "显": 2206,
      "時": 2207,
      "晏": 2208,
      "晚": 2209,
      "普": 2210,
      "景": 2211,
      "晶": 2212,
      "智": 2213,
      "暂": 2214,
      "暖": 2215,
      "曲": 2216,
      "更": 2217,
      "書": 2218,
      "曹": 2219,
      "曼": 2220,
      "替": 2221,
      "最": 2222,
      "會": 2223,
      "月": 2224,
      "有": 2225,
      "朋": 2226,
      "服": 2227,
      "朗": 2228,
      "期": 2229,
      "木": 2230,
      "本": 2231,
      "札": 2232,
      "术": 2233,
      "朱": 2234,
      "机": 2235,
      "杂": 2236,
      "权": 2237,
      "李": 2238,
      "材": 2239,
      "村": 2240,
      "条": 2241,
      "来": 2242,
      "杨": 2243,
      "杭": 2244,
      "東": 2245,
      "松": 2246,
      "板": 2247,
      "构": 2248,
      "析": 2249,
      "林": 2250,
      "枚": 2251,
      "果": 2252,
      "枝": 2253,
      "枪": 2254,
      "架": 2255,
      "柏": 2256,
      "查": 2257,
      "柳": 2258,
      "柴": 2259,
      "栃": 2260,
      "栄": 2261,
      "标": 2262,
      "树": 2263,
      "校": 2264,
      "株": 2265,
      "样": 2266,
      "核": 2267,
      "根": 2268,
      "格": 2269,
      "框": 2270,
      "案": 2271,
      "桑": 2272,
      "桓": 2273,
      "桜": 2274,
      "桢": 2275,
      "档": 2276,
      "桥": 2277,
      "梅": 2278,
      "梨": 2279,
      "梯": 2280,
      "械": 2281,
      "梶": 2282,
      "检": 2283,
      "棋": 2284,
      "森": 2285,
      "植": 2286,
      "楠": 2287,
      "業": 2288,
      "楼": 2289,
      "楽": 2290,
      "概": 2291,
      "槍": 2292,
      "様": 2293,
      "樊": 2294,
      "横": 2295,
      "橋": 2296,
      "機": 2297,
      "檔": 2298,
      "權": 2299,
      "次": 2300,
      "欢": 2301,
      "欧": 2302,
      "款": 2303,
      "歌": 2304,
      "止": 2305,
      "正": 2306,
      "此": 2307,
      "步": 2308,
      "武": 2309,
      "歩": 2310,
      "死": 2311,
      "残": 2312,
      "殘": 2313,
      "段": 2314,
      "殿": 2315,
      "每": 2316,
      "毒": 2317,
      "比": 2318,
      "毛": 2319,
      "氏": 2320,
      "民": 2321,
      "气": 2322,
      "気": 2323,
      "氣": 2324,
      "氧": 2325,
      "水": 2326,
      "永": 2327,
      "汁": 2328,
      "求": 2329,
      "汉": 2330,
      "江": 2331,
      "池": 2332,
      "汤": 2333,
      "沒": 2334,
      "沖": 2335,
      "沙": 2336,
      "没": 2337,
      "沢": 2338,
      "河": 2339,
      "油": 2340,
      "治": 2341,
      "況": 2342,
      "泉": 2343,
      "泊": 2344,
      "法": 2345,
      "波": 2346,
      "泥": 2347,
      "注": 2348,
      "泰": 2349,
      "泳": 2350,
      "泽": 2351,
      "洁": 2352,
      "洋": 2353,
      "洒": 2354,
      "洗": 2355,
      "洛": 2356,
      "津": 2357,
      "洪": 2358,
      "洱": 2359,
      "洲": 2360,
      "活": 2361,
      "派": 2362,
      "流": 2363,
      "浄": 2364,
      "浅": 2365,
      "测": 2366,
      "济": 2367,
      "浙": 2368,
      "浜": 2369,
      "浦": 2370,
      "海": 2371,
      "涂": 2372,
      "消": 2373,
      "涌": 2374,
      "涨": 2375,
      "深": 2376,
      "淹": 2377,
      "添": 2378,
      "清": 2379,
      "済": 2380,
      "渋": 2381,
      "温": 2382,
      "港": 2383,
      "游": 2384,
      "湖": 2385,
      "満": 2386,
      "源": 2387,
      "溜": 2388,
      "溢": 2389,
      "滑": 2390,
      "滩": 2391,
      "演": 2392,
      "漢": 2393,
      "漫": 2394,
      "澳": 2395,
      "濟": 2396,
      "灣": 2397,
      "火": 2398,
      "灾": 2399,
      "点": 2400,
      "為": 2401,
      "焚": 2402,
      "無": 2403,
      "焼": 2404,
      "照": 2405,
      "煮": 2406,
      "熨": 2407,
      "熱": 2408,
      "燕": 2409,
      "爪": 2410,
      "爱": 2411,
      "爲": 2412,
      "父": 2413,
      "片": 2414,
      "版": 2415,
      "牌": 2416,
      "牙": 2417,
      "物": 2418,
      "牵": 2419,
      "特": 2420,
      "犯": 2421,
      "状": 2422,
      "独": 2423,
      "猎": 2424,
      "猫": 2425,
      "献": 2426,
      "獵": 2427,
      "獻": 2428,
      "率": 2429,
      "玉": 2430,
      "王": 2431,
      "玩": 2432,
      "环": 2433,
      "现": 2434,
      "玲": 2435,
      "玻": 2436,
      "珠": 2437,
      "班": 2438,
      "球": 2439,
      "理": 2440,
      "琉": 2441,
      "琢": 2442,
      "琮": 2443,
      "琴": 2444,
      "瑞": 2445,
      "璐": 2446,
      "環": 2447,
      "瓜": 2448,
      "瓦": 2449,
      "甘": 2450,
      "甜": 2451,
      "生": 2452,
      "産": 2453,
      "用": 2454,
      "田": 2455,
      "由": 2456,
      "甲": 2457,
      "申": 2458,
      "电": 2459,
      "甸": 2460,
      "画": 2461,
      "界": 2462,
      "留": 2463,
      "略": 2464,
      "番": 2465,
      "異": 2466,
      "畳": 2467,
      "當": 2468,
      "畿": 2469,
      "疆": 2470,
      "疏": 2471,
      "疑": 2472,
      "疾": 2473,
      "痛": 2474,
      "痴": 2475,
      "登": 2476,
      "發": 2477,
      "白": 2478,
      "百": 2479,
      "的": 2480,
      "皇": 2481,
      "皮": 2482,
      "益": 2483,
      "监": 2484,
      "盖": 2485,
      "盘": 2486,
      "盟": 2487,
      "目": 2488,
      "直": 2489,
      "相": 2490,
      "省": 2491,
      "看": 2492,
      "県": 2493,
      "真": 2494,
      "眼": 2495,
      "着": 2496,
      "督": 2497,
      "瞎": 2498,
      "知": 2499,
      "石": 2500,
      "码": 2501,
      "研": 2502,
      "础": 2503,
      "硢": 2504,
      "确": 2505,
      "磁": 2506,
      "示": 2507,
      "礼": 2508,
      "社": 2509,
      "祖": 2510,
      "祝": 2511,
      "神": 2512,
      "票": 2513,
      "祭": 2514,
      "禄": 2515,
      "福": 2516,
      "离": 2517,
      "秀": 2518,
      "秉": 2519,
      "秋": 2520,
      "种": 2521,
      "科": 2522,
      "秘": 2523,
      "租": 2524,
      "积": 2525,
      "称": 2526,
      "移": 2527,
      "稅": 2528,
      "程": 2529,
      "税": 2530,
      "種": 2531,
      "稲": 2532,
      "究": 2533,
      "空": 2534,
      "穿": 2535,
      "突": 2536,
      "立": 2537,
      "站": 2538,
      "章": 2539,
      "童": 2540,
      "端": 2541,
      "竹": 2542,
      "笑": 2543,
      "笔": 2544,
      "符": 2545,
      "第": 2546,
      "等": 2547,
      "筑": 2548,
      "策": 2549,
      "签": 2550,
      "简": 2551,
      "算": 2552,
      "管": 2553,
      "箭": 2554,
      "箱": 2555,
      "篆": 2556,
      "簡": 2557,
      "簽": 2558,
      "籍": 2559,
      "米": 2560,
      "类": 2561,
      "粉": 2562,
      "粮": 2563,
      "精": 2564,
      "糖": 2565,
      "系": 2566,
      "紀": 2567,
      "約": 2568,
      "純": 2569,
      "素": 2570,
      "索": 2571,
      "紧": 2572,
      "細": 2573,
      "紹": 2574,
      "終": 2575,
      "経": 2576,
      "給": 2577,
      "網": 2578,
      "線": 2579,
      "編": 2580,
      "縄": 2581,
      "縮": 2582,
      "績": 2583,
      "繁": 2584,
      "约": 2585,
      "级": 2586,
      "纪": 2587,
      "纱": 2588,
      "纳": 2589,
      "纸": 2590,
      "纽": 2591,
      "线": 2592,
      "练": 2593,
      "组": 2594,
      "细": 2595,
      "织": 2596,
      "终": 2597,
      "绍": 2598,
      "经": 2599,
      "结": 2600,
      "给": 2601,
      "络": 2602,
      "绞": 2603,
      "统": 2604,
      "继": 2605,
      "绩": 2606,
      "续": 2607,
      "绰": 2608,
      "维": 2609,
      "综": 2610,
      "缅": 2611,
      "缆": 2612,
      "编": 2613,
      "缩": 2614,
      "缴": 2615,
      "网": 2616,
      "罗": 2617,
      "罪": 2618,
      "置": 2619,
      "署": 2620,
      "美": 2621,
      "群": 2622,
      "義": 2623,
      "翁": 2624,
      "習": 2625,
      "翰": 2626,
      "翴": 2627,
      "耀": 2628,
      "老": 2629,
      "考": 2630,
      "者": 2631,
      "而": 2632,
      "耳": 2633,
      "耶": 2634,
      "耽": 2635,
      "聊": 2636,
      "职": 2637,
      "联": 2638,
      "聘": 2639,
      "聚": 2640,
      "聞": 2641,
      "聽": 2642,
      "聾": 2643,
      "肃": 2644,
      "肖": 2645,
      "肯": 2646,
      "育": 2647,
      "背": 2648,
      "能": 2649,
      "脚": 2650,
      "脱": 2651,
      "腊": 2652,
      "腰": 2653,
      "腹": 2654,
      "臂": 2655,
      "自": 2656,
      "至": 2657,
      "致": 2658,
      "舉": 2659,
      "舍": 2660,
      "舞": 2661,
      "航": 2662,
      "舫": 2663,
      "般": 2664,
      "船": 2665,
      "艇": 2666,
      "良": 2667,
      "色": 2668,
      "艳": 2669,
      "艺": 2670,
      "节": 2671,
      "芬": 2672,
      "花": 2673,
      "苏": 2674,
      "若": 2675,
      "英": 2676,
      "茂": 2677,
      "范": 2678,
      "茅": 2679,
      "茨": 2680,
      "茶": 2681,
      "草": 2682,
      "荐": 2683,
      "荣": 2684,
      "药": 2685,
      "荷": 2686,
      "莫": 2687,
      "莱": 2688,
      "获": 2689,
      "莹": 2690,
      "莽": 2691,
      "菩": 2692,
      "菲": 2693,
      "萄": 2694,
      "营": 2695,
      "萧": 2696,
      "萨": 2697,
      "落": 2698,
      "葉": 2699,
      "葡": 2700,
      "蒋": 2701,
      "蒸": 2702,
      "蔓": 2703,
      "蔚": 2704,
      "蔵": 2705,
      "蔺": 2706,
      "薩": 2707,
      "薬": 2708,
      "藤": 2709,
      "蘇": 2710,
      "虎": 2711,
      "虚": 2712,
      "虹": 2713,
      "蝦": 2714,
      "螳": 2715,
      "血": 2716,
      "行": 2717,
      "衣": 2718,
      "补": 2719,
      "表": 2720,
      "衫": 2721,
      "袋": 2722,
      "袍": 2723,
      "被": 2724,
      "裁": 2725,
      "装": 2726,
      "裔": 2727,
      "裕": 2728,
      "裩": 2729,
      "製": 2730,
      "西": 2731,
      "要": 2732,
      "覇": 2733,
      "見": 2734,
      "視": 2735,
      "親": 2736,
      "见": 2737,
      "观": 2738,
      "规": 2739,
      "视": 2740,
      "览": 2741,
      "角": 2742,
      "解": 2743,
      "言": 2744,
      "計": 2745,
      "訊": 2746,
      "記": 2747,
      "設": 2748,
      "許": 2749,
      "診": 2750,
      "評": 2751,
      "話": 2752,
      "認": 2753,
      "誕": 2754,
      "語": 2755,
      "誠": 2756,
      "論": 2757,
      "諸": 2758,
      "證": 2759,
      "警": 2760,
      "議": 2761,
      "護": 2762,
      "计": 2763,
      "订": 2764,
      "认": 2765,
      "讨": 2766,
      "训": 2767,
      "议": 2768,
      "讯": 2769,
      "记": 2770,
      "许": 2771,
      "论": 2772,
      "设": 2773,
      "访": 2774,
      "证": 2775,
      "评": 2776,
      "识": 2777,
      "诊": 2778,
      "译": 2779,
      "试": 2780,
      "诘": 2781,
      "话": 2782,
      "诠": 2783,
      "询": 2784,
      "该": 2785,
      "语": 2786,
      "说": 2787,
      "请": 2788,
      "调": 2789,
      "谅": 2790,
      "谈": 2791,
      "谐": 2792,
      "谷": 2793,
      "豆": 2794,
      "象": 2795,
      "豱": 2796,
      "豸": 2797,
      "負": 2798,
      "財": 2799,
      "責": 2800,
      "貸": 2801,
      "費": 2802,
      "貿": 2803,
      "賃": 2804,
      "資": 2805,
      "賑": 2806,
      "賢": 2807,
      "賬": 2808,
      "購": 2809,
      "贝": 2810,
      "贞": 2811,
      "负": 2812,
      "贡": 2813,
      "财": 2814,
      "责": 2815,
      "账": 2816,
      "货": 2817,
      "质": 2818,
      "贩": 2819,
      "贫": 2820,
      "购": 2821,
      "贱": 2822,
      "贳": 2823,
      "贴": 2824,
      "贷": 2825,
      "贸": 2826,
      "费": 2827,
      "资": 2828,
      "赈": 2829,
      "赌": 2830,
      "赔": 2831,
      "赛": 2832,
      "赞": 2833,
      "赠": 2834,
      "赤": 2835,
      "赵": 2836,
      "赶": 2837,
      "起": 2838,
      "超": 2839,
      "越": 2840,
      "足": 2841,
      "跃": 2842,
      "跋": 2843,
      "距": 2844,
      "跟": 2845,
      "跨": 2846,
      "路": 2847,
      "跳": 2848,
      "踪": 2849,
      "身": 2850,
      "車": 2851,
      "軍": 2852,
      "輿": 2853,
      "车": 2854,
      "转": 2855,
      "轻": 2856,
      "载": 2857,
      "较": 2858,
      "辅": 2859,
      "辑": 2860,
      "输": 2861,
      "辞": 2862,
      "辦": 2863,
      "農": 2864,
      "边": 2865,
      "込": 2866,
      "达": 2867,
      "迅": 2868,
      "过": 2869,
      "迎": 2870,
      "运": 2871,
      "近": 2872,
      "还": 2873,
      "这": 2874,
      "进": 2875,
      "远": 2876,
      "连": 2877,
      "迟": 2878,
      "迪": 2879,
      "退": 2880,
      "送": 2881,
      "适": 2882,
      "逃": 2883,
      "选": 2884,
      "透": 2885,
      "逐": 2886,
      "递": 2887,
      "通": 2888,
      "速": 2889,
      "造": 2890,
      "逸": 2891,
      "逻": 2892,
      "遇": 2893,
      "遊": 2894,
      "道": 2895,
      "達": 2896,
      "遗": 2897,
      "遠": 2898,
      "遣": 2899,
      "選": 2900,
      "避": 2901,
      "還": 2902,
      "那": 2903,
      "邦": 2904,
      "邮": 2905,
      "邱": 2906,
      "郎": 2907,
      "部": 2908,
      "郭": 2909,
      "郷": 2910,
      "都": 2911,
      "鄉": 2912,
      "酋": 2913,
      "配": 2914,
      "酒": 2915,
      "酸": 2916,
      "醍": 2917,
      "醐": 2918,
      "醫": 2919,
      "采": 2920,
      "释": 2921,
      "里": 2922,
      "重": 2923,
      "野": 2924,
      "量": 2925,
      "金": 2926,
      "釣": 2927,
      "鉴": 2928,
      "銀": 2929,
      "鍵": 2930,
      "鏡": 2931,
      "鑒": 2932,
      "钓": 2933,
      "钦": 2934,
      "钧": 2935,
      "钱": 2936,
      "铭": 2937,
      "银": 2938,
      "链": 2939,
      "销": 2940,
      "锋": 2941,
      "锚": 2942,
      "锦": 2943,
      "键": 2944,
      "镜": 2945,
      "長": 2946,
      "长": 2947,
      "門": 2948,
      "開": 2949,
      "間": 2950,
      "関": 2951,
      "閣": 2952,
      "閥": 2953,
      "關": 2954,
      "门": 2955,
      "问": 2956,
      "间": 2957,
      "闻": 2958,
      "阅": 2959,
      "阜": 2960,
      "队": 2961,
      "阪": 2962,
      "防": 2963,
      "阳": 2964,
      "阴": 2965,
      "阿": 2966,
      "陀": 2967,
      "附": 2968,
      "际": 2969,
      "陆": 2970,
      "陈": 2971,
      "降": 2972,
      "限": 2973,
      "院": 2974,
      "除": 2975,
      "险": 2976,
      "陰": 2977,
      "陳": 2978,
      "陶": 2979,
      "陽": 2980,
      "隆": 2981,
      "随": 2982,
      "際": 2983,
      "障": 2984,
      "險": 2985,
      "难": 2986,
      "雁": 2987,
      "雄": 2988,
      "集": 2989,
      "雇": 2990,
      "雑": 2991,
      "雛": 2992,
      "難": 2993,
      "雪": 2994,
      "雲": 2995,
      "零": 2996,
      "雷": 2997,
      "電": 2998,
      "需": 2999,
      "霍": 3000,
      "青": 3001,
      "静": 3002,
      "非": 3003,
      "靠": 3004,
      "面": 3005,
      "革": 3006,
      "鞋": 3007,
      "韦": 3008,
      "韩": 3009,
      "音": 3010,
      "韶": 3011,
      "頂": 3012,
      "頃": 3013,
      "類": 3014,
      "顮": 3015,
      "页": 3016,
      "顶": 3017,
      "项": 3018,
      "顺": 3019,
      "顾": 3020,
      "顿": 3021,
      "预": 3022,
      "领": 3023,
      "频": 3024,
      "颖": 3025,
      "题": 3026,
      "额": 3027,
      "颠": 3028,
      "風": 3029,
      "风": 3030,
      "飞": 3031,
      "食": 3032,
      "飬": 3033,
      "飼": 3034,
      "飾": 3035,
      "餅": 3036,
      "養": 3037,
      "館": 3038,
      "饭": 3039,
      "饰": 3040,
      "馆": 3041,
      "首": 3042,
      "香": 3043,
      "馬": 3044,
      "駄": 3045,
      "駅": 3046,
      "駕": 3047,
      "駛": 3048,
      "騜": 3049,
      "马": 3050,
      "驶": 3051,
      "驻": 3052,
      "驾": 3053,
      "验": 3054,
      "高": 3055,
      "髻": 3056,
      "魁": 3057,
      "魂": 3058,
      "魚": 3059,
      "鱼": 3060,
      "鲁": 3061,
      "鵜": 3062,
      "鸣": 3063,
      "鹺": 3064,
      "麦": 3065,
      "麻": 3066,
      "黄": 3067,
      "黎": 3068,
      "黑": 3069,
      "黛": 3070,
      "齐": 3071,
      "龙": 3072,
      "꣨": 3073,
      "가": 3074,
      "개": 3075,
      "거": 3076,
      "것": 3077,
      "게": 3078,
      "결": 3079,
      "경": 3080,
      "계": 3081,
      "고": 3082,
      "공": 3083,
      "과": 3084,
      "관": 3085,
      "광": 3086,
      "교": 3087,
      "구": 3088,
      "국": 3089,
      "군": 3090,
      "권": 3091,
      "규": 3092,
      "글": 3093,
      "금": 3094,
      "기": 3095,
      "끼": 3096,
      "나": 3097,
      "남": 3098,
      "내": 3099,
      "년": 3100,
      "노": 3101,
      "뉴": 3102,
      "는": 3103,
      "니": 3104,
      "다": 3105,
      "달": 3106,
      "당": 3107,
      "대": 3108,
      "던": 3109,
      "도": 3110,
      "되": 3111,
      "됩": 3112,
      "둑": 3113,
      "뒤": 3114,
      "드": 3115,
      "든": 3116,
      "따": 3117,
      "떨": 3118,
      "라": 3119,
      "랍": 3120,
      "랑": 3121,
      "러": 3122,
      "런": 3123,
      "레": 3124,
      "렉": 3125,
      "력": 3126,
      "련": 3127,
      "로": 3128,
      "료": 3129,
      "르": 3130,
      "를": 3131,
      "름": 3132,
      "리": 3133,
      "마": 3134,
      "만": 3135,
      "망": 3136,
      "며": 3137,
      "면": 3138,
      "명": 3139,
      "모": 3140,
      "몬": 3141,
      "무": 3142,
      "문": 3143,
      "미": 3144,
      "민": 3145,
      "및": 3146,
      "바": 3147,
      "발": 3148,
      "밝": 3149,
      "배": 3150,
      "밴": 3151,
      "번": 3152,
      "범": 3153,
      "법": 3154,
      "보": 3155,
      "본": 3156,
      "불": 3157,
      "비": 3158,
      "쁜": 3159,
      "사": 3160,
      "상": 3161,
      "서": 3162,
      "선": 3163,
      "성": 3164,
      "세": 3165,
      "소": 3166,
      "수": 3167,
      "술": 3168,
      "스": 3169,
      "습": 3170,
      "시": 3171,
      "신": 3172,
      "실": 3173,
      "아": 3174,
      "안": 3175,
      "알": 3176,
      "액": 3177,
      "야": 3178,
      "어": 3179,
      "업": 3180,
      "없": 3181,
      "에": 3182,
      "여": 3183,
      "역": 3184,
      "영": 3185,
      "올": 3186,
      "요": 3187,
      "용": 3188,
      "우": 3189,
      "원": 3190,
      "위": 3191,
      "유": 3192,
      "율": 3193,
      "은": 3194,
      "을": 3195,
      "음": 3196,
      "의": 3197,
      "이": 3198,
      "인": 3199,
      "일": 3200,
      "임": 3201,
      "입": 3202,
      "있": 3203,
      "자": 3204,
      "장": 3205,
      "적": 3206,
      "전": 3207,
      "정": 3208,
      "제": 3209,
      "져": 3210,
      "족": 3211,
      "좌": 3212,
      "죄": 3213,
      "주": 3214,
      "증": 3215,
      "지": 3216,
      "진": 3217,
      "짜": 3218,
      "찌": 3219,
      "착": 3220,
      "채": 3221,
      "책": 3222,
      "척": 3223,
      "천": 3224,
      "청": 3225,
      "초": 3226,
      "최": 3227,
      "치": 3228,
      "칫": 3229,
      "캐": 3230,
      "코": 3231,
      "콨": 3232,
      "타": 3233,
      "터": 3234,
      "통": 3235,
      "투": 3236,
      "트": 3237,
      "평": 3238,
      "포": 3239,
      "표": 3240,
      "프": 3241,
      "하": 3242,
      "학": 3243,
      "한": 3244,
      "할": 3245,
      "함": 3246,
      "합": 3247,
      "해": 3248,
      "행": 3249,
      "호": 3250,
      "혼": 3251,
      "화": 3252,
      "환": 3253,
      "회": 3254,
      "휴": 3255,
      "힌": 3256,
      "ퟒ": 3257,
      "": 3258,
      "": 3259,
      "": 3260,
      "": 3261,
      "": 3262,
      "": 3263,
      "": 3264,
      "": 3265,
      "": 3266,
      "": 3267,
      "": 3268,
      "": 3269,
      "": 3270,
      "": 3271,
      "": 3272,
      "": 3273,
      "": 3274,
      "": 3275,
      "": 3276,
      "": 3277,
      "": 3278,
      "": 3279,
      "": 3280,
      "": 3281,
      "": 3282,
      "": 3283,
      "": 3284,
      "": 3285,
      "": 3286,
      "": 3287,
      "": 3288,
      "": 3289,
      "": 3290,
      "": 3291,
      "": 3292,
      "": 3293,
      "": 3294,
      "": 3295,
      "": 3296,
      "": 3297,
      "": 3298,
      "": 3299,
      "": 3300,
      "": 3301,
      "": 3302,
      "": 3303,
      "": 3304,
      "": 3305,
      "": 3306,
      "": 3307,
      "": 3308,
      "": 3309,
      "": 3310,
      "": 3311,
      "": 3312,
      "": 3313,
      "": 3314,
      "": 3315,
      "": 3316,
      "": 3317,
      "": 3318,
      "": 3319,
      "": 3320,
      "": 3321,
      "": 3322,
      "": 3323,
      "": 3324,
      "": 3325,
      "": 3326,
      "": 3327,
      "": 3328,
      "": 3329,
      "": 3330,
      "": 3331,
      "": 3332,
      "": 3333,
      "": 3334,
      "": 3335,
      "": 3336,
      "": 3337,
      "": 3338,
      "": 3339,
      "": 3340,
      "": 3341,
      "": 3342,
      "": 3343,
      "": 3344,
      "": 3345,
      "": 3346,
      "": 3347,
      "": 3348,
      "": 3349,
      "": 3350,
      "": 3351,
      "": 3352,
      "": 3353,
      "": 3354,
      "": 3355,
      "": 3356,
      "": 3357,
      "": 3358,
      "": 3359,
      "": 3360,
      "": 3361,
      "": 3362,
      "": 3363,
      "": 3364,
      "": 3365,
      "": 3366,
      "": 3367,
      "": 3368,
      "": 3369,
      "": 3370,
      "": 3371,
      "": 3372,
      "": 3373,
      "": 3374,
      "": 3375,
      "": 3376,
      "": 3377,
      "": 3378,
      "": 3379,
      "": 3380,
      "": 3381,
      "": 3382,
      "": 3383,
      "": 3384,
      "": 3385,
      "": 3386,
      "": 3387,
      "": 3388,
      "": 3389,
      "": 3390,
      "": 3391,
      "": 3392,
      "": 3393,
      "": 3394,
      "": 3395,
      "": 3396,
      "": 3397,
      "": 3398,
      "": 3399,
      "": 3400,
      "": 3401,
      "": 3402,
      "": 3403,
      "": 3404,
      "": 3405,
      "": 3406,
      "": 3407,
      "": 3408,
      "": 3409,
      "": 3410,
      "": 3411,
      "": 3412,
      "": 3413,
      "": 3414,
      "": 3415,
      "": 3416,
      "": 3417,
      "": 3418,
      "": 3419,
      "": 3420,
      "": 3421,
      "": 3422,
      "": 3423,
      "": 3424,
      "": 3425,
      "": 3426,
      "": 3427,
      "": 3428,
      "": 3429,
      "": 3430,
      "": 3431,
      "": 3432,
      "": 3433,
      "": 3434,
      "": 3435,
      "": 3436,
      "": 3437,
      "": 3438,
      "": 3439,
      "": 3440,
      "": 3441,
      "": 3442,
      "": 3443,
      "": 3444,
      "": 3445,
      "": 3446,
      "": 3447,
      "": 3448,
      "": 3449,
      "": 3450,
      "": 3451,
      "": 3452,
      "": 3453,
      "": 3454,
      "": 3455,
      "": 3456,
      "": 3457,
      "": 3458,
      "": 3459,
      "": 3460,
      "": 3461,
      "": 3462,
      "": 3463,
      "": 3464,
      "": 3465,
      "": 3466,
      "": 3467,
      "": 3468,
      "": 3469,
      "": 3470,
      "": 3471,
      "": 3472,
      "": 3473,
      "": 3474,
      "": 3475,
      "": 3476,
      "": 3477,
      "": 3478,
      "": 3479,
      "": 3480,
      "": 3481,
      "": 3482,
      "": 3483,
      "": 3484,
      "": 3485,
      "": 3486,
      "": 3487,
      "": 3488,
      "": 3489,
      "": 3490,
      "": 3491,
      "": 3492,
      "": 3493,
      "": 3494,
      "": 3495,
      "": 3496,
      "": 3497,
      "": 3498,
      "": 3499,
      "": 3500,
      "": 3501,
      "": 3502,
      "": 3503,
      "": 3504,
      "": 3505,
      "": 3506,
      "": 3507,
      "": 3508,
      "": 3509,
      "": 3510,
      "": 3511,
      "": 3512,
      "": 3513,
      "": 3514,
      "": 3515,
      "": 3516,
      "": 3517,
      "": 3518,
      "": 3519,
      "": 3520,
      "": 3521,
      "": 3522,
      "": 3523,
      "": 3524,
      "": 3525,
      "": 3526,
      "": 3527,
      "": 3528,
      "": 3529,
      "": 3530,
      "": 3531,
      "": 3532,
      "": 3533,
      "": 3534,
      "": 3535,
      "": 3536,
      "": 3537,
      "": 3538,
      "": 3539,
      "": 3540,
      "": 3541,
      "": 3542,
      "": 3543,
      "": 3544,
      "": 3545,
      "": 3546,
      "": 3547,
      "": 3548,
      "": 3549,
      "": 3550,
      "": 3551,
      "": 3552,
      "": 3553,
      "": 3554,
      "": 3555,
      "": 3556,
      "": 3557,
      "": 3558,
      "": 3559,
      "": 3560,
      "": 3561,
      "": 3562,
      "": 3563,
      "": 3564,
      "": 3565,
      "": 3566,
      "": 3567,
      "": 3568,
      "": 3569,
      "": 3570,
      "": 3571,
      "": 3572,
      "": 3573,
      "": 3574,
      "": 3575,
      "": 3576,
      "": 3577,
      "": 3578,
      "": 3579,
      "": 3580,
      "": 3581,
      "": 3582,
      "": 3583,
      "": 3584,
      "": 3585,
      "": 3586,
      "": 3587,
      "": 3588,
      "": 3589,
      "": 3590,
      "": 3591,
      "": 3592,
      "": 3593,
      "": 3594,
      "ﬀ": 3595,
      "ﬁ": 3596,
      "ﬂ": 3597,
      "ﬃ": 3598,
      "ﬄ": 3599,
      "ﭩ": 3600,
      "ﭼ": 3601,
      "ﮉ": 3602,
      "ﮐ": 3603,
      "ﮑ": 3604,
      "ﮦ": 3605,
      "ﮯ": 3606,
      "ﯼ": 3607,
      "ﯽ": 3608,
      "ﰲ": 3609,
      "ﱃ": 3610,
      "ﱄ": 3611,
      "ﱐ": 3612,
      "ﱘ": 3613,
      "ﱪ": 3614,
      "ﱯ": 3615,
      "ﱴ": 3616,
      "ﱵ": 3617,
      "ﲎ": 3618,
      "ﲑ": 3619,
      "ﲔ": 3620,
      "ﲜ": 3621,
      "ﲟ": 3622,
      "ﲡ": 3623,
      "ﲢ": 3624,
      "ﲣ": 3625,
      "ﲤ": 3626,
      "ﲨ": 3627,
      "ﲰ": 3628,
      "ﳉ": 3629,
      "ﳊ": 3630,
      "ﳋ": 3631,
      "ﳌ": 3632,
      "ﳍ": 3633,
      "ﳎ": 3634,
      "ﳏ": 3635,
      "ﳐ": 3636,
      "ﳑ": 3637,
      "ﳒ": 3638,
      "ﳓ": 3639,
      "ﳔ": 3640,
      "ﳕ": 3641,
      "ﳘ": 3642,
      "ﳚ": 3643,
      "ﳝ": 3644,
      "﴾": 3645,
      "﴿": 3646,
      "ﶈ": 3647,
      "﷓": 3648,
      "︰": 3649,
      "﹏": 3650,
      "﹝": 3651,
      "﹞": 3652,
      "ﹸ": 3653,
      "ﺁ": 3654,
      "ﺂ": 3655,
      "ﺄ": 3656,
      "ﺆ": 3657,
      "ﺈ": 3658,
      "ﺊ": 3659,
      "ﺋ": 3660,
      "ﺌ": 3661,
      "ﺎ": 3662,
      "ﺐ": 3663,
      "ﺑ": 3664,
      "ﺒ": 3665,
      "ﺔ": 3666,
      "ﺖ": 3667,
      "ﺗ": 3668,
      "ﺘ": 3669,
      "ﺙ": 3670,
      "ﺛ": 3671,
      "ﺜ": 3672,
      "ﺞ": 3673,
      "ﺟ": 3674,
      "ﺠ": 3675,
      "ﺢ": 3676,
      "ﺣ": 3677,
      "ﺤ": 3678,
      "ﺧ": 3679,
      "ﺨ": 3680,
      "ﺪ": 3681,
      "ﺬ": 3682,
      "ﺮ": 3683,
      "ﺰ": 3684,
      "ﺱ": 3685,
      "ﺲ": 3686,
      "ﺳ": 3687,
      "ﺴ": 3688,
      "ﺶ": 3689,
      "ﺷ": 3690,
      "ﺸ": 3691,
      "ﺺ": 3692,
      "ﺻ": 3693,
      "ﺼ": 3694,
      "ﺿ": 3695,
      "ﻀ": 3696,
      "ﻂ": 3697,
      "ﻃ": 3698,
      "ﻄ": 3699,
      "ﻆ": 3700,
      "ﻇ": 3701,
      "ﻈ": 3702,
      "ﻊ": 3703,
      "ﻋ": 3704,
      "ﻌ": 3705,
      "ﻎ": 3706,
      "ﻏ": 3707,
      "ﻐ": 3708,
      "ﻒ": 3709,
      "ﻓ": 3710,
      "ﻔ": 3711,
      "ﻖ": 3712,
      "ﻗ": 3713,
      "ﻘ": 3714,
      "ﻚ": 3715,
      "ﻛ": 3716,
      "ﻜ": 3717,
      "ﻞ": 3718,
      "ﻟ": 3719,
      "ﻠ": 3720,
      "ﻡ": 3721,
      "ﻢ": 3722,
      "ﻣ": 3723,
      "ﻤ": 3724,
      "ﻥ": 3725,
      "ﻦ": 3726,
      "ﻧ": 3727,
      "ﻨ": 3728,
      "ﻪ": 3729,
      "ﻫ": 3730,
      "ﻬ": 3731,
      "ﻮ": 3732,
      "ﻰ": 3733,
      "ﻲ": 3734,
      "ﻳ": 3735,
      "ﻴ": 3736,
      "ﻷ": 3737,
      "ﻸ": 3738,
      "ﻹ": 3739,
      "ﻺ": 3740,
      "ﻻ": 3741,
      "ﻼ": 3742,
      "﻿": 3743,
      "！": 3744,
      "％": 3745,
      "（": 3746,
      "）": 3747,
      "＊": 3748,
      "，": 3749,
      "－": 3750,
      "．": 3751,
      "０": 3752,
      "２": 3753,
      "６": 3754,
      "：": 3755,
      "；": 3756,
      "＝": 3757,
      "？": 3758,
      "［": 3759,
      "＾": 3760,
      "ａ": 3761,
      "ｎ": 3762,
      "ｐ": 3763,
      "ｓ": 3764,
      "～": 3765,
      "､": 3766,
      "ｰ": 3767,
      "ｷ": 3768,
      "ﾩ": 3769,
      "￡": 3770,
      "￼": 3771,
      "�": 3772,
      "𐌰": 3773,
      "𐌴": 3774,
      "𐌸": 3775,
      "𐌼": 3776,
      "𐌽": 3777,
      "𐍃": 3778,
      "𐍉": 3779,
      "𣿿": 3780,
      "񣬰": 3781,
      "񼰺": 3782,
      "󻯣": 3783,
      "##r": 3784,
      "##é": 3785,
      "##c": 3786,
      "##o": 3787,
      "##u": 3788,
      "##v": 3789,
      "##a": 3790,
      "##b": 3791,
      "##l": 3792,
      "##e": 3793,
      "##s": 3794,
      "##i": 3795,
      "##n": 3796,
      "##y": 3797,
      "##d": 3798,
      "##è": 3799,
      "##g": 3800,
      "##p": 3801,
      "##t": 3802,
      "##x": 3803,
      "##m": 3804,
      "##h": 3805,
      "##ē": 3806,
      "##š": 3807,
      "##j": 3808,
      "##4": 3809,
      "##8": 3810,
      "##0": 3811,
      "##k": 3812,
      "##w": 3813,
      "##6": 3814,
      "##7": 3815,
      "##5": 3816,
      "##1": 3817,
      "##ó": 3818,
      "##z": 3819,
      "##q": 3820,
      "##9": 3821,
      "##f": 3822,
      "##å": 3823,
      "##3": 3824,
      "##_": 3825,
      "##2": 3826,
      "##č": 3827,
      "##à": 3828,
      "##î": 3829,
      "##\u0003": 3830,
      "##ù": 3831,
      "##â": 3832,
      "##ë": 3833,
      "##í": 3834,
      "##َ": 3835,
      "##\u001f": 3836,
      "##\u0012": 3837,
      "##\u0014": 3838,
      "##%": 3839,
      "##\u0011": 3840,
      "##\u000e": 3841,
      "##-": 3842,
      "##)": 3843,
      "##ö": 3844,
      "##ο": 3845,
      "##υ": 3846,
      "##¤": 3847,
      "##и": 3848,
      "##т": 3849,
      "##а": 3850,
      "##б": 3851,
      "##е": 3852,
      "##л": 3853,
      "##ь": 3854,
      "##н": 3855,
      "##о": 3856,
      "##с": 3857,
      "##ü": 3858,
      "##ą": 3859,
      "##¿": 3860,
      "##\"": 3861,
      "##\u0015": 3862,
      "##—": 3863,
      "##\u0001": 3864,
      "##\u0007": 3865,
      "##\u0019": 3866,
      "##\u0006": 3867,
      "##α": 3868,
      "##γ": 3869,
      "##ρ": 3870,
      "##φ": 3871,
      "##ή": 3872,
      "##ν": 3873,
      "##ε": 3874,
      "##™": 3875,
      "##": 3876,
      "##ã": 3877,
      "##ž": 3878,
      "##á": 3879,
      "##μ": 3880,
      "##π": 3881,
      "##ί": 3882,
      "##ﬁ": 3883,
      "##": 3884,
      "##": 3885,
      "##": 3886,
      "##ï": 3887,
      "##ت": 3888,
      "##ُ": 3889,
      "##ق": 3890,
      "##ي": 3891,
      "##ْ": 3892,
      "##م": 3893,
      "##η": 3894,
      "##ώ": 3895,
      "##›": 3896,
      "##®": 3897,
      "##ш": 3898,
      "##р": 3899,
      "##я": 3900,
      "##ʹ": 3901,
      "##ä": 3902,
      "##ß": 3903,
      "##ﺪ": 3904,
      "##ر": 3905,
      "##ﻳ": 3906,
      "##ﺐ": 3907,
      "##ú": 3908,
      "##ı": 3909,
      "##ð": 3910,
      "##中": 3911,
      "##包": 3912,
      "##括": 3913,
      "##在": 3914,
      "##共": 3915,
      "##同": 3916,
      "##事": 3917,
      "##务": 3918,
      "##协": 3919,
      "##商": 3920,
      "##委": 3921,
      "##员": 3922,
      "##会": 3923,
      "##内": 3924,
      "##举": 3925,
      "##行": 3926,
      "##’": 3927,
      "##[": 3928,
      "##ç": 3929,
      "##ư": 3930,
      "##ợ": 3931,
      "##ʼ": 3932,
      "##ƒ": 3933,
      "##æ": 3934,
      "##ê": 3935,
      "##(": 3936,
      "##<": 3937,
      "##!": 3938,
      "##٠": 3939,
      "##٣": 3940,
      "##ς": 3941,
      "##ø": 3942,
      "##ū": 3943,
      "##ن": 3944,
      "##و": 3945,
      "##ا": 3946,
      "##ñ": 3947,
      "##": 3948,
      "##": 3949,
      "##": 3950,
      "##": 3951,
      "##": 3952,
      "##'": 3953,
      "##.": 3954,
      "##з": 3955,
      "##й": 3956,
      "##\u0016": 3957,
      "##^": 3958,
      "##\u0002": 3959,
      "##±": 3960,
      "##\u001e": 3961,
      "##ˆ": 3962,
      "##\u0004": 3963,
      "##ô": 3964,
      "##œ": 3965,
      "##м": 3966,
      "##,": 3967,
      "##": 3968,
      "##ī": 3969,
      "##в": 3970,
      "##п": 3971,
      "##к": 3972,
      "##δ": 3973,
      "##顶": 3974,
      "##³": 3975,
      "##µ": 3976,
      "##や": 3977,
      "##か": 3978,
      "##な": 3979,
      "##心": 3980,
      "##遣": 3981,
      "##い": 3982,
      "##も": 3983,
      "##嬉": 3984,
      "##し": 3985,
      "##っ": 3986,
      "##た": 3987,
      "##で": 3988,
      "##す": 3989,
      "##ò": 3990,
      "##д": 3991,
      "##х": 3992,
      "##:": 3993,
      "##¯": 3994,
      "##\u0013": 3995,
      "##\u0017": 3996,
      "##г": 3997,
      "##ё": 3998,
      "##ņ": 3999,
      "##": 4000,
      "##": 4001,
      "##": 4002,
      "##": 4003,
      "##": 4004,
      "##\u000f": 4005,
      "##ʔ": 4006,
      "##}": 4007,
      "##…": 4008,
      "##¹": 4009,
      "##‚": 4010,
      "##;": 4011,
      "##\u001b": 4012,
      "##ł": 4013,
      "##ý": 4014,
      "##ц": 4015,
      "##у": 4016,
      "##ª": 4017,
      "##+": 4018,
      "##ġ": 4019,
      "##": 4020,
      "##õ": 4021,
      "##淹": 4022,
      "##过": 4023,
      "##\u001a": 4024,
      "##²": 4025,
      "##ι": 4026,
      "##ы": 4027,
      "##ю": 4028,
      "##щ": 4029,
      "##ì": 4030,
      "##\u0005": 4031,
      "##\b": 4032,
      "##\u0018": 4033,
      "##~": 4034,
      "##ę": 4035,
      "##&": 4036,
      "##º": 4037,
      "##ế": 4038,
      "##": 4039,
      "##¦": 4040,
      "##§": 4041,
      "##": 4042,
      "##/": 4043,
      "##ć": 4044,
      "##ā": 4045,
      "##]": 4046,
      "##ч": 4047,
      "##ᐧ": 4048,
      "##ᑲ": 4049,
      "##ᑕ": 4050,
      "##ᒥ": 4051,
      "##ᐃ": 4052,
      "##ă": 4053,
      "##τ": 4054,
      "##ύ": 4055,
      "##ų": 4056,
      "##\u0010": 4057,
      "##÷": 4058,
      "##": 4059,
      "##ş": 4060,
      "##ğ": 4061,
      "##λ": 4062,
      "##κ": 4063,
      "##ř": 4064,
      "##ě": 4065,
      "##–": 4066,
      "##θ": 4067,
      "##σ": 4068,
      "##ʺ": 4069,
      "##ﻻ": 4070,
      "##\u001c": 4071,
      "##≤": 4072,
      "##ÿ": 4073,
      "##ﬂ": 4074,
      "##»": 4075,
      "##ű": 4076,
      "##û": 4077,
      "##ъ": 4078,
      "##閥": 4079,
      "##*": 4080,
      "##ŭ": 4081,
      "##ж": 4082,
      "##ń": 4083,
      "##ż": 4084,
      "##̱": 4085,
      "##†": 4086,
      "##ع": 4087,
      "##د": 4088,
      "##ه": 4089,
      "##ĺ": 4090,
      "##≥": 4091,
      "##¶": 4092,
      "##ė": 4093,
      "##`": 4094,
      "##ś": 4095,
      "##€": 4096,
      "##°": 4097,
      "###": 4098,
      "##@": 4099,
      "##$": 4100,
      "##": 4101,
      "##": 4102,
      "##ω": 4103,
      "##×": 4104,
      "##": 4105,
      "##": 4106,
      "##©": 4107,
      "##ﻷ": 4108,
      "##ﺟ": 4109,
      "##ـ": 4110,
      "##ﻮ": 4111,
      "##£": 4112,
      "##�": 4113,
      "##‘": 4114,
      "##": 4115,
      "##̂": 4116,
      "##|": 4117,
      "##": 4118,
      "##ά": 4119,
      "##=": 4120,
      "##{": 4121,
      "##": 4122,
      "##\u001d": 4123,
      "##þ": 4124,
      "##ў": 4125,
      "##´": 4126,
      "##知": 4127,
      "##ф": 4128,
      "##ő": 4129,
      "##ژ": 4130,
      "##¨": 4131,
      "##": 4132,
      "##": 4133,
      "##": 4134,
      "##β": 4135,
      "##）": 4136,
      "##（": 4137,
      "##˜": 4138,
      "##ﳌ": 4139,
      "##ﺨ": 4140,
      "##ﺼ": 4141,
      "##ﺔ": 4142,
      "##”": 4143,
      "##ċ": 4144,
      "##": 4145,
      "##": 4146,
      "##­": 4147,
      "##ﺣ": 4148,
      "##ﻜ": 4149,
      "##ﺎ": 4150,
      "##ǫ": 4151,
      "##‡": 4152,
      "##ň": 4153,
      "##〉": 4154,
      "##«": 4155,
      "##": 4156,
      "##ل": 4157,
      "##ئ": 4158,
      "##ة": 4159,
      "##έ": 4160,
      "##¥": 4161,
      "##": 4162,
      "##主": 4163,
      "##席": 4164,
      "##纪": 4165,
      "##念": 4166,
      "##堂": 4167,
      "##ď": 4168,
      "##ť": 4169,
      "##": 4170,
      "##ţ": 4171,
      "##ב": 4172,
      "##ﺘ": 4173,
      "##ﻨ": 4174,
      "##ﻔ": 4175,
      "##ﻴ": 4176,
      "##ﺬ": 4177,
      "##ħ": 4178,
      "##∅": 4179,
      "##": 4180,
      "##¡": 4181,
      "##đ": 4182,
      "##\\": 4183,
      "##巴": 4184,
      "##勒": 4185,
      "##斯": 4186,
      "##坦": 4187,
      "##领": 4188,
      "##土": 4189,
      "##上": 4190,
      "##的": 4191,
      "##人": 4192,
      "##民": 4193,
      "##和": 4194,
      "##对": 4195,
      "##被": 4196,
      "##占": 4197,
      "##叙": 4198,
      "##利": 4199,
      "##亚": 4200,
      "##戈": 4201,
      "##兰": 4202,
      "##阿": 4203,
      "##拉": 4204,
      "##伯": 4205,
      "##居": 4206,
      "##生": 4207,
      "##活": 4208,
      "##条": 4209,
      "##ɔ": 4210,
      "##́": 4211,
      "##−": 4212,
      "##є": 4213,
      "##і": 4214,
      "##ј": 4215,
      "##‹": 4216,
      "##份": 4217,
      "##證": 4218,
      "##件": 4219,
      "##ص": 4220,
      "##?": 4221,
      "##ζ": 4222,
      "##>": 4223,
      "##ﻟ": 4224,
      "##ﺤ": 4225,
      "##": 4226,
      "##": 4227,
      "##": 4228,
      "##ﺒ": 4229,
      "##ب": 4230,
      "##∼": 4231,
      "##¸": 4232,
      "##½": 4233,
      "##¬": 4234,
      "##ﻣ": 4235,
      "##ﻦ": 4236,
      "##ﺴ": 4237,
      "##¼": 4238,
      "##": 4239,
      "##∂": 4240,
      "##ϊ": 4241,
      "##ό": 4242,
      "##“": 4243,
      "##反": 4244,
      "##∫": 4245,
      "##ס": 4246,
      "##י": 4247,
      "##ע": 4248,
      "##س": 4249,
      "##ᑦ": 4250,
      "##ᓇ": 4251,
      "##ᕈ": 4252,
      "##ᑎ": 4253,
      "##ᖏ": 4254,
      "##ش": 4255,
      "##ء": 4256,
      "##ȣ": 4257,
      "##ґ": 4258,
      "##": 4259,
      "##̇": 4260,
      "##ﬀ": 4261,
      "##‰": 4262,
      "##ّ": 4263,
      "##ج": 4264,
      "##ز": 4265,
      "##": 4266,
      "##": 4267,
      "##": 4268,
      "##": 4269,
      "##": 4270,
      "##ᖃ": 4271,
      "##ᕋ": 4272,
      "##ᓗ": 4273,
      "##ᐊ": 4274,
      "##ᕐ": 4275,
      "##ᓂ": 4276,
      "##χ": 4277,
      "##خ": 4278,
      "##ح": 4279,
      "##ض": 4280,
      "##↓": 4281,
      "##安": 4282,
      "##部": 4283,
      "##„": 4284,
      "##√": 4285,
      "##": 4286,
      "##ψ": 4287,
      "##ģ": 4288,
      "##十": 4289,
      "##路": 4290,
      "##¾": 4291,
      "##←": 4292,
      "##¢": 4293,
      "##": 4294,
      "##": 4295,
      "##类": 4296,
      "##身": 4297,
      "##证": 4298,
      "##ی": 4299,
      "##ђ": 4300,
      "##ќ": 4301,
      "##ѓ": 4302,
      "##供": 4303,
      "##山": 4304,
      "##滑": 4305,
      "##雪": 4306,
      "##∞": 4307,
      "##ﻈ": 4308,
      "##ﺮ": 4309,
      "##나": 4310,
      "##다": 4311,
      "##ŕ": 4312,
      "##较": 4313,
      "##庸": 4314,
      "##": 4315,
      "##ᓄ": 4316,
      "##ᑭ": 4317,
      "##ᐦ": 4318,
      "##ᐁ": 4319,
      "##ᐨ": 4320,
      "##ﻞ": 4321,
      "##■": 4322,
      "##↑": 4323,
      "##ك": 4324,
      "##": 4325,
      "##년": 4326,
      "##子": 4327,
      "##文": 4328,
      "##管": 4329,
      "##理": 4330,
      "##系": 4331,
      "##统": 4332,
      "##ң": 4333,
      "##ḏ": 4334,
      "##أ": 4335,
      "##ط": 4336,
      "##手": 4337,
      "##一": 4338,
      "##辑": 4339,
      "##ů": 4340,
      "##ﻤ": 4341,
      "##١": 4342,
      "##٩": 4343,
      "##ľ": 4344,
      "##ξ": 4345,
      "##年": 4346,
      "##ف": 4347,
      "##": 4348,
      "##建": 4349,
      "##ذ": 4350,
      "##ร": 4351,
      "##็": 4352,
      "##ว": 4353,
      "##ก": 4354,
      "##่": 4355,
      "##า": 4356,
      "##ท": 4357,
      "##เ": 4358,
      "##ส": 4359,
      "##ﻓ": 4360,
      "##ﻘ": 4361,
      "##陶": 4362,
      "##宛": 4363,
      "##": 4364,
      "##蔵": 4365,
      "##門": 4366,
      "##ى": 4367,
      "##ِ": 4368,
      "##ї": 4369,
      "##": 4370,
      "##交": 4371,
      "##月": 4372,
      "##票": 4373,
      "##њ": 4374,
      "##ị": 4375,
      "##ɛ": 4376,
      "##⎯": 4377,
      "##⊂": 4378,
      "##坐": 4379,
      "##下": 4380,
      "##去": 4381,
      "##": 4382,
      "##": 4383,
      "##": 4384,
      "##ﻗ": 4385,
      "##雷": 4386,
      "##德": 4387,
      "##里": 4388,
      "##克": 4389,
      "##松": 4390,
      "##加": 4391,
      "##投": 4392,
      "##数": 4393,
      "##与": 4394,
      "##选": 4395,
      "##总": 4396,
      "##比": 4397,
      "##例": 4398,
      "##غ": 4399,
      "##ﺰ": 4400,
      "##ﺋ": 4401,
      "##第": 4402,
      "##유": 4403,
      "##": 4404,
      "##ป": 4405,
      "##้": 4406,
      "##ง": 4407,
      "##ด": 4408,
      "##ี": 4409,
      "##ห": 4410,
      "##อ": 4411,
      "##ม": 4412,
      "##ล": 4413,
      "##ะ": 4414,
      "##ุ": 4415,
      "##น": 4416,
      "##ｓ": 4417,
      "##国": 4418,
      "##ﻹ": 4419,
      "##天": 4420,
      "##動": 4421,
      "##車": 4422,
      "##産": 4423,
      "##權": 4424,
      "##ᓐ": 4425,
      "##弃": 4426,
      "##权": 4427,
      "##通": 4428,
      "##了": 4429,
      "##这": 4430,
      "##项": 4431,
      "##决": 4432,
      "##议": 4433,
      "##草": 4434,
      "##案": 4435,
      "##ź": 4436,
      "##津": 4437,
      "##ĵ": 4438,
      "##󻯣": 4439,
      "##ﻇ": 4440,
      "##ר": 4441,
      "##ช": 4442,
      "##ื": 4443,
      "##ั": 4444,
      "##ค": 4445,
      "##献": 4446,
      "##ﱪ": 4447,
      "##ﬃ": 4448,
      "##丸": 4449,
      "##列": 4450,
      "##息": 4451,
      "##技": 4452,
      "##术": 4453,
      "##常": 4454,
      "##设": 4455,
      "##ṳ": 4456,
      "##̆": 4457,
      "##ﻠ": 4458,
      "##ﲔ": 4459,
      "##作": 4460,
      "##旅": 4461,
      "##费": 4462,
      "##ﺄ": 4463,
      "##ﻀ": 4464,
      "##ᐅ": 4465,
      "##ᓚ": 4466,
      "##ᖅ": 4467,
      "##ᑐ": 4468,
      "##ᒃ": 4469,
      "##太": 4470,
      "##平": 4471,
      "##洋": 4472,
      "##洲": 4473,
      "##家": 4474,
      "##ѕ": 4475,
      "##ﺗ": 4476,
      "##ō": 4477,
      "##ƙ": 4478,
      "##ᕖ": 4479,
      "##ᓪ": 4480,
      "##の": 4481,
      "##サ": 4482,
      "##イ": 4483,
      "##ト": 4484,
      "##に": 4485,
      "##入": 4486,
      "##て": 4487,
      "##お": 4488,
      "##け": 4489,
      "##ば": 4490,
      "##損": 4491,
      "##は": 4492,
      "##ょ": 4493,
      "##う": 4494,
      "##⇓": 4495,
      "##ҵ": 4496,
      "##ﺈ": 4497,
      "##ﱄ": 4498,
      "##": 4499,
      "##♀": 4500,
      "##政": 4501,
      "##府": 4502,
      "##组": 4503,
      "##织": 4504,
      "##ᒧ": 4505,
      "##ạ": 4506,
      "##ᒋ": 4507,
      "##ᐱ": 4508,
      "##ᑫ": 4509,
      "##ᒪ": 4510,
      "##ᑯ": 4511,
      "##ﻛ": 4512,
      "##ɗ": 4513,
      "##지": 4514,
      "##우": 4515,
      "##练": 4516,
      "##些": 4517,
      "##根": 4518,
      "##据": 4519,
      "##当": 4520,
      "##地": 4521,
      "##使": 4522,
      "##用": 4523,
      "##储": 4524,
      "##存": 4525,
      "##危": 4526,
      "##险": 4527,
      "##物": 4528,
      "##资": 4529,
      "##ᐸ": 4530,
      "##ᔕ": 4531,
      "##ᑌ": 4532,
      "##ᐠ": 4533,
      "##": 4534,
      "##": 4535,
      "##": 4536,
      "##": 4537,
      "##": 4538,
      "##": 4539,
      "##": 4540,
      "##": 4541,
      "##": 4542,
      "##": 4543,
      "##": 4544,
      "##": 4545,
      "##": 4546,
      "##ؤ": 4547,
      "##ﺧ": 4548,
      "##ﯽ": 4549,
      "##어": 4550,
      "##إ": 4551,
      "##": 4552,
      "##˚": 4553,
      "##永": 4554,
      "##康": 4555,
      "##要": 4556,
      "##求": 4557,
      "##严": 4558,
      "##打": 4559,
      "##境": 4560,
      "##外": 4561,
      "##敌": 4562,
      "##势": 4563,
      "##力": 4564,
      "##ﻃ": 4565,
      "##茂": 4566,
      "##楠": 4567,
      "##叫": 4568,
      "##џ": 4569,
      "##ћ": 4570,
      "##љ": 4571,
      "##ﺷ": 4572,
      "##ѯ": 4573,
      "##٢": 4574,
      "##ث": 4575,
      "##得": 4576,
      "##ᔪ": 4577,
      "##ᐤ": 4578,
      "##界": 4579,
      "##来": 4580,
      "##自": 4581,
      "##动": 4582,
      "##由": 4583,
      "##э": 4584,
      "##ﺻ": 4585,
      "##ĩ": 4586,
      "##̌": 4587,
      "##": 4588,
      "##受": 4589,
      "##送": 4590,
      "##信": 4591,
      "##服": 4592,
      "##工": 4593,
      "##计": 4594,
      "##划": 4595,
      "##ủ": 4596,
      "##ŏ": 4597,
      "##ǎ": 4598,
      "##": 4599,
      "##": 4600,
      "##意": 4601,
      "##到": 4602,
      "##结": 4603,
      "##合": 4604,
      "##区": 4605,
      "##域": 4606,
      "##ﻚ": 4607,
      "##于": 4608,
      "##采": 4609,
      "##策": 4610,
      "##发": 4611,
      "##展": 4612,
      "##̀": 4613,
      "##": 4614,
      "##ﺢ": 4615,
      "##′": 4616,
      "##": 4617,
      "##ﻒ": 4618,
      "##问": 4619,
      "##ɂ": 4620,
      "##ぐ": 4621,
      "##ら": 4622,
      "##く": 4623,
      "##頃": 4624,
      "##王": 4625,
      "##卓": 4626,
      "##钧": 4627,
      "##名": 4628,
      "##义": 4629,
      "##介": 4630,
      "##绍": 4631,
      "##题": 4632,
      "##为": 4633,
      "##ﻋ": 4634,
      "##ﺖ": 4635,
      "##ℓ": 4636,
      "##哈": 4637,
      "##": 4638,
      "##祖": 4639,
      "##׵": 4640,
      "##ĝ": 4641,
      "##ﻌ": 4642,
      "##ﺿ": 4643,
      "##ﺞ": 4644,
      "##⎜": 4645,
      "##拿": 4646,
      "##大": 4647,
      "##公": 4648,
      "##明": 4649,
      "##或": 4650,
      "##卡": 4651,
      "##ი": 4652,
      "##უ": 4653,
      "##მ": 4654,
      "##ა": 4655,
      "##萨": 4656,
      "##州": 4657,
      "##が": 4658,
      "##有": 4659,
      "##る": 4660,
      "##』": 4661,
      "##ึ": 4662,
      "##ﻧ": 4663,
      "##分": 4664,
      "##ᓕ": 4665,
      "##ᖁ": 4666,
      "##ᔨ": 4667,
      "##ᓃ": 4668,
      "##ᐣ": 4669,
      "##": 4670,
      "##ဪ": 4671,
      "##·": 4672,
      "##آ": 4673,
      "##์": 4674,
      "##ต": 4675,
      "##ซ": 4676,
      "##ิ": 4677,
      "##ề": 4678,
      "##】": 4679,
      "##ĉ": 4680,
      "##持": 4681,
      "##转": 4682,
      "##递": 4683,
      "##西": 4684,
      "##经": 4685,
      "##济": 4686,
      "##社": 4687,
      "##编": 4688,
      "##写": 4689,
      "##关": 4690,
      "##以": 4691,
      "##色": 4692,
      "##ﳉ": 4693,
      "##出": 4694,
      "##迎": 4695,
      "##ǿ": 4696,
      "##ᓴ": 4697,
      "##ᔩ": 4698,
      "##ﾩ": 4699,
      "##บ": 4700,
      "##ᐡ": 4701,
      "##ᐳ": 4702,
      "##佰": 4703,
      "##ᐯ": 4704,
      "##专": 4705,
      "##局": 4706,
      "##沢": 4707,
      "##阜": 4708,
      "##마": 4709,
      "##托": 4710,
      "##ɲ": 4711,
      "##ﻢ": 4712,
      "##٭": 4713,
      "##‬": 4714,
      "##⁄": 4715,
      "##多": 4716,
      "##ᓯ": 4717,
      "##": 4718,
      "##四": 4719,
      "##届": 4720,
      "##财": 4721,
      "##法": 4722,
      "##律": 4723,
      "##论": 4724,
      "##坛": 4725,
      "##ļ": 4726,
      "##ᔾ": 4727,
      "##艇": 4728,
      "##ג": 4729,
      "##礼": 4730,
      "##テ": 4731,
      "##ル": 4732,
      "##場": 4733,
      "##所": 4734,
      "##良": 4735,
      "##ט": 4736,
      "##ו": 4737,
      "##ᔭ": 4738,
      "##ᕆ": 4739,
      "##ה": 4740,
      "##ً": 4741,
      "##庭": 4742,
      "##日": 4743,
      "##費": 4744,
      "##賬": 4745,
      "##單": 4746,
      "##‏": 4747,
      "##别": 4748,
      "##览": 4749,
      "##込": 4750,
      "##何": 4751,
      "##雇": 4752,
      "##簽": 4753,
      "##發": 4754,
      "##員": 4755,
      "##٦": 4756,
      "##‪": 4757,
      "##支": 4758,
      "##擁": 4759,
      "##配": 4760,
      "##本": 4761,
      "##际": 4762,
      "##劳": 4763,
      "##暂": 4764,
      "##≈": 4765,
      "##ﻫ": 4766,
      "##ﺸ": 4767,
      "##ﺌ": 4768,
      "##茅": 4769,
      "##ย": 4770,
      "##识": 4771,
      "##间": 4772,
      "##艺": 4773,
      "##ả": 4774,
      "##٤": 4775,
      "##溜": 4776,
      "##曼": 4777,
      "##೯": 4778,
      "##೭": 4779,
      "##೫": 4780,
      "##次": 4781,
      "##": 4782,
      "##٨": 4783,
      "##ﶈ": 4784,
      "##ﻲ": 4785,
      "##优": 4786,
      "##秀": 4787,
      "##化": 4788,
      "##基": 4789,
      "##金": 4790,
      "##چ": 4791,
      "##ﺳ": 4792,
      "##ﻄ": 4793,
      "##ﻊ": 4794,
      "##代": 4795,
      "##学": 4796,
      "##∆": 4797,
      "##": 4798,
      "##尔": 4799,
      "##吉": 4800,
      "##特": 4801,
      "##ﻖ": 4802,
      "##공": 4803,
      "##합": 4804,
      "##니": 4805,
      "##": 4806,
      "##": 4807,
      "##": 4808,
      "##": 4809,
      "##": 4810,
      "##": 4811,
      "##": 4812,
      "##待": 4813,
      "##•": 4814,
      "##⌦": 4815,
      "##衫": 4816,
      "##ﻬ": 4817,
      "##୦": 4818,
      "##‑": 4819,
      "##其": 4820,
      "##收": 4821,
      "##ข": 4822,
      "##แ": 4823,
      "##ใ": 4824,
      "##ไ": 4825,
      "##ם": 4826,
      "##ș": 4827,
      "##ỗ": 4828,
      "##ำ": 4829,
      "##版": 4830,
      "##南": 4831,
      "##联": 4832,
      "##盟": 4833,
      "##音": 4834,
      "##ミ": 4835,
      "##ク": 4836,
      "##ﺲ": 4837,
      "##ﻼ": 4838,
      "##": 4839,
      "##": 4840,
      "##ᔑ": 4841,
      "##ŝ": 4842,
      "##木": 4843,
      "##修": 4844,
      "##∗": 4845,
      "##→": 4846,
      "##护": 4847,
      "##全": 4848,
      "##□": 4849,
      "##ﳊ": 4850,
      "##ﻏ": 4851,
      "##ồ": 4852,
      "##": 4853,
      "##": 4854,
      "##": 4855,
      "##": 4856,
      "##๑": 4857,
      "##成": 4858,
      "##皇": 4859,
      "##렉": 4860,
      "##상": 4861,
      "##드": 4862,
      "##르": 4863,
      "##京": 4864,
      "##首": 4865,
      "##最": 4866,
      "##高": 4867,
      "##院": 4868,
      "##复": 4869,
      "##核": 4870,
      "##死": 4871,
      "##刑": 4872,
      "##犯": 4873,
      "##昨": 4874,
      "##执": 4875,
      "##ﺜ": 4876,
      "##徳": 4877,
      "##房": 4878,
      "##舍": 4879,
      "##轻": 4880,
      "##微": 4881,
      "##改": 4882,
      "##造": 4883,
      "##不": 4884,
      "##奸": 4885,
      "##청": 4886,
      "##의": 4887,
      "##表": 4888,
      "##达": 4889,
      "##ד": 4890,
      "##פ": 4891,
      "##٧": 4892,
      "##ķ": 4893,
      "##į": 4894,
      "##★": 4895,
      "##申": 4896,
      "##ᔫ": 4897,
      "##": 4898,
      "##ỏ": 4899,
      "##ں": 4900,
      "##油": 4901,
      "##也": 4902,
      "##门": 4903,
      "##体": 4904,
      "##ˇ": 4905,
      "##ɓ": 4906,
      "##˾": 4907,
      "##传": 4908,
      "##输": 4909,
      "##械": 4910,
      "##媒": 4911,
      "##产": 4912,
      "##品": 4913,
      "##하": 4914,
      "##여": 4915,
      "##镜": 4916,
      "##ﲰ": 4917,
      "##٥": 4918,
      "##痛": 4919,
      "##起": 4920,
      "##步": 4921,
      "##כ": 4922,
      "##": 4923,
      "##화": 4924,
      "##로": 4925,
      "##ự": 4926,
      "##ﱵ": 4927,
      "##ל": 4928,
      "##缴": 4929,
      "##办": 4930,
      "##נ": 4931,
      "##ת": 4932,
      "##": 4933,
      "##取": 4934,
      "##期": 4935,
      "##毒": 4936,
      "##制": 4937,
      "##预": 4938,
      "##防": 4939,
      "##罪": 4940,
      "##度": 4941,
      "##": 4942,
      "##ĕ": 4943,
      "##": 4944,
      "##һ": 4945,
      "##つ": 4946,
      "##わ": 4947,
      "##舞": 4948,
      "##○": 4949,
      "##ờ": 4950,
      "##直": 4951,
      "##江": 4952,
      "##马": 4953,
      "##ک": 4954,
      "##校": 4955,
      "##񼰺": 4956,
      "##川": 4957,
      "##": 4958,
      "##": 4959,
      "##": 4960,
      "##": 4961,
      "##": 4962,
      "##": 4963,
      "##增": 4964,
      "##圆": 4965,
      "##ﬄ": 4966,
      "##ǖ": 4967,
      "##": 4968,
      "##ț": 4969,
      "##": 4970,
      "##": 4971,
      "##": 4972,
      "##": 4973,
      "##": 4974,
      "##": 4975,
      "##": 4976,
      "##": 4977,
      "##": 4978,
      "##": 4979,
      "##": 4980,
      "##整": 4981,
      "##顿": 4982,
      "##市": 4983,
      "##容": 4984,
      "##借": 4985,
      "##": 4986,
      "##ा": 4987,
      "##ब": 4988,
      "##र": 4989,
      "##ि": 4990,
      "##य": 4991,
      "##◊": 4992,
      "##粉": 4993,
      "##ק": 4994,
      "##ﺆ": 4995,
      "##世": 4996,
      "##語": 4997,
      "##約": 4998,
      "##目": 4999,
      "##‌": 5000,
      "##║": 5001,
      "##پ": 5002,
      "##": 5003,
      "##ễ": 5004,
      "##泳": 5005,
      "##戴": 5006,
      "##保": 5007,
      "##具": 5008,
      "##背": 5009,
      "##维": 5010,
      "##施": 5011,
      "##ﻐ": 5012,
      "##̨": 5013,
      "##棋": 5014,
      "##": 5015,
      "##": 5016,
      "##": 5017,
      "##": 5018,
      "##个": 5019,
      "##正": 5020,
      "##摊": 5021,
      "##参": 5022,
      "##者": 5023,
      "##ﺠ": 5024,
      "##小": 5025,
      "##企": 5026,
      "##业": 5027,
      "##୫": 5028,
      "##져": 5029,
      "##ณ": 5030,
      "##จ": 5031,
      "##พ": 5032,
      "##﴿": 5033,
      "##●": 5034,
      "##款": 5035,
      "##↔": 5036,
      "##": 5037,
      "##": 5038,
      "##": 5039,
      "##": 5040,
      "##": 5041,
      "##": 5042,
      "##": 5043,
      "##": 5044,
      "##戸": 5045,
      "##무": 5046,
      "##ʌ": 5047,
      "##庆": 5048,
      "##火": 5049,
      "##车": 5050,
      "##北": 5051,
      "##站": 5052,
      "##ู": 5053,
      "##ﻎ": 5054,
      "##ϕ": 5055,
      "##도": 5056,
      "##술": 5057,
      "##汤": 5058,
      "##种": 5059,
      "##方": 5060,
      "##黎": 5061,
      "##": 5062,
      "##老": 5063,
      "##兵": 5064,
      "##務": 5065,
      "##健": 5066,
      "##ộ": 5067,
      "##≡": 5068,
      "##及": 5069,
      "##爱": 5070,
      "##": 5071,
      "##欧": 5072,
      "##": 5073,
      "##": 5074,
      "##髻": 5075,
      "##ĳ": 5076,
      "##ə": 5077,
      "##籍": 5078,
      "##ᓵ": 5079,
      "##晶": 5080,
      "##요": 5081,
      "##ﻰ": 5082,
      "##∴": 5083,
      "##约": 5084,
      "##承": 5085,
      "##隆": 5086,
      "##迪": 5087,
      "##ﻂ": 5088,
      "##ϋ": 5089,
      "##观": 5090,
      "##标": 5091,
      "##志": 5092,
      "##豆": 5093,
      "##情": 5094,
      "##况": 5095,
      "##線": 5096,
      "##百": 5097,
      "##零": 5098,
      "##צ": 5099,
      "##ầ": 5100,
      "##登": 5101,
      "##记": 5102,
      "##": 5103,
      "##吹": 5104,
      "##飞": 5105,
      "##臂": 5106,
      "##挡": 5107,
      "##न": 5108,
      "##े": 5109,
      "##ं": 5110,
      "##▬": 5111,
      "##►": 5112,
      "##": 5113,
      "##塞": 5114,
      "##夫": 5115,
      "##原": 5116,
      "##能": 5117,
      "##机": 5118,
      "##构": 5119,
      "##实": 5120,
      "##验": 5121,
      "##室": 5122,
      "##纳": 5123,
      "##提": 5124,
      "##咨": 5125,
      "##询": 5126,
      "##见": 5127,
      "##并": 5128,
      "##退": 5129,
      "##休": 5130,
      "##竹": 5131,
      "##浦": 5132,
      "##♦": 5133,
      "##ℇ": 5134,
      "##面": 5135,
      "##前": 5136,
      "##秘": 5137,
      "##ȩ": 5138,
      "##ラ": 5139,
      "##ナ": 5140,
      "##ド": 5141,
      "##ȗ": 5142,
      "##ല": 5143,
      "##യ": 5144,
      "##ാ": 5145,
      "##ള": 5146,
      "##ം": 5147,
      "##般": 5148,
      "##힌": 5149,
      "##ﻪ": 5150,
      "##ᕕ": 5151,
      "##ᖓ": 5152,
      "##โ": 5153,
      "##ẩ": 5154,
      "##ứ": 5155,
      "##典": 5156,
      "##": 5157,
      "##": 5158,
      "##": 5159,
      "##": 5160,
      "##宅": 5161,
      "##電": 5162,
      "##話": 5163,
      "##司": 5164,
      "##ố": 5165,
      "##晚": 5166,
      "##报": 5167,
      "##教": 5168,
      "##育": 5169,
      "##": 5170,
      "##书": 5171,
      "##ﮉ": 5172,
      "##": 5173,
      "##": 5174,
      "##": 5175,
      "##馬": 5176,
      "##ၱ": 5177,
      "##": 5178,
      "##伊": 5179,
      "##稲": 5180,
      "##荣": 5181,
      "##䨂": 5182,
      "##䨢": 5183,
      "##䰂": 5184,
      "##䰄": 5185,
      "##䰚": 5186,
      "##䰨": 5187,
      "##䰦": 5188,
      "##䰪": 5189,
      "##ỳ": 5190,
      "##向": 5191,
      "##排": 5192,
      "##落": 5193,
      "##水": 5194,
      "##池": 5195,
      "##鑒": 5196,
      "##別": 5197,
      "##ұ": 5198,
      "##ﱯ": 5199,
      "##불": 5200,
      "##을": 5201,
      "##ệ": 5202,
      "##贸": 5203,
      "##易": 5204,
      "##购": 5205,
      "##价": 5206,
      "##值": 5207,
      "##万": 5208,
      "##美": 5209,
      "##元": 5210,
      "##《": 5211,
      "##든": 5212,
      "##ﲑ": 5213,
      "##": 5214,
      "##程": 5215,
      "##ᓱ": 5216,
      "##짜": 5217,
      "##소": 5218,
      "##": 5219,
      "##♂": 5220,
      "##余": 5221,
      "##晏": 5222,
      "##ﲤ": 5223,
      "##": 5224,
      "##": 5225,
      "##": 5226,
      "##": 5227,
      "##": 5228,
      "##": 5229,
      "##シ": 5230,
      "##リ": 5231,
      "##ー": 5232,
      "##ズ": 5233,
      "##措": 5234,
      "##塔": 5235,
      "##ᐢ": 5236,
      "##丨": 5237,
      "##台": 5238,
      "##重": 5239,
      "##综": 5240,
      "##筑": 5241,
      "##进": 5242,
      "##巡": 5243,
      "##逻": 5244,
      "##检": 5245,
      "##查": 5246,
      "##备": 5247,
      "##几": 5248,
      "##朋": 5249,
      "##友": 5250,
      "##牌": 5251,
      "##相": 5252,
      "##简": 5253,
      "##录": 5254,
      "##기": 5255,
      "##帮": 5256,
      "##搞": 5257,
      "##障": 5258,
      "##现": 5259,
      "##风": 5260,
      "##格": 5261,
      "##ך": 5262,
      "##師": 5263,
      "##ヒ": 5264,
      "##ッ": 5265,
      "##マ": 5266,
      "##ン": 5267,
      "##店": 5268,
      "##兆": 5269,
      "##字": 5270,
      "##节": 5271,
      "##ǔ": 5272,
      "##액": 5273,
      "##型": 5274,
      "##א": 5275,
      "##제": 5276,
      "##에": 5277,
      "##": 5278,
      "##姓": 5279,
      "##ᕙ": 5280,
      "##ん": 5281,
      "##耳": 5282,
      "##": 5283,
      "##影": 5284,
      "##响": 5285,
      "##订": 5286,
      "##ᑉ": 5287,
      "##ᖑ": 5288,
      "##ᖢ": 5289,
      "##円": 5290,
      "##と": 5291,
      "##よ": 5292,
      "##そ": 5293,
      "##値": 5294,
      "##段": 5295,
      "##を": 5296,
      "##话": 5297,
      "##讨": 5298,
      "##之": 5299,
      "##后": 5300,
      "##ュ": 5301,
      "##ổ": 5302,
      "##フ": 5303,
      "##ィ": 5304,
      "##ャ": 5305,
      "##ग": 5306,
      "##म": 5307,
      "##थ": 5308,
      "##助": 5309,
      "##网": 5310,
      "##險": 5311,
      "##ᔮ": 5312,
      "##ᒻ": 5313,
      "##": 5314,
      "##停": 5315,
      "##场": 5316,
      "##ĭ": 5317,
      "##ớ": 5318,
      "##电": 5319,
      "##ᒦ": 5320,
      "##ϑ": 5321,
      "##본": 5322,
      "##赤": 5323,
      "##岭": 5324,
      "##": 5325,
      "##士": 5326,
      "##ᓀ": 5327,
      "##०": 5328,
      "##४": 5329,
      "##ԥ": 5330,
      "##選": 5331,
      "##舉": 5332,
      "##延": 5333,
      "##续": 5334,
      "##花": 5335,
      "##": 5336,
      "##ﳋ": 5337,
      "##视": 5338,
      "##频": 5339,
      "##光": 5340,
      "##盘": 5341,
      "##ϵ": 5342,
      "##ấ": 5343,
      "##解": 5344,
      "##释": 5345,
      "##图": 5346,
      "##片": 5347,
      "##법": 5348,
      "##五": 5349,
      "##מ": 5350,
      "##ש": 5351,
      "##该": 5352,
      "##留": 5353,
      "##时": 5354,
      "##業": 5355,
      "##揃": 5356,
      "##ﱃ": 5357,
      "##鄉": 5358,
      "##ﺑ": 5359,
      "##黄": 5360,
      "##泉": 5361,
      "##ﱐ": 5362,
      "##˝": 5363,
      "##⊇": 5364,
      "##ȇ": 5365,
      "##̶": 5366,
      "##": 5367,
      "##略": 5368,
      "##规": 5369,
      "##研": 5370,
      "##究": 5371,
      "##ケ": 5372,
      "##货": 5373,
      "##駛": 5374,
      "##執": 5375,
      "##照": 5376,
      "##명": 5377,
      "##서": 5378,
      "##": 5379,
      "##ლ": 5380,
      "##ე": 5381,
      "##ქ": 5382,
      "##ს": 5383,
      "##ნ": 5384,
      "##დ": 5385,
      "##რ": 5386,
      "##ṭ": 5387,
      "##请": 5388,
      "##捐": 5389,
      "##治": 5390,
      "##二": 5391,
      "##难": 5392,
      "##择": 5393,
      "##経": 5394,
      "##定": 5395,
      "##算": 5396,
      "##将": 5397,
      "##印": 5398,
      "##ͳ": 5399,
      "##ᑏ": 5400,
      "##ף": 5401,
      "##⌂": 5402,
      "##古": 5403,
      "##授": 5404,
      "##遠": 5405,
      "##歌": 5406,
      "##姫": 5407,
      "##萄": 5408,
      "##牙": 5409,
      "##桥": 5410,
      "##圭": 5411,
      "##科": 5412,
      "##告": 5413,
      "##": 5414,
      "##符": 5415,
      "##―": 5416,
      "##足": 5417,
      "##त": 5418,
      "##ी": 5419,
      "##♥": 5420,
      "##波": 5421,
      "##丽": 5422,
      "##三": 5423,
      "##恢": 5424,
      "##復": 5425,
      "##器": 5426,
      "##ᓭ": 5427,
      "##廉": 5428,
      "##担": 5429,
      "##세": 5430,
      "##锚": 5431,
      "##宜": 5432,
      "##パ": 5433,
      "##あ": 5434,
      "##ず": 5435,
      "##さ": 5436,
      "##球": 5437,
      "##苏": 5438,
      "##黛": 5439,
      "##稅": 5440,
      "##評": 5441,
      "##估": 5442,
      "##那": 5443,
      "##記": 5444,
      "##ﳒ": 5445,
      "##帐": 5446,
      "##│": 5447,
      "##接": 5448,
      "##附": 5449,
      "##행": 5450,
      "##‎": 5451,
      "##庁": 5452,
      "##千": 5453,
      "##─": 5454,
      "##ᕗ": 5455,
      "##新": 5456,
      "##更": 5457,
      "##対": 5458,
      "##象": 5459,
      "##ォ": 5460,
      "##カ": 5461,
      "##ど": 5462,
      "##想": 5463,
      "##找": 5464,
      "##": 5465,
      "##純": 5466,
      "##ᒐ": 5467,
      "##雄": 5468,
      "##̄": 5469,
      "##处": 5470,
      "##辅": 5471,
      "##⊕": 5472,
      "##连": 5473,
      "##≠": 5474,
      "##往": 5475,
      "##搗": 5476,
      "##き": 5477,
      "##城": 5478,
      "##ผ": 5479,
      "##则": 5480,
      "##": 5481,
      "##ᖕ": 5482,
      "##长": 5483,
      "##耶": 5484,
      "##撒": 5485,
      "##冷": 5486,
      "##": 5487,
      "##況": 5488,
      "##ხ": 5489,
      "##": 5490,
      "##": 5491,
      "##ᓰ": 5492,
      "##非": 5493,
      "##": 5494,
      "##": 5495,
      "##ﯼ": 5496,
      "##ḥ": 5497,
      "##گ": 5498,
      "##爪": 5499,
      "##琴": 5500,
      "##套": 5501,
      "##メ": 5502,
      "##": 5503,
      "##თ": 5504,
      "##ო": 5505,
      "##ถ": 5506,
      "##撮": 5507,
      "##": 5508,
      "##ⴞ": 5509,
      "##": 5510,
      "##對": 5511,
      "##̤": 5512,
      "##租": 5513,
      "##ᒍ": 5514,
      "##ظ": 5515,
      "##可": 5516,
      "##升": 5517,
      "##级": 5518,
      "##七": 5519,
      "##": 5520,
      "##海": 5521,
      "##玲": 5522,
      "##೦": 5523,
      "##": 5524,
      "##": 5525,
      "##": 5526,
      "##ᕌ": 5527,
      "##运": 5528,
      "##✢": 5529,
      "##‫": 5530,
      "##流": 5531,
      "##依": 5532,
      "##遇": 5533,
      "##好": 5534,
      "##住": 5535,
      "##宿": 5536,
      "##島": 5537,
      "##漢": 5538,
      "##儀": 5539,
      "##": 5540,
      "##武": 5541,
      "##ṇ": 5542,
      "##枚": 5543,
      "##蒋": 5544,
      "##需": 5545,
      "##福": 5546,
      "##幌": 5547,
      "##보": 5548,
      "##港": 5549,
      "##互": 5550,
      "##仲": 5551,
      "##裁": 5552,
      "##伝": 5553,
      "##注": 5554,
      "##๊": 5555,
      "##笔": 5556,
      "##减": 5557,
      "##少": 5558,
      "##肃": 5559,
      "##ᓅ": 5560,
      "##户": 5561,
      "##田": 5562,
      "##∀": 5563,
      "##↗": 5564,
      "##む": 5565,
      "##み": 5566,
      "##り": 5567,
      "##暖": 5568,
      "##气": 5569,
      "##应": 5570,
      "##": 5571,
      "##ﺊ": 5572,
      "##ᑖ": 5573,
      "##ᓘ": 5574,
      "##布": 5575,
      "##韦": 5576,
      "##✓": 5577,
      "##": 5578,
      "##글": 5579,
      "##∝": 5580,
      "##警": 5581,
      "##察": 5582,
      "##￼": 5583,
      "##": 5584,
      "##债": 5585,
      "##": 5586,
      "##葉": 5587,
      "##鲁": 5588,
      "##开": 5589,
      "##各": 5590,
      "##做": 5591,
      "##先": 5592,
      "##": 5593,
      "##∑": 5594,
      "##郎": 5595,
      "##ᒡ": 5596,
      "##護": 5597,
      "##ﺂ": 5598,
      "##ﺛ": 5599,
      "##პ": 5600,
      "##ﲨ": 5601,
      "##朱": 5602,
      "##사": 5603,
      "##관": 5604,
      "##ḵ": 5605,
      "##қ": 5606,
      "##ま": 5607,
      "##顾": 5608,
      "##責": 5609,
      "##位": 5610,
      "##『": 5611,
      "##̍": 5612,
      "##ΰ": 5613,
      "##森": 5614,
      "##ǒ": 5615,
      "##": 5616,
      "##‐": 5617,
      "##ụ": 5618,
      "##˙": 5619,
      "##聚": 5620,
      "##負": 5621,
      "##시": 5622,
      "##‭": 5623,
      "##责": 5624,
      "##任": 5625,
      "##聞": 5626,
      "##־": 5627,
      "##ศ": 5628,
      "##ๆ": 5629,
      "##ֿ": 5630,
      "##ן": 5631,
      "##れ": 5632,
      "##ジ": 5633,
      "##ノ": 5634,
      "##ậ": 5635,
      "##量": 5636,
      "##说": 5637,
      "##軍": 5638,
      "##⁪": 5639,
      "##ҡ": 5640,
      "##鸣": 5641,
      "##レ": 5642,
      "##،": 5643,
      "##账": 5644,
      "##单": 5645,
      "##ﻸ": 5646,
      "##죄": 5647,
      "##辞": 5648,
      "##習": 5649,
      "##會": 5650,
      "##便": 5651,
      "##러": 5652,
      "##赛": 5653,
      "##": 5654,
      "##◆": 5655,
      "##确": 5656,
      "##质": 5657,
      "##": 5658,
      "##學": 5659,
      "##抵": 5660,
      "##異": 5661,
      "##於": 5662,
      "##孟": 5663,
      "##妖": 5664,
      "##誕": 5665,
      "##甸": 5666,
      "##岛": 5667,
      "##인": 5668,
      "##ṣ": 5669,
      "##ĥ": 5670,
      "##ә": 5671,
      "##۶": 5672,
      "##洛": 5673,
      "##哥": 5674,
      "##": 5675,
      "##衣": 5676,
      "##干": 5677,
      "##洗": 5678,
      "##ᔓ": 5679,
      "##ᕑ": 5680,
      "##撤": 5681,
      "##销": 5682,
      "##完": 5683,
      "##许": 5684,
      "##洁": 5685,
      "##飼": 5686,
      "##": 5687,
      "##ガ": 5688,
      "##偿": 5689,
      "##还": 5690,
      "##ธ": 5691,
      "##ғ": 5692,
      "##": 5693,
      "##": 5694,
      "##寺": 5695,
      "##调": 5696,
      "##۳": 5697,
      "##計": 5698,
      "##劃": 5699,
      "##細": 5700,
      "##ᑑ": 5701,
      "##ퟒ": 5702,
      "##": 5703,
      "##付": 5704,
      "##縄": 5705,
      "##県": 5706,
      "##按": 5707,
      "##此": 5708,
      "##键": 5709,
      "##示": 5710,
      "##范": 5711,
      "##餅": 5712,
      "##": 5713,
      "##啦": 5714,
      "##済": 5715,
      "##ネ": 5716,
      "##ス": 5717,
      "##始": 5718,
      "##井": 5719,
      "##吴": 5720,
      "##宝": 5721,
      "##玉": 5722,
      "##ၝ": 5723,
      "##岡": 5724,
      "##끼": 5725,
      "##를": 5726,
      "##": 5727,
      "##ᵉ": 5728,
      "##媛": 5729,
      "##◄": 5730,
      "##❚": 5731,
      "##ひ": 5732,
      "##際": 5733,
      "##ỉ": 5734,
      "##址": 5735,
      "##": 5736,
      "##獻": 5737,
      "##血": 5738,
      "##父": 5739,
      "##": 5740,
      "##": 5741,
      "##": 5742,
      "##角": 5743,
      "##ฉ": 5744,
      "##降": 5745,
      "##農": 5746,
      "##関": 5747,
      "##環": 5748,
      "##就": 5749,
      "##刚": 5750,
      "##移": 5751,
      "##ア": 5752,
      "##ウ": 5753,
      "##粮": 5754,
      "##农": 5755,
      "##ざ": 5756,
      "##ŵ": 5757,
      "##ٷ": 5758,
      "##ữ": 5759,
      "##̊": 5760,
      "##陈": 5761,
      "##铭": 5762,
      "##ᓈ": 5763,
      "##娅": 5764,
      "##": 5765,
      "##逸": 5766,
      "##": 5767,
      "##獵": 5768,
      "##损": 5769,
      "##唸": 5770,
      "##과": 5771,
      "##佑": 5772,
      "##空": 5773,
      "##": 5774,
      "##만": 5775,
      "##样": 5776,
      "##冰": 5777,
      "##迅": 5778,
      "##载": 5779,
      "##蔓": 5780,
      "##藤": 5781,
      "##義": 5782,
      "##呼": 5783,
      "##ǧ": 5784,
      "##": 5785,
      "##ｰ": 5786,
      "##": 5787,
      "##揭": 5788,
      "##協": 5789,
      "##չ": 5790,
      "##ʾ": 5791,
      "##ṃ": 5792,
      "##̥": 5793,
      "##": 5794,
      "##监": 5795,
      "##督": 5796,
      "##厅": 5797,
      "##审": 5798,
      "##拟": 5799,
      "##覇": 5800,
      "##堡": 5801,
      "##্": 5802,
      "##য": 5803,
      "##ু": 5804,
      "##ম": 5805,
      "##া": 5806,
      "##屄": 5807,
      "##이": 5808,
      "##학": 5809,
      "##교": 5810,
      "##⊃": 5811,
      "##⌫": 5812,
      "##": 5813,
      "##": 5814,
      "##秉": 5815,
      "##官": 5816,
      "##ﳚ": 5817,
      "##净": 5818,
      "##额": 5819,
      "##ɾ": 5820,
      "##⅝": 5821,
      "##ム": 5822,
      "##ǻ": 5823,
      "##″": 5824,
      "##板": 5825,
      "##批": 5826,
      "##准": 5827,
      "##、": 5828,
      "##急": 5829,
      "##診": 5830,
      "##滩": 5831,
      "##戯": 5832,
      "##⣬": 5833,
      "##ơ": 5834,
      "##瓜": 5835,
      "##东": 5836,
      "##׀": 5837,
      "##猎": 5838,
      "##畿": 5839,
      "##船": 5840,
      "##径": 5841,
      "##ڈ": 5842,
      "##消": 5843,
      "##除": 5844,
      "##限": 5845,
      "##尼": 5846,
      "##刷": 5847,
      "##致": 5848,
      "##诠": 5849,
      "##译": 5850,
      "##俄": 5851,
      "##香": 5852,
      "##ℜ": 5853,
      "##資": 5854,
      "##訊": 5855,
      "##種": 5856,
      "##裔": 5857,
      "##言": 5858,
      "##佈": 5859,
      "##網": 5860,
      "##继": 5861,
      "##穿": 5862,
      "##回": 5863,
      "##용": 5864,
      "##정": 5865,
      "##ể": 5866,
      "##許": 5867,
      "##ŀ": 5868,
      "##": 5869,
      "##": 5870,
      "##": 5871,
      "##ﮯ": 5872,
      "##駄": 5873,
      "##だ": 5874,
      "##思": 5875,
      "##름": 5876,
      "##每": 5877,
      "##̹": 5878,
      "##甘": 5879,
      "##임": 5880,
      "##ү": 5881,
      "##ָ": 5882,
      "##跟": 5883,
      "##鞋": 5884,
      "##咬": 5885,
      "##紧": 5886,
      "##ᴹ": 5887,
      "##ᴰ": 5888,
      "##两": 5889,
      "##脚": 5890,
      "##战": 5891,
      "##置": 5892,
      "##越": 5893,
      "##ὺ": 5894,
      "##纽": 5895,
      "##性": 5896,
      "##ゃ": 5897,
      "##せ": 5898,
      "##换": 5899,
      "##操": 5900,
      "##": 5901,
      "##━": 5902,
      "##娜": 5903,
      "##控": 5904,
      "##速": 5905,
      "##变": 5906,
      "##庫": 5907,
      "##源": 5908,
      "##ヤ": 5909,
      "##ご": 5910,
      "##ῆ": 5911,
      "##라": 5912,
      "##고": 5913,
      "##若": 5914,
      "##妻": 5915,
      "##道": 5916,
      "##顮": 5917,
      "##착": 5918,
      "##금": 5919,
      "##乐": 5920,
      "##队": 5921,
      "##ﱴ": 5922,
      "##奉": 5923,
      "##還": 5924,
      "##口": 5925,
      "##着": 5926,
      "##博": 5927,
      "##娱": 5928,
      "##语": 5929,
      "##他": 5930,
      "##午": 5931,
      "##伏": 5932,
      "##鉴": 5933,
      "##八": 5934,
      "##没": 5935,
      "##オ": 5936,
      "##判": 5937,
      "##翁": 5938,
      "##珠": 5939,
      "##ც": 5940,
      "##ვ": 5941,
      "##議": 5942,
      "##論": 5943,
      "##척": 5944,
      "##ษ": 5945,
      "##贴": 5946,
      "##宁": 5947,
      "##̩": 5948,
      "##": 5949,
      "##報": 5950,
      "##績": 5951,
      "##‛": 5952,
      "##抜": 5953,
      "##签": 5954,
      "##邮": 5955,
      "##袋": 5956,
      "##涌": 5957,
      "##谷": 5958,
      "##浜": 5959,
      "##坑": 5960,
      "##儒": 5961,
      "##ͺ": 5962,
      "##赞": 5963,
      "##∏": 5964,
      "##ח": 5965,
      "##形": 5966,
      "##氧": 5967,
      "##糖": 5968,
      "##酸": 5969,
      "##ẕ": 5970,
      "##倍": 5971,
      "##索": 5972,
      "##买": 5973,
      "##야": 5974,
      "##書": 5975,
      "##清": 5976,
      "##련": 5977,
      "##デ": 5978,
      "##ァ": 5979,
      "##效": 5980,
      "##ѥ": 5981,
      "##통": 5982,
      "##장": 5983,
      "##﹏": 5984,
      "##。": 5985,
      "##春": 5986,
      "##泥": 5987,
      "##野": 5988,
      "##駅": 5989,
      "##ﳔ": 5990,
      "##ᵐ": 5991,
      "##ぽ": 5992,
      "##": 5993,
      "##囲": 5994,
      "##御": 5995,
      "##座": 5996,
      "##५": 5997,
      "##ۚ": 5998,
      "##園": 5999,
      "##革": 6000,
      "##는": 6001,
      "##ニ": 6002,
      "##ﺙ": 6003,
      "##▼": 6004,
      "##​": 6005,
      "##": 6006,
      "##": 6007,
      "##당": 6008,
      "##됩": 6009,
      "##한": 6010,
      "##呆": 6011,
      "##洪": 6012,
      "##益": 6013,
      "##콨": 6014,
      "##罗": 6015,
      "##梯": 6016,
      "##⋅": 6017,
      "##悬": 6018,
      "##疑": 6019,
      "##ẽ": 6020,
      "##✆": 6021,
      "##✉": 6022,
      "##是": 6023,
      "##率": 6024,
      "##层": 6025,
      "##ᔅ": 6026,
      "##ắ": 6027,
      "##享": 6028,
      "##磁": 6029,
      "##郭": 6030,
      "##冠": 6031,
      "##英": 6032,
      "##忠": 6033,
      "##̵": 6034,
      "##ტ": 6035,
      "##გ": 6036,
      "##შ": 6037,
      "##׼": 6038,
      "##切": 6039,
      "##腹": 6040,
      "##吗": 6041,
      "##ᕿ": 6042,
      "##广": 6043,
      "##ａ": 6044,
      "##ｐ": 6045,
      "##ｎ": 6046,
      "##ہ": 6047,
      "##ừ": 6048,
      "##踪": 6049,
      "##等": 6050,
      "##紹": 6051,
      "##ז": 6052,
      "##ﰲ": 6053,
      "##夠": 6054,
      "##看": 6055,
      "##ገ": 6056,
      "##ስ": 6057,
      "##ት": 6058,
      "##ᐴ": 6059,
      "##޺": 6060,
      "##ᓖ": 6061,
      "##白": 6062,
      "##バ": 6063,
      "##飾": 6064,
      "##ẻ": 6065,
      "##코": 6066,
      "##노": 6067,
      "##미": 6068,
      "##스": 6069,
      "##트": 6070,
      "##集": 6071,
      "##兹": 6072,
      "##敏": 6073,
      "##独": 6074,
      "##立": 6075,
      "##吧": 6076,
      "##点": 6077,
      "##谅": 6078,
      "##忘": 6079,
      "##ʀ": 6080,
      "##馆": 6081,
      "##脱": 6082,
      "##腊": 6083,
      "##册": 6084,
      "##裩": 6085,
      "##丹": 6086,
      "##ŷ": 6087,
      "##권": 6088,
      "##冤": 6089,
      "##煮": 6090,
      "##诘": 6091,
      "##": 6092,
      "##评": 6093,
      "##구": 6094,
      "##ಶ": 6095,
      "##್": 6096,
      "##ವ": 6097,
      "##ರ": 6098,
      "##ಯ": 6099,
      "##ಾ": 6100,
      "##ở": 6101,
      "##": 6102,
      "##セ": 6103,
      "##タ": 6104,
      "##ホ": 6105,
      "##ペ": 6106,
      "##꣨": 6107,
      "##번": 6108,
      "##호": 6109,
      "##差": 6110,
      "##ﲎ": 6111,
      "##ⴐ": 6112,
      "##ǘ": 6113,
      "##植": 6114,
      "##⊔": 6115,
      "##嘛": 6116,
      "##＾": 6117,
      "##功": 6118,
      "##˲": 6119,
      "##ল": 6120,
      "##ে": 6121,
      "##ক": 6122,
      "##স": 6123,
      "##ঁ": 6124,
      "##দ": 6125,
      "##র": 6126,
      "##ᙱ": 6127,
      "##۵": 6128,
      "##医": 6129,
      "##ے": 6130,
      "##客": 6131,
      "##ử": 6132,
      "##允": 6133,
      "##ै": 6134,
      "##親": 6135,
      "##袍": 6136,
      "##壹": 6137,
      "##跋": 6138,
      "##扈": 6139,
      "##런": 6140,
      "##キ": 6141,
      "##ダ": 6142,
      "##": 6143,
      "##♪": 6144,
      "##☼": 6145,
      "##": 6146,
      "##﷓": 6147,
      "##真": 6148,
      "##页": 6149,
      "##洱": 6150,
      "##细": 6151,
      "##": 6152,
      "##廷": 6153,
      "##׬": 6154,
      "##摩": 6155,
      "##女": 6156,
      "##遊": 6157,
      "##佳": 6158,
      "##从": 6159,
      "##": 6160,
      "##箭": 6161,
      "##鱼": 6162,
      "##자": 6163,
      "##翰": 6164,
      "##ो": 6165,
      "##药": 6166,
      "##伸": 6167,
      "##広": 6168,
      "##够": 6169,
      "##透": 6170,
      "##式": 6171,
      "##ȹ": 6172,
      "##夷": 6173,
      "##颖": 6174,
      "##˽": 6175,
      "##噌": 6176,
      "##龙": 6177,
      "##头": 6178,
      "##讯": 6179,
      "##虎": 6180,
      "##価": 6181,
      "##則": 6182,
      "##こ": 6183,
      "##茶": 6184,
      "##舫": 6185,
      "##氏": 6186,
      "##ũ": 6187,
      "##⇒": 6188,
      "##": 6189,
      "##던": 6190,
      "##令": 6191,
      "##努": 6192,
      "##ˈ": 6193,
      "##ː": 6194,
      "##ɚ": 6195,
      "##础": 6196,
      "##ფ": 6197,
      "##厨": 6198,
      "##顺": 6199,
      "##锋": 6200,
      "##培": 6201,
      "##训": 6202,
      "##勢": 6203,
      "##序": 6204,
      "##び": 6205,
      "##難": 6206,
      "##認": 6207,
      "##ૻ": 6208,
      "##朗": 6209,
      "##ɑ": 6210,
      "##ΐ": 6211,
      "##缆": 6212,
      "##都": 6213,
      "##认": 6214,
      "##둑": 6215,
      "##簡": 6216,
      "##単": 6217,
      "##変": 6218,
      "##": 6219,
      "##╚": 6220,
      "##妮": 6221,
      "##厂": 6222,
      "##必": 6223,
      "##坚": 6224,
      "##众": 6225,
      "##澳": 6226,
      "##ɪ": 6227,
      "##⡣": 6228,
      "##齐": 6229,
      "##号": 6230,
      "##推": 6231,
      "##职": 6232,
      "##贝": 6233,
      "##薩": 6234,
      "##埵": 6235,
      "##प": 6236,
      "##ल": 6237,
      "##エ": 6238,
      "##プ": 6239,
      "##가": 6240,
      "##端": 6241,
      "##児": 6242,
      "##団": 6243,
      "##ᑊ": 6244,
      "##恩": 6245,
      "##甜": 6246,
      "##參": 6247,
      "##態": 6248,
      "##」": 6249,
      "##賢": 6250,
      "##码": 6251,
      "##ɨ": 6252,
      "##寻": 6253,
      "##ﱘ": 6254,
      "##": 6255,
      "##帳": 6256,
      "##區": 6257,
      "##̐": 6258,
      "##೪": 6259,
      "##ʃ": 6260,
      "##ọ": 6261,
      "##ϖ": 6262,
      "##ͨ": 6263,
      "##终": 6264,
      "##止": 6265,
      "##ỷ": 6266,
      "##ﳎ": 6267,
      "##才": 6268,
      "##랍": 6269,
      "##线": 6270,
      "##": 6271,
      "##蔚": 6272,
      "##ክ": 6273,
      "##ቶ": 6274,
      "##በ": 6275,
      "##ር": 6276,
      "##庄": 6277,
      "##ﻆ": 6278,
      "##络": 6279,
      "##ﺱ": 6280,
      "##我": 6281,
      "##们": 6282,
      "##星": 6283,
      "##酒": 6284,
      "##ブ": 6285,
      "##": 6286,
      "##購": 6287,
      "##函": 6288,
      "##ጽ": 6289,
      "##画": 6290,
      "##∙": 6291,
      "##치": 6292,
      "##΄": 6293,
      "##俊": 6294,
      "##拥": 6295,
      "##할": 6296,
      "##楼": 6297,
      "##避": 6298,
      "##免": 6299,
      "##赔": 6300,
      "##": 6301,
      "##税": 6302,
      "##村": 6303,
      "##麻": 6304,
      "##呂": 6305,
      "##ʰ": 6306,
      "##ɣ": 6307,
      "##": 6308,
      "##": 6309,
      "##梨": 6310,
      "##ặ": 6311,
      "##☺": 6312,
      "##ǰ": 6313,
      "##표": 6314,
      "##如": 6315,
      "##敷": 6316,
      "##레": 6317,
      "##터": 6318,
      "##斗": 6319,
      "##纸": 6320,
      "##酋": 6321,
      "##链": 6322,
      "##일": 6323,
      "##": 6324,
      "##": 6325,
      "##邦": 6326,
      "##宮": 6327,
      "##ʢ": 6328,
      "##素": 6329,
      "##贞": 6330,
      "##访": 6331,
      "##谈": 6332,
      "##璐": 6333,
      "##換": 6334,
      "##え": 6335,
      "##析": 6336,
      "##": 6337,
      "##卫": 6338,
      "##": 6339,
      "##逃": 6340,
      "##显": 6341,
      "##果": 6342,
      "##ַ": 6343,
      "##ֲ": 6344,
      "##李": 6345,
      "##即": 6346,
      "##贷": 6347,
      "##▪": 6348,
      "##업": 6349,
      "##東": 6350,
      "##": 6351,
      "##ᑰ": 6352,
      "##濟": 6353,
      "##廚": 6354,
      "##ḷ": 6355,
      "##雑": 6356,
      "##へ": 6357,
      "##林": 6358,
      "##": 6359,
      "##养": 6360,
      "##ҽ": 6361,
      "##": 6362,
      "##诊": 6363,
      "##ญ": 6364,
      "##０": 6365,
      "##６": 6366,
      "##唱": 6367,
      "##ण": 6368,
      "##द": 6369,
      "##्": 6370,
      "##ह": 6371,
      "##ू": 6372,
      "##指": 6373,
      "##沙": 6374,
      "##营": 6375,
      "##霍": 6376,
      "##˛": 6377,
      "##": 6378,
      "##焼": 6379,
      "##材": 6380,
      "##料": 6381,
      "##ህ": 6382,
      "##ᓲ": 6383,
      "##ᒎ": 6384,
      "##ḍ": 6385,
      "##߶": 6386,
      "##ɳ": 6387,
      "##薬": 6388,
      "##۰": 6389,
      "##它": 6390,
      "##▲": 6391,
      "##ẹ": 6392,
      "##幹": 6393,
      "##萧": 6394,
      "##洒": 6395,
      "##ٔ": 6396,
      "##寿": 6397,
      "##": 6398,
      "##モ": 6399,
      "##・": 6400,
      "##忻": 6401,
      "##ﳝ": 6402,
      "##魂": 6403,
      "##笑": 6404,
      "##浄": 6405,
      "##ө": 6406,
      "##": 6407,
      "##": 6408,
      "##": 6409,
      "##ﳍ": 6410,
      "##함": 6411,
      "##되": 6412,
      "##": 6413,
      "##普": 6414,
      "##靠": 6415,
      "##ἰ": 6416,
      "##ተ": 6417,
      "##ቀ": 6418,
      "##የ": 6419,
      "##ረ": 6420,
      "##ው": 6421,
      "##只": 6422,
      "##증": 6423,
      "##掌": 6424,
      "##〈": 6425,
      "##수": 6426,
      "##료": 6427,
      "##积": 6428,
      "##驻": 6429,
      "##派": 6430,
      "##青": 6431,
      "##紀": 6432,
      "##ﲣ": 6433,
      "##몬": 6434,
      "##ﺶ": 6435,
      "##栄": 6436,
      "##선": 6437,
      "##며": 6438,
      "##設": 6439,
      "##憶": 6440,
      "##後": 6441,
      "##編": 6442,
      "##威": 6443,
      "##班": 6444,
      "##̃": 6445,
      "##": 6446,
      "##景": 6447,
      "##颠": 6448,
      "##魚": 6449,
      "##阅": 6450,
      "##强": 6451,
      "##谐": 6452,
      "##율": 6453,
      "##猫": 6454,
      "##랑": 6455,
      "##∈": 6456,
      "##习": 6457,
      "##考": 6458,
      "##六": 6459,
      "##泽": 6460,
      "##省": 6461,
      "##습": 6462,
      "##桑": 6463,
      "##近": 6464,
      "##안": 6465,
      "##ﻥ": 6466,
      "##✔": 6467,
      "##柳": 6468,
      "##✝": 6469,
      "##柏": 6470,
      "##瑞": 6471,
      "##": 6472,
      "##琮": 6473,
      "##神": 6474,
      "##輿": 6475,
      "##ﳘ": 6476,
      "##ǐ": 6477,
      "##ﳑ": 6478,
      "##嫩": 6479,
      "##⇔": 6480,
      "##饭": 6481,
      "##역": 6482,
      "##框": 6483,
      "##架": 6484,
      "##迟": 6485,
      "##ぎ": 6486,
      "##❑": 6487,
      "##ೈ": 6488,
      "##署": 6489,
      "##내": 6490,
      "##＊": 6491,
      "##": 6492,
      "##쁜": 6493,
      "##ぶ": 6494,
      "##": 6495,
      "##米": 6496,
      "##ⁿ": 6497,
      "##コ": 6498,
      "##寸": 6499,
      "##ƽ": 6500,
      "##ͷ": 6501,
      "##﻿": 6502,
      "##ҫ": 6503,
      "##": 6504,
      "##久": 6505,
      "##殿": 6506,
      "##瓦": 6507,
      "##ҙ": 6508,
      "##ȏ": 6509,
      "##聾": 6510,
      "##弱": 6511,
      "##聽": 6512,
      "##": 6513,
      "##忙": 6514,
      "##称": 6515,
      "##争": 6516,
      "##九": 6517,
      "##曲": 6518,
      "##摇": 6519,
      "##尾": 6520,
      "##缩": 6521,
      "##贫": 6522,
      "##富": 6523,
      "##距": 6524,
      "##黑": 6525,
      "##群": 6526,
      "##결": 6527,
      "##책": 6528,
      "##握": 6529,
      "##欢": 6530,
      "##ﺺ": 6531,
      "##屑": 6532,
      "##ユ": 6533,
      "##ピ": 6534,
      "##刘": 6535,
      "##耀": 6536,
      "##仁": 6537,
      "##放": 6538,
      "##୨": 6539,
      "##郷": 6540,
      "##给": 6541,
      "##已": 6542,
      "##跃": 6543,
      "##而": 6544,
      "##创": 6545,
      "##精": 6546,
      "##⁾": 6547,
      "##민": 6548,
      "##促": 6549,
      "##断": 6550,
      "##莱": 6551,
      "##赶": 6552,
      "##": 6553,
      "##⎢": 6554,
      "##ロ": 6555,
      "##グ": 6556,
      "##ԁ": 6557,
      "##绩": 6558,
      "##㣬": 6559,
      "##ᕝ": 6560,
      "##崎": 6561,
      "##見": 6562,
      "##達": 6563,
      "##": 6564,
      "##ẃ": 6565,
      "##ǽ": 6566,
      "##醍": 6567,
      "##醐": 6568,
      "##雲": 6569,
      "##족": 6570,
      "##계": 6571,
      "##۲": 6572,
      "##僚": 6573,
      "##乏": 6574,
      "##熨": 6575,
      "##阪": 6576,
      "##离": 6577,
      "##천": 6578,
      "##원": 6579,
      "##񣬰": 6580,
      "##ฟ": 6581,
      "##۹": 6582,
      "##ƅ": 6583,
      "##ﻺ": 6584,
      "##围": 6585,
      "##♫": 6586,
      "##殘": 6587,
      "##疾": 6588,
      "##援": 6589,
      "##專": 6590,
      "##銀": 6591,
      "##ӣ": 6592,
      "##߹": 6593,
      "##章": 6594,
      "##": 6595,
      "##快": 6596,
      "##带": 6597,
      "##満": 6598,
      "##開": 6599,
      "##泊": 6600,
      "##ӡ": 6601,
      "##ˢ": 6602,
      "##߷": 6603,
      "##߻": 6604,
      "##": 6605,
      "##": 6606,
      "##": 6607,
      "##味": 6608,
      "##演": 6609,
      "##像": 6610,
      "##静": 6611,
      "##怡": 6612,
      "##ӫ": 6613,
      "##타": 6614,
      "##随": 6615,
      "##ﳐ": 6616,
      "##력": 6617,
      "##남": 6618,
      "##間": 6619,
      "##鍵": 6620,
      "##扬": 6621,
      "##莹": 6622,
      "##拜": 6623,
      "##疆": 6624,
      "##ﮦ": 6625,
      "##製": 6626,
      "##沒": 6627,
      "##辦": 6628,
      "##寄": 6629,
      "##給": 6630,
      "##嗎": 6631,
      "##ɐ": 6632,
      "##ẳ": 6633,
      "##實": 6634,
      "##兒": 6635,
      "##童": 6636,
      "##類": 6637,
      "##钱": 6638,
      "##∇": 6639,
      "##闻": 6640,
      "##୯": 6641,
      "##壊": 6642,
      "##ョ": 6643,
      "##ỡ": 6644,
      "##좌": 6645,
      "##ǌ": 6646,
      "##ﮑ": 6647,
      "##ﭩ": 6648,
      "##环": 6649,
      "##ฝ": 6650,
      "##适": 6651,
      "##贩": 6652,
      "##": 6653,
      "##莽": 6654,
      "##橋": 6655,
      "##№": 6656,
      "##ʒ": 6657,
      "##探": 6658,
      "##偵": 6659,
      "##ポ": 6660,
      "##师": 6661,
      "##ฏ": 6662,
      "##但": 6663,
      "##券": 6664,
      "##終": 6665,
      "##疏": 6666,
      "##散": 6667,
      "##리": 6668,
      "##屋": 6669,
      "##概": 6670,
      "##ܵ": 6671,
      "##ȷ": 6672,
      "##至": 6673,
      "##引": 6674,
      "##ղ": 6675,
      "##բ": 6676,
      "##喜": 6677,
      "##无": 6678,
      "##驶": 6679,
      "##厉": 6680,
      "##击": 6681,
      "##档": 6682,
      "##灾": 6683,
      "##补": 6684,
      "##救": 6685,
      "##痴": 6686,
      "##态": 6687,
      "##실": 6688,
      "##䁲": 6689,
      "##负": 6690,
      "##阳": 6691,
      "##주": 6692,
      "##전": 6693,
      "##망": 6694,
      "##荐": 6695,
      "##ʡ": 6696,
      "##ƶ": 6697,
      "##楽": 6698,
      "##ɷ": 6699,
      "##钦": 6700,
      "##ﲢ": 6701,
      "##军": 6702,
      "##石": 6703,
      "##旦": 6704,
      "##韩": 6705,
      "##": 6706,
      "##园": 6707,
      "##残": 6708,
      "##银": 6709,
      "##ጨ": 6710,
      "##ሻ": 6711,
      "##峪": 6712,
      "##测": 6713,
      "##ʱ": 6714,
      "##諸": 6715,
      "##閣": 6716,
      "##溢": 6717,
      "##実": 6718,
      "##ằ": 6719,
      "##": 6720,
      "##ၛ": 6721,
      "##𐍃": 6722,
      "##𐌰": 6723,
      "##𐌽": 6724,
      "##𐌼": 6725,
      "##𐌴": 6726,
      "##𐍉": 6727,
      "##𐌸": 6728,
      "##კ": 6729,
      "##耽": 6730,
      "##搁": 6731,
      "##，": 6732,
      "##स": 6733,
      "##क": 6734,
      "##ृ": 6735,
      "##周": 6736,
      "##边": 6737,
      "##宗": 6738,
      "##囧": 6739,
      "##灣": 6740,
      "##儿": 6741,
      "##음": 6742,
      "##ᐟ": 6743,
      "##副": 6744,
      "##奥": 6745,
      "##捷": 6746,
      "##": 6747,
      "##麦": 6748,
      "##광": 6749,
      "##装": 6750,
      "##✿": 6751,
      "##催": 6752,
      "##気": 6753,
      "##候": 6754,
      "##貿": 6755,
      "##국": 6756,
      "##艳": 6757,
      "##赵": 6758,
      "##賃": 6759,
      "##貸": 6760,
      "##尊": 6761,
      "##視": 6762,
      "##初": 6763,
      "##华": 6764,
      "##": 6765,
      "##۱": 6766,
      "##斤": 6767,
      "##瞎": 6768,
      "##屈": 6769,
      "##es": 6770,
      "##on": 6771,
      "##nt": 6772,
      "##ti": 6773,
      "de": 6774,
      "##er": 6775,
      "##ur": 6776,
      "##ent": 6777,
      "##tion": 6778,
      "##is": 6779,
      "##re": 6780,
      "##an": 6781,
      "la": 6782,
      "##it": 6783,
      "et": 6784,
      "##le": 6785,
      "des": 6786,
      "##ation": 6787,
      "##ar": 6788,
      "le": 6789,
      "les": 6790,
      "##or": 6791,
      "##ue": 6792,
      "##in": 6793,
      "##ment": 6794,
      "pr": 6795,
      "##en": 6796,
      "##ou": 6797,
      "##om": 6798,
      "un": 6799,
      "en": 6800,
      "au": 6801,
      "##ra": 6802,
      "con": 6803,
      "##ant": 6804,
      "##te": 6805,
      "##our": 6806,
      "##és": 6807,
      "du": 6808,
      "##al": 6809,
      "##ai": 6810,
      "##ic": 6811,
      "par": 6812,
      "##el": 6813,
      "##si": 6814,
      "qu": 6815,
      "pro": 6816,
      "##ec": 6817,
      "com": 6818,
      "##ce": 6819,
      "##ans": 6820,
      "##st": 6821,
      "##me": 6822,
      "dé": 6823,
      "##ri": 6824,
      "##res": 6825,
      "in": 6826,
      "##li": 6827,
      "##que": 6828,
      "pour": 6829,
      "##au": 6830,
      "##ement": 6831,
      "##qu": 6832,
      "##ta": 6833,
      "##ci": 6834,
      "##pp": 6835,
      "##il": 6836,
      "dans": 6837,
      "que": 6838,
      "##us": 6839,
      "##oi": 6840,
      "##té": 6841,
      "une": 6842,
      "##et": 6843,
      "##se": 6844,
      "ré": 6845,
      "##ité": 6846,
      "sur": 6847,
      "##tre": 6848,
      "##di": 6849,
      "ex": 6850,
      "##les": 6851,
      "##ch": 6852,
      "##as": 6853,
      "##00": 6854,
      "##ro": 6855,
      "##onn": 6856,
      "##ff": 6857,
      "ac": 6858,
      "##ol": 6859,
      "##mp": 6860,
      "est": 6861,
      "av": 6862,
      "##ont": 6863,
      "pl": 6864,
      "##ations": 6865,
      "##eu": 6866,
      "##ag": 6867,
      "##ée": 6868,
      "##de": 6869,
      "qui": 6870,
      "int": 6871,
      "il": 6872,
      "##ts": 6873,
      "##ion": 6874,
      "##ouv": 6875,
      "ou": 6876,
      "##ous": 6877,
      "##ul": 6878,
      "##ers": 6879,
      "##ces": 6880,
      "##ern": 6881,
      "##ab": 6882,
      "##ale": 6883,
      "ch": 6884,
      "##aire": 6885,
      "aux": 6886,
      "##ées": 6887,
      "##ati": 6888,
      "200": 6889,
      "##urs": 6890,
      "re": 6891,
      "##iv": 6892,
      "##os": 6893,
      "##sion": 6894,
      "##ir": 6895,
      "##ie": 6896,
      "##ques": 6897,
      "##mes": 6898,
      "su": 6899,
      "##ort": 6900,
      "comm": 6901,
      "##pé": 6902,
      "app": 6903,
      "##un": 6904,
      "##at": 6905,
      "##du": 6906,
      "an": 6907,
      "##mb": 6908,
      "##ction": 6909,
      "##ig": 6910,
      "##ais": 6911,
      "##aux": 6912,
      "##ait": 6913,
      "##ère": 6914,
      "éta": 6915,
      "##ure": 6916,
      "ce": 6917,
      "##ad": 6918,
      "##erv": 6919,
      "mo": 6920,
      "##ne": 6921,
      "can": 6922,
      "di": 6923,
      "tra": 6924,
      "##pr": 6925,
      "##orm": 6926,
      "##ist": 6927,
      "##ac": 6928,
      "ent": 6929,
      "se": 6930,
      "parti": 6931,
      "pas": 6932,
      "##tu": 6933,
      "##ance": 6934,
      "aut": 6935,
      "##én": 6936,
      "##aires": 6937,
      "##ré": 6938,
      "##and": 6939,
      "##min": 6940,
      "plus": 6941,
      "ar": 6942,
      "##tions": 6943,
      "##ons": 6944,
      "or": 6945,
      "##ss": 6946,
      "comp": 6947,
      "ont": 6948,
      "##tiv": 6949,
      "sont": 6950,
      "ad": 6951,
      "##lement": 6952,
      "tr": 6953,
      "rec": 6954,
      "pré": 6955,
      "##oc": 6956,
      "ra": 6957,
      "##ique": 6958,
      "##end": 6959,
      "##ités": 6960,
      "po": 6961,
      "##ens": 6962,
      "##id": 6963,
      "cons": 6964,
      "##ants": 6965,
      "tou": 6966,
      "##ins": 6967,
      "##ès": 6968,
      "##éra": 6969,
      "res": 6970,
      "##ér": 6971,
      "##lle": 6972,
      "so": 6973,
      "prés": 6974,
      "##vent": 6975,
      "ne": 6976,
      "19": 6977,
      "##ren": 6978,
      "ob": 6979,
      "li": 6980,
      "avec": 6981,
      "acc": 6982,
      "gr": 6983,
      "rés": 6984,
      "co": 6985,
      "été": 6986,
      "##gra": 6987,
      "##its": 6988,
      "##lé": 6989,
      "##tes": 6990,
      "##iss": 6991,
      "no": 6992,
      "entre": 6993,
      "cet": 6994,
      "imp": 6995,
      "##am": 6996,
      "##ite": 6997,
      "##ine": 6998,
      "##tif": 6999,
      "inf": 7000,
      "##ve": 7001,
      "##ise": 7002,
      "##ub": 7003,
      "conc": 7004,
      "##age": 7005,
      "##éri": 7006,
      "pa": 7007,
      "##pe": 7008,
      "être": 7009,
      "##oir": 7010,
      "déc": 7011,
      "org": 7012,
      "dis": 7013,
      "##tr": 7014,
      "##ales": 7015,
      "##ada": 7016,
      "##anis": 7017,
      "##ond": 7018,
      "dro": 7019,
      "##jet": 7020,
      "##lic": 7021,
      "serv": 7022,
      "eff": 7023,
      "##elle": 7024,
      "si": 7025,
      "##éd": 7026,
      "peu": 7027,
      "ces": 7028,
      "rapp": 7029,
      "per": 7030,
      "canada": 7031,
      "##ements": 7032,
      "##ang": 7033,
      "##ux": 7034,
      "rég": 7035,
      "##ate": 7036,
      "mar": 7037,
      "pers": 7038,
      "trav": 7039,
      "##ures": 7040,
      "##ord": 7041,
      "intern": 7042,
      "##ission": 7043,
      "##um": 7044,
      "sec": 7045,
      "##ten": 7046,
      "##ys": 7047,
      "conf": 7048,
      "##cu": 7049,
      "##ter": 7050,
      "##che": 7051,
      "##gram": 7052,
      "##ème": 7053,
      "##ign": 7054,
      "program": 7055,
      "exp": 7056,
      "me": 7057,
      "nous": 7058,
      "fin": 7059,
      "servic": 7060,
      "##ail": 7061,
      "cette": 7062,
      "gén": 7063,
      "organis": 7064,
      "##ph": 7065,
      "min": 7066,
      "ass": 7067,
      "éc": 7068,
      "##ies": 7069,
      "personn": 7070,
      "##lo": 7071,
      "sa": 7072,
      "on": 7073,
      "##ier": 7074,
      "autres": 7075,
      "ca": 7076,
      "##tra": 7077,
      "commun": 7078,
      "##cip": 7079,
      "sé": 7080,
      "##ence": 7081,
      "sou": 7082,
      "##og": 7083,
      "##able": 7084,
      "ter": 7085,
      "at": 7086,
      "##til": 7087,
      "##ours": 7088,
      "pays": 7089,
      "am": 7090,
      "ses": 7091,
      "##ien": 7092,
      "ég": 7093,
      "nom": 7094,
      "##ge": 7095,
      "ren": 7096,
      "al": 7097,
      "##iques": 7098,
      "##tin": 7099,
      "##fic": 7100,
      "##ég": 7101,
      "##po": 7102,
      "##vel": 7103,
      "dép": 7104,
      "##elles": 7105,
      "internation": 7106,
      "pub": 7107,
      "##velo": 7108,
      "généra": 7109,
      "rel": 7110,
      "##ct": 7111,
      "leur": 7112,
      "mes": 7113,
      "produ": 7114,
      "présent": 7115,
      "##velopp": 7116,
      "ag": 7117,
      "##seil": 7118,
      "dire": 7119,
      "##estion": 7120,
      "conseil": 7121,
      "développ": 7122,
      "##ande": 7123,
      "##teur": 7124,
      "##bre": 7125,
      "##ut": 7126,
      "dev": 7127,
      "trans": 7128,
      "son": 7129,
      "eur": 7130,
      "év": 7131,
      "nouv": 7132,
      "##eau": 7133,
      "##ouvern": 7134,
      "##ères": 7135,
      "##__": 7136,
      "##ui": 7137,
      "fait": 7138,
      "##opé": 7139,
      "mon": 7140,
      "donn": 7141,
      "inform": 7142,
      "##ille": 7143,
      "fa": 7144,
      "##adi": 7145,
      "comme": 7146,
      "ins": 7147,
      "199": 7148,
      "##tique": 7149,
      "dem": 7150,
      "##rib": 7151,
      "soci": 7152,
      "##ari": 7153,
      "##titu": 7154,
      "##ments": 7155,
      "ann": 7156,
      "gouvern": 7157,
      "##isation": 7158,
      "##fin": 7159,
      "##ves": 7160,
      "##ration": 7161,
      "rép": 7162,
      "##tic": 7163,
      "env": 7164,
      "sy": 7165,
      "##cess": 7166,
      "##ru": 7167,
      "##aient": 7168,
      "for": 7169,
      "util": 7170,
      "nation": 7171,
      "##ois": 7172,
      "##ors": 7173,
      "emp": 7174,
      "es": 7175,
      "développement": 7176,
      "##ision": 7177,
      "activ": 7178,
      "projet": 7179,
      "travail": 7180,
      "rapport": 7181,
      "services": 7182,
      "##ét": 7183,
      "##ines": 7184,
      "##enti": 7185,
      "##ents": 7186,
      "##lar": 7187,
      "ser": 7188,
      "poli": 7189,
      "col": 7190,
      "##dre": 7191,
      "commission": 7192,
      "off": 7193,
      ").": 7194,
      "##alement": 7195,
      "##ble": 7196,
      "memb": 7197,
      "##emp": 7198,
      "##els": 7199,
      "##ière": 7200,
      "##ution": 7201,
      "),": 7202,
      "##bl": 7203,
      "ma": 7204,
      "grou": 7205,
      "pre": 7206,
      "##ace": 7207,
      "elle": 7208,
      "##oint": 7209,
      "##enne": 7210,
      "artic": 7211,
      "##uel": 7212,
      "##omm": 7213,
      "vous": 7214,
      "concern": 7215,
      "##met": 7216,
      "##ourn": 7217,
      "##eux": 7218,
      "deux": 7219,
      "resp": 7220,
      "canadi": 7221,
      "##ult": 7222,
      "##tiques": 7223,
      "cer": 7224,
      "##ises": 7225,
      "##ice": 7226,
      "programme": 7227,
      "états": 7228,
      "##op": 7229,
      "##onom": 7230,
      "droits": 7231,
      "non": 7232,
      "##ard": 7233,
      "ain": 7234,
      "##rit": 7235,
      "##èg": 7236,
      "fond": 7237,
      "ainsi": 7238,
      "prop": 7239,
      "##teurs": 7240,
      "pos": 7241,
      "import": 7242,
      "##posi": 7243,
      "sant": 7244,
      "form": 7245,
      "aff": 7246,
      "##uation": 7247,
      "cha": 7248,
      "région": 7249,
      "##bil": 7250,
      "diff": 7251,
      "santé": 7252,
      "gouvernement": 7253,
      "##cur": 7254,
      "mê": 7255,
      "tous": 7256,
      "##hn": 7257,
      "##ici": 7258,
      "##im": 7259,
      "##tég": 7260,
      "car": 7261,
      "vo": 7262,
      "comité": 7263,
      "nombre": 7264,
      "vis": 7265,
      "##olog": 7266,
      "ét": 7267,
      "peut": 7268,
      "syst": 7269,
      "ju": 7270,
      "##nes": 7271,
      "mais": 7272,
      "th": 7273,
      "##eur": 7274,
      "prin": 7275,
      "##..": 7276,
      "##aut": 7277,
      "##alité": 7278,
      "membres": 7279,
      "##ante": 7280,
      "do": 7281,
      "##éren": 7282,
      "##ient": 7283,
      "suiv": 7284,
      "fon": 7285,
      "##ente": 7286,
      "as": 7287,
      "article": 7288,
      "leurs": 7289,
      "##près": 7290,
      "##lu": 7291,
      "règ": 7292,
      "cré": 7293,
      "##vention": 7294,
      "cl": 7295,
      "##lique": 7296,
      "économ": 7297,
      "##orts": 7298,
      "certa": 7299,
      "ils": 7300,
      "##her": 7301,
      "##péci": 7302,
      "prem": 7303,
      "repr": 7304,
      "envir": 7305,
      "inter": 7306,
      "sous": 7307,
      "direc": 7308,
      "sécur": 7309,
      "##ven": 7310,
      "relati": 7311,
      "##semb": 7312,
      "doc": 7313,
      "faire": 7314,
      "également": 7315,
      "loi": 7316,
      "##ill": 7317,
      "spéci": 7318,
      "man": 7319,
      "##ues": 7320,
      "cas": 7321,
      "né": 7322,
      "fonction": 7323,
      "##mbre": 7324,
      "ab": 7325,
      "même": 7326,
      "cad": 7327,
      "europé": 7328,
      "##ot": 7329,
      "##bles": 7330,
      "nations": 7331,
      "sécurité": 7332,
      "lors": 7333,
      "inc": 7334,
      "éle": 7335,
      "##des": 7336,
      "##uis": 7337,
      "##rait": 7338,
      "cent": 7339,
      "tout": 7340,
      "point": 7341,
      "activités": 7342,
      "tec": 7343,
      "##vre": 7344,
      "##ric": 7345,
      "enf": 7346,
      "10": 7347,
      "éval": 7348,
      "##tifs": 7349,
      "##aine": 7350,
      "##céd": 7351,
      "inst": 7352,
      "sit": 7353,
      "##em": 7354,
      "techn": 7355,
      "mati": 7356,
      "gestion": 7357,
      "bien": 7358,
      "représ": 7359,
      "je": 7360,
      "indi": 7361,
      "##ances": 7362,
      "vi": 7363,
      "public": 7364,
      "docu": 7365,
      "fourn": 7366,
      "##onnement": 7367,
      "##seign": 7368,
      "recher": 7369,
      "ci": 7370,
      "état": 7371,
      "utilis": 7372,
      "##lab": 7373,
      "##ources": 7374,
      "##cep": 7375,
      "droit": 7376,
      "##ivers": 7377,
      "ress": 7378,
      "contre": 7379,
      "##par": 7380,
      "jus": 7381,
      "mesures": 7382,
      "cadre": 7383,
      "particu": 7384,
      "plan": 7385,
      "##oire": 7386,
      "##ing": 7387,
      "mil": 7388,
      "groupe": 7389,
      "##trib": 7390,
      "##ulta": 7391,
      "aus": 7392,
      "particip": 7393,
      "hom": 7394,
      "##uer": 7395,
      "princip": 7396,
      "##alis": 7397,
      "fr": 7398,
      "partie": 7399,
      "##lig": 7400,
      "étu": 7401,
      "##jec": 7402,
      "particuli": 7403,
      "permet": 7404,
      "##tent": 7405,
      "aussi": 7406,
      "pri": 7407,
      "ai": 7408,
      "dont": 7409,
      "##for": 7410,
      "##iti": 7411,
      "applic": 7412,
      "information": 7413,
      "##ables": 7414,
      "présid": 7415,
      "accord": 7416,
      "##olution": 7417,
      "toute": 7418,
      "mise": 7419,
      "cap": 7420,
      "unies": 7421,
      "enc": 7422,
      "sta": 7423,
      "##fication": 7424,
      "##ud": 7425,
      "dom": 7426,
      "personnes": 7427,
      "mé": 7428,
      "ten": 7429,
      "prév": 7430,
      "##lles": 7431,
      "##oci": 7432,
      "cor": 7433,
      "représent": 7434,
      "##mment": 7435,
      "doit": 7436,
      "afin": 7437,
      "march": 7438,
      "nécess": 7439,
      "niv": 7440,
      "demande": 7441,
      "minist": 7442,
      "##labor": 7443,
      "ph": 7444,
      "##ez": 7445,
      "fem": 7446,
      "##ert": 7447,
      "##antes": 7448,
      "finan": 7449,
      "admin": 7450,
      "##aint": 7451,
      "après": 7452,
      "équ": 7453,
      "administ": 7454,
      "général": 7455,
      "##ôle": 7456,
      "##oy": 7457,
      "cours": 7458,
      "décision": 7459,
      "éch": 7460,
      "assur": 7461,
      "##ili": 7462,
      "tro": 7463,
      "##ième": 7464,
      "moy": 7465,
      "##cri": 7466,
      "##ole": 7467,
      "adop": 7468,
      "avant": 7469,
      "##ats": 7470,
      "##endant": 7471,
      "autor": 7472,
      "##érence": 7473,
      "appro": 7474,
      "ver": 7475,
      "oc": 7476,
      "té": 7477,
      "cour": 7478,
      "cel": 7479,
      "entrepr": 7480,
      "matière": 7481,
      "environnement": 7482,
      "compte": 7483,
      "##tement": 7484,
      "##____": 7485,
      "##raph": 7486,
      "##eurs": 7487,
      "données": 7488,
      "autre": 7489,
      "##téri": 7490,
      "objec": 7491,
      "commer": 7492,
      "##été": 7493,
      "dur": 7494,
      "##estions": 7495,
      "stra": 7496,
      "##onc": 7497,
      "disposi": 7498,
      "pres": 7499,
      "char": 7500,
      "##iste": 7501,
      "##av": 7502,
      "##éli": 7503,
      "recherche": 7504,
      "prof": 7505,
      "##iter": 7506,
      "##tive": 7507,
      "système": 7508,
      "ressources": 7509,
      "soit": 7510,
      "parag": 7511,
      "institu": 7512,
      "##ap": 7513,
      "##xe": 7514,
      "##tection": 7515,
      "##rét": 7516,
      "organisation": 7517,
      "programmes": 7518,
      "##abil": 7519,
      "##tionn": 7520,
      "déclar": 7521,
      "20": 7522,
      "questions": 7523,
      "##èmes": 7524,
      "prov": 7525,
      "paragraph": 7526,
      "sans": 7527,
      "politique": 7528,
      "secrét": 7529,
      "##mis": 7530,
      "sub": 7531,
      "12": 7532,
      "était": 7533,
      "question": 7534,
      "règlement": 7535,
      "possi": 7536,
      "##ase": 7537,
      "concernant": 7538,
      "eng": 7539,
      "bi": 7540,
      "pren": 7541,
      "##pes": 7542,
      "##fi": 7543,
      "ind": 7544,
      "pouv": 7545,
      "consi": 7546,
      "produits": 7547,
      "contrib": 7548,
      "##ateurs": 7549,
      "im": 7550,
      "temp": 7551,
      "##ages": 7552,
      "##ire": 7553,
      "##elon": 7554,
      "##fs": 7555,
      "##ong": 7556,
      "2005": 7557,
      "toutes": 7558,
      "##itre": 7559,
      "respons": 7560,
      "stratég": 7561,
      "hum": 7562,
      "##bli": 7563,
      "protection": 7564,
      "##era": 7565,
      "met": 7566,
      "femmes": 7567,
      "##erc": 7568,
      "recomm": 7569,
      "2006": 7570,
      "seu": 7571,
      "15": 7572,
      "##aines": 7573,
      "procéd": 7574,
      "convention": 7575,
      "international": 7576,
      "11": 7577,
      "où": 7578,
      "lég": 7579,
      "demand": 7580,
      "enfants": 7581,
      "améli": 7582,
      "financi": 7583,
      "mont": 7584,
      "consid": 7585,
      "nota": 7586,
      "plu": 7587,
      "##sions": 7588,
      "##ner": 7589,
      "transp": 7590,
      "##tis": 7591,
      "résulta": 7592,
      "amélior": 7593,
      "péri": 7594,
      "##loy": 7595,
      "##oivent": 7596,
      "##istre": 7597,
      "pai": 7598,
      "2004": 7599,
      "trois": 7600,
      "##pec": 7601,
      "selon": 7602,
      "##eaux": 7603,
      "sign": 7604,
      "##lée": 7605,
      "application": 7606,
      "prom": 7607,
      "##orte": 7608,
      "politiques": 7609,
      "réun": 7610,
      "peuvent": 7611,
      "##ément": 7612,
      "niveau": 7613,
      "##ode": 7614,
      "contin": 7615,
      "pe": 7616,
      "renseign": 7617,
      "bure": 7618,
      "notamment": 7619,
      "##entes": 7620,
      "##pul": 7621,
      "##aiss": 7622,
      "paragraphe": 7623,
      "contra": 7624,
      "der": 7625,
      "bes": 7626,
      "effet": 7627,
      "##bilité": 7628,
      "##one": 7629,
      "exemp": 7630,
      "générale": 7631,
      "##anc": 7632,
      "jour": 7633,
      "##liqu": 7634,
      "ess": 7635,
      "process": 7636,
      "esp": 7637,
      "##ences": 7638,
      "##mé": 7639,
      "moins": 7640,
      "dés": 7641,
      "évaluation": 7642,
      "initi": 7643,
      "président": 7644,
      "mal": 7645,
      "déb": 7646,
      "doivent": 7647,
      "processus": 7648,
      "service": 7649,
      "beso": 7650,
      "##ress": 7651,
      "condi": 7652,
      "exam": 7653,
      "disp": 7654,
      "dém": 7655,
      "conform": 7656,
      "modi": 7657,
      "##ler": 7658,
      "2007": 7659,
      "conn": 7660,
      "##issement": 7661,
      "ori": 7662,
      "opé": 7663,
      "effec": 7664,
      "établ": 7665,
      "internationale": 7666,
      "avoir": 7667,
      "##cid": 7668,
      "ret": 7669,
      "indu": 7670,
      "dern": 7671,
      "const": 7672,
      "recommand": 7673,
      "parties": 7674,
      "milli": 7675,
      "popul": 7676,
      "œu": 7677,
      "grand": 7678,
      "2003": 7679,
      "id": 7680,
      "homme": 7681,
      "coopé": 7682,
      "renseignements": 7683,
      "compr": 7684,
      "contr": 7685,
      "##loi": 7686,
      "mondi": 7687,
      "elles": 7688,
      "résolution": 7689,
      "##cun": 7690,
      "##tée": 7691,
      "##rer": 7692,
      "##ore": 7693,
      "vue": 7694,
      "effic": 7695,
      "respec": 7696,
      "##all": 7697,
      "ans": 7698,
      "##stri": 7699,
      "réf": 7700,
      "13": 7701,
      "examen": 7702,
      "canadien": 7703,
      "aide": 7704,
      "rédu": 7705,
      "ris": 7706,
      "act": 7707,
      "##termin": 7708,
      "féd": 7709,
      "résultats": 7710,
      "renfor": 7711,
      "of": 7712,
      "document": 7713,
      "##amin": 7714,
      "##ones": 7715,
      "industri": 7716,
      "européenne": 7717,
      "loc": 7718,
      "préc": 7719,
      "prati": 7720,
      "employ": 7721,
      "trait": 7722,
      "the": 7723,
      "2002": 7724,
      "élabor": 7725,
      "st": 7726,
      "mod": 7727,
      "##lég": 7728,
      "probl": 7729,
      "avait": 7730,
      "année": 7731,
      "18": 7732,
      "maint": 7733,
      "##péri": 7734,
      "##ov": 7735,
      "gar": 7736,
      "supp": 7737,
      "##sition": 7738,
      "formation": 7739,
      "he": 7740,
      "économique": 7741,
      "associ": 7742,
      "défin": 7743,
      "##ain": 7744,
      "base": 7745,
      "chang": 7746,
      "assemb": 7747,
      "port": 7748,
      "##uelle": 7749,
      "##ass": 7750,
      "##ication": 7751,
      "cro": 7752,
      "men": 7753,
      "réunion": 7754,
      "##ctions": 7755,
      "notre": 7756,
      "##ches": 7757,
      "rais": 7758,
      "déf": 7759,
      "2001": 7760,
      "bureau": 7761,
      "anal": 7762,
      "lib": 7763,
      "##man": 7764,
      "secteur": 7765,
      "établi": 7766,
      "ministère": 7767,
      "rend": 7768,
      "##tives": 7769,
      "session": 7770,
      "télé": 7771,
      "détermin": 7772,
      "quel": 7773,
      "œuvre": 7774,
      "fi": 7775,
      "colle": 7776,
      "14": 7777,
      "sal": 7778,
      "aucun": 7779,
      "lim": 7780,
      "compé": 7781,
      "chaque": 7782,
      "##serv": 7783,
      "##lément": 7784,
      "000": 7785,
      "##duc": 7786,
      "constitu": 7787,
      "##ariat": 7788,
      "fonds": 7789,
      "vie": 7790,
      "temps": 7791,
      "engag": 7792,
      "situation": 7793,
      "cult": 7794,
      "##raient": 7795,
      "##iers": 7796,
      "##acité": 7797,
      "##voir": 7798,
      "af": 7799,
      "très": 7800,
      "mét": 7801,
      "lieu": 7802,
      "méd": 7803,
      "##ites": 7804,
      "assemblée": 7805,
      "national": 7806,
      "##ich": 7807,
      "vale": 7808,
      "action": 7809,
      "2000": 7810,
      "accès": 7811,
      "place": 7812,
      "part": 7813,
      "trouv": 7814,
      "pol": 7815,
      "##ôt": 7816,
      "jur": 7817,
      "##nce": 7818,
      "coopération": 7819,
      "vers": 7820,
      "exerc": 7821,
      "appel": 7822,
      "##cer": 7823,
      "##écu": 7824,
      "##ative": 7825,
      "sera": 7826,
      "is": 7827,
      "##int": 7828,
      "##abilité": 7829,
      "anne": 7830,
      "examin": 7831,
      "30": 7832,
      "faç": 7833,
      "soi": 7834,
      "##rent": 7835,
      "votre": 7836,
      "bud": 7837,
      "vol": 7838,
      "titre": 7839,
      "exig": 7840,
      "nat": 7841,
      "pass": 7842,
      "observ": 7843,
      "parten": 7844,
      "##êt": 7845,
      "euro": 7846,
      "##quel": 7847,
      "##ver": 7848,
      "emploi": 7849,
      "##tien": 7850,
      "date": 7851,
      "##gé": 7852,
      "##ateur": 7853,
      "certains": 7854,
      "obten": 7855,
      "projets": 7856,
      "sc": 7857,
      "##sieurs": 7858,
      "##lè": 7859,
      "mesure": 7860,
      "société": 7861,
      "long": 7862,
      "gra": 7863,
      "##puis": 7864,
      "##ention": 7865,
      "##ancement": 7866,
      "priv": 7867,
      "union": 7868,
      "propos": 7869,
      "personnel": 7870,
      "lui": 7871,
      "nor": 7872,
      "##nent": 7873,
      "##gment": 7874,
      "##su": 7875,
      "cli": 7876,
      "période": 7877,
      "intég": 7878,
      "fra": 7879,
      "nouveau": 7880,
      "##uses": 7881,
      "fam": 7882,
      "budg": 7883,
      "to": 7884,
      "##enir": 7885,
      "16": 7886,
      "op": 7887,
      "interv": 7888,
      "##ération": 7889,
      "##iser": 7890,
      "dol": 7891,
      "jeu": 7892,
      "cr": 7893,
      "##mer": 7894,
      "and": 7895,
      "divers": 7896,
      "utilisation": 7897,
      "##rations": 7898,
      "équi": 7899,
      "technolog": 7900,
      "différ": 7901,
      "##if": 7902,
      "##sionn": 7903,
      "dollar": 7904,
      "assurer": 7905,
      "ty": 7906,
      "ant": 7907,
      "provin": 7908,
      "ensemb": 7909,
      "coû": 7910,
      "conformément": 7911,
      "fédéra": 7912,
      "depuis": 7913,
      "entreprises": 7914,
      "plusieurs": 7915,
      "voir": 7916,
      "div": 7917,
      "##oup": 7918,
      "ali": 7919,
      "##tation": 7920,
      "cin": 7921,
      "transf": 7922,
      "dispositions": 7923,
      "façon": 7924,
      "##ières": 7925,
      "aur": 7926,
      "##ex": 7927,
      "objectifs": 7928,
      "augment": 7929,
      "territ": 7930,
      "affaires": 7931,
      "particulier": 7932,
      "oblig": 7933,
      "sol": 7934,
      "che": 7935,
      "mettre": 7936,
      "indiqu": 7937,
      "personne": 7938,
      "##yant": 7939,
      "ensemble": 7940,
      "communaut": 7941,
      "conditions": 7942,
      "exécu": 7943,
      "sep": 7944,
      "collec": 7945,
      "##....": 7946,
      "##atives": 7947,
      "première": 7948,
      "conférence": 7949,
      "##oni": 7950,
      "17": 7951,
      "égard": 7952,
      "dollars": 7953,
      "rep": 7954,
      "informations": 7955,
      "##omp": 7956,
      "domaine": 7957,
      "som": 7958,
      "##tru": 7959,
      "ii": 7960,
      "profes": 7961,
      "##utions": 7962,
      "centre": 7963,
      "##éné": 7964,
      "compris": 7965,
      "univers": 7966,
      "##mo": 7967,
      "sci": 7968,
      "qualité": 7969,
      "##tant": 7970,
      "organismes": 7971,
      "proposi": 7972,
      "fé": 7973,
      "br": 7974,
      "##tées": 7975,
      "compren": 7976,
      "intér": 7977,
      "##ête": 7978,
      "trib": 7979,
      "2008": 7980,
      "dou": 7981,
      "commerci": 7982,
      "parlement": 7983,
      "années": 7984,
      "taux": 7985,
      "25": 7986,
      "nouvelle": 7987,
      "avis": 7988,
      "ordre": 7989,
      "devrait": 7990,
      "exemple": 7991,
      "secrétaire": 7992,
      "organisations": 7993,
      "annexe": 7994,
      "##act": 7995,
      "publique": 7996,
      "nos": 7997,
      "tot": 7998,
      "auto": 7999,
      "21": 8000,
      "##gr": 8001,
      "##éro": 8002,
      "coord": 8003,
      "sujet": 8004,
      "##alisation": 8005,
      "##crip": 8006,
      "dépens": 8007,
      "reconn": 8008,
      "reven": 8009,
      "encore": 8010,
      "ministre": 8011,
      "contrôle": 8012,
      "##itaire": 8013,
      "marché": 8014,
      "inves": 8015,
      "europe": 8016,
      "pendant": 8017,
      "##isl": 8018,
      "appliqu": 8019,
      "aid": 8020,
      "##est": 8021,
      "00": 8022,
      "méth": 8023,
      "esti": 8024,
      "instru": 8025,
      "travaux": 8026,
      "explo": 8027,
      "moyen": 8028,
      "mi": 8029,
      "prendre": 8030,
      "actuel": 8031,
      "##cup": 8032,
      "prior": 8033,
      "rôle": 8034,
      "##cul": 8035,
      "inv": 8036,
      "##aille": 8037,
      "##rée": 8038,
      "étaient": 8039,
      "nationale": 8040,
      "législ": 8041,
      "publi": 8042,
      "##tiss": 8043,
      "groupes": 8044,
      "cau": 8045,
      "site": 8046,
      "ceux": 8047,
      "fonctionn": 8048,
      "fois": 8049,
      "##trang": 8050,
      "##itation": 8051,
      "ayant": 8052,
      "étrang": 8053,
      "##fois": 8054,
      "rapports": 8055,
      "sp": 8056,
      "##mission": 8057,
      "éduc": 8058,
      "béné": 8059,
      "##vement": 8060,
      "tribun": 8061,
      "##agn": 8062,
      "mission": 8063,
      "lang": 8064,
      "documents": 8065,
      "exc": 8066,
      "déclaration": 8067,
      "198": 8068,
      "réalis": 8069,
      "civ": 8070,
      "##isme": 8071,
      "##out": 8072,
      "unis": 8073,
      "grande": 8074,
      "atte": 8075,
      "cela": 8076,
      "nég": 8077,
      "premier": 8078,
      "cri": 8079,
      "##oires": 8080,
      "dépenses": 8081,
      "paix": 8082,
      "administration": 8083,
      "tant": 8084,
      "##mination": 8085,
      "financement": 8086,
      "##érie": 8087,
      "nouvelles": 8088,
      "rou": 8089,
      "population": 8090,
      "vertu": 8091,
      "réserv": 8092,
      "table": 8093,
      "dist": 8094,
      "##omb": 8095,
      "donc": 8096,
      "visant": 8097,
      "faci": 8098,
      "répub": 8099,
      "##ense": 8100,
      "européen": 8101,
      "suite": 8102,
      "manière": 8103,
      "##mi": 8104,
      "ur": 8105,
      "république": 8106,
      "eau": 8107,
      "fer": 8108,
      "##itaires": 8109,
      "enqu": 8110,
      "##rique": 8111,
      "concerne": 8112,
      "véri": 8113,
      "##auté": 8114,
      "##ué": 8115,
      "##th": 8116,
      "##atis": 8117,
      "remp": 8118,
      "consult": 8119,
      "rév": 8120,
      "conv": 8121,
      "jusqu": 8122,
      "relatives": 8123,
      "hab": 8124,
      "##lant": 8125,
      "##illes": 8126,
      "##oles": 8127,
      "dét": 8128,
      "##erts": 8129,
      "24": 8130,
      "déce": 8131,
      "##az": 8132,
      "garant": 8133,
      "réc": 8134,
      "millions": 8135,
      "agric": 8136,
      "efforts": 8137,
      "objet": 8138,
      "pouvoir": 8139,
      "##cht": 8140,
      "peti": 8141,
      "effectu": 8142,
      "décembre": 8143,
      "présente": 8144,
      "##ître": 8145,
      "lorsque": 8146,
      "##reg": 8147,
      "besoins": 8148,
      "outre": 8149,
      "pu": 8150,
      "canadiens": 8151,
      "##________": 8152,
      "mis": 8153,
      "sus": 8154,
      "##ob": 8155,
      "inté": 8156,
      "22": 8157,
      "##istes": 8158,
      "##xes": 8159,
      "seront": 8160,
      "offici": 8161,
      "##ay": 8162,
      "participation": 8163,
      "production": 8164,
      "nord": 8165,
      "##idi": 8166,
      "num": 8167,
      "délég": 8168,
      "savoir": 8169,
      "reç": 8170,
      "puis": 8171,
      "consé": 8172,
      "lut": 8173,
      "améliorer": 8174,
      "soient": 8175,
      "répond": 8176,
      "##ori": 8177,
      "communauté": 8178,
      "##rant": 8179,
      "##ination": 8180,
      "us": 8181,
      "conten": 8182,
      "##tric": 8183,
      "avons": 8184,
      "autocht": 8185,
      "31": 8186,
      "laque": 8187,
      "conclu": 8188,
      "ang": 8189,
      "laquelle": 8190,
      "##ueil": 8191,
      "monde": 8192,
      "##tt": 8193,
      "jeunes": 8194,
      "comment": 8195,
      "canadienne": 8196,
      "##ensi": 8197,
      "fac": 8198,
      "appui": 8199,
      "##ém": 8200,
      "##truct": 8201,
      "##are": 8202,
      "##fier": 8203,
      "##atique": 8204,
      "commerce": 8205,
      "essenti": 8206,
      "##isse": 8207,
      "élev": 8208,
      "budget": 8209,
      "juin": 8210,
      "prépar": 8211,
      "1999": 8212,
      "bas": 8213,
      "mul": 8214,
      "##ww": 8215,
      "poursu": 8216,
      "23": 8217,
      "##issant": 8218,
      "certaines": 8219,
      "administra": 8220,
      "possible": 8221,
      "mois": 8222,
      "analy": 8223,
      "##ications": 8224,
      "éducation": 8225,
      "ir": 8226,
      "problèmes": 8227,
      "##êts": 8228,
      "enreg": 8229,
      "déj": 8230,
      "##igne": 8231,
      "direction": 8232,
      "professionn": 8233,
      "élec": 8234,
      "valeur": 8235,
      "tex": 8236,
      "fig": 8237,
      "##ains": 8238,
      "requ": 8239,
      "quant": 8240,
      "##graph": 8241,
      "www": 8242,
      "##onne": 8243,
      "pris": 8244,
      "prix": 8245,
      "seulement": 8246,
      "nouveaux": 8247,
      "exercice": 8248,
      "##ile": 8249,
      "aj": 8250,
      "disponi": 8251,
      "acqu": 8252,
      "bénéfic": 8253,
      "mars": 8254,
      "transport": 8255,
      "cal": 8256,
      "post": 8257,
      "juridi": 8258,
      "médic": 8259,
      "total": 8260,
      "régi": 8261,
      "we": 8262,
      "nécessaire": 8263,
      "##ca": 8264,
      "faut": 8265,
      "connaiss": 8266,
      "##ellement": 8267,
      "méc": 8268,
      "##èrement": 8269,
      "##gie": 8270,
      "réglement": 8271,
      "pi": 8272,
      "##léments": 8273,
      "éner": 8274,
      "##rier": 8275,
      "traitement": 8276,
      "rev": 8277,
      "promo": 8278,
      "»,": 8279,
      "important": 8280,
      "##uc": 8281,
      "note": 8282,
      "étant": 8283,
      "institutions": 8284,
      "industrie": 8285,
      "soutien": 8286,
      "comb": 8287,
      "étude": 8288,
      "infra": 8289,
      "destin": 8290,
      "terme": 8291,
      "##use": 8292,
      "intéri": 8293,
      "montant": 8294,
      "habit": 8295,
      "voi": 8296,
      "ord": 8297,
      "toutefois": 8298,
      ".,": 8299,
      "organ": 8300,
      "##istance": 8301,
      "##rouv": 8302,
      "##tention": 8303,
      "##fique": 8304,
      "systèmes": 8305,
      "orig": 8306,
      "##vor": 8307,
      "log": 8308,
      "##od": 8309,
      "##ario": 8310,
      "dél": 8311,
      "défini": 8312,
      "eu": 8313,
      "éléments": 8314,
      "vou": 8315,
      "##ép": 8316,
      "dess": 8317,
      "surve": 8318,
      "formul": 8319,
      "mand": 8320,
      "amend": 8321,
      "exist": 8322,
      "hy": 8323,
      "ouv": 8324,
      "meille": 8325,
      "consomm": 8326,
      "##issance": 8327,
      "##ges": 8328,
      "##atri": 8329,
      "##érer": 8330,
      "encour": 8331,
      "##cher": 8332,
      "normes": 8333,
      "struct": 8334,
      "secrétariat": 8335,
      "oct": 8336,
      "spécial": 8337,
      "favor": 8338,
      "liste": 8339,
      "chez": 8340,
      "expéri": 8341,
      "##ril": 8342,
      "propri": 8343,
      "matéri": 8344,
      "enseign": 8345,
      "deuxième": 8346,
      "##illet": 8347,
      "tribunal": 8348,
      "cir": 8349,
      "analyse": 8350,
      "reg": 8351,
      "autochtones": 8352,
      "opérations": 8353,
      "stratégie": 8354,
      "pourrait": 8355,
      "hui": 8356,
      "études": 8357,
      "##éb": 8358,
      "».": 8359,
      "##issent": 8360,
      "cit": 8361,
      "déjà": 8362,
      "recommandations": 8363,
      "##quer": 8364,
      "##éh": 8365,
      "raison": 8366,
      "compéten": 8367,
      "activité": 8368,
      "type": 8369,
      "##dit": 8370,
      "celui": 8371,
      "orient": 8372,
      "sud": 8373,
      "por": 8374,
      "obtenir": 8375,
      "collabor": 8376,
      "##ris": 8377,
      "septe": 8378,
      "##tice": 8379,
      "celle": 8380,
      "##ide": 8381,
      "jo": 8382,
      "##gn": 8383,
      "pratiques": 8384,
      "rap": 8385,
      "souv": 8386,
      "section": 8387,
      "én": 8388,
      "haut": 8389,
      "internationales": 8390,
      "##asse": 8391,
      "soulig": 8392,
      "val": 8393,
      "importance": 8394,
      "étudi": 8395,
      "##grès": 8396,
      "septembre": 8397,
      "##ps": 8398,
      "##médi": 8399,
      "traité": 8400,
      "mme": 8401,
      "ni": 8402,
      "ban": 8403,
      "jan": 8404,
      "100": 8405,
      "conta": 8406,
      "appu": 8407,
      "##ograph": 8408,
      "##osition": 8409,
      "##isi": 8410,
      "hau": 8411,
      "produit": 8412,
      "surveill": 8413,
      "##--": 8414,
      "##jour": 8415,
      "##itul": 8416,
      "26": 8417,
      "arr": 8418,
      "sein": 8419,
      "##lob": 8420,
      "##osé": 8421,
      "##ager": 8422,
      "maj": 8423,
      "ref": 8424,
      "##iné": 8425,
      "détail": 8426,
      "pau": 8427,
      "établissement": 8428,
      "sau": 8429,
      "appar": 8430,
      "communication": 8431,
      "##ception": 8432,
      "aliment": 8433,
      "décisions": 8434,
      "entreprise": 8435,
      "28": 8436,
      "##agne": 8437,
      "social": 8438,
      "##rodu": 8439,
      "##ug": 8440,
      "qua": 8441,
      "##ueur": 8442,
      "soins": 8443,
      "investiss": 8444,
      "devraient": 8445,
      "##ront": 8446,
      "office": 8447,
      "fins": 8448,
      "nécessaires": 8449,
      "prot": 8450,
      "##action": 8451,
      "ontario": 8452,
      "mécanis": 8453,
      "création": 8454,
      "##éré": 8455,
      "représentant": 8456,
      "objectif": 8457,
      "##tage": 8458,
      "##cc": 8459,
      "perman": 8460,
      "alors": 8461,
      "inde": 8462,
      "##cription": 8463,
      "29": 8464,
      "mai": 8465,
      "pén": 8466,
      "##yc": 8467,
      "supplément": 8468,
      "centra": 8469,
      "fournir": 8470,
      "ple": 8471,
      "mondiale": 8472,
      "aucune": 8473,
      "procédure": 8474,
      "27": 8475,
      "directeur": 8476,
      "##atisf": 8477,
      "moyens": 8478,
      "##ossi": 8479,
      "risque": 8480,
      "auprès": 8481,
      "justice": 8482,
      "natur": 8483,
      "accep": 8484,
      "effets": 8485,
      "beau": 8486,
      "frais": 8487,
      "renforcer": 8488,
      "##joint": 8489,
      "##ament": 8490,
      "élaboration": 8491,
      "cultur": 8492,
      "##did": 8493,
      "donné": 8494,
      "celles": 8495,
      "hô": 8496,
      "##érique": 8497,
      "##ffis": 8498,
      "besoin": 8499,
      "lutte": 8500,
      "avril": 8501,
      "web": 8502,
      "proposition": 8503,
      "50": 8504,
      "##pri": 8505,
      "##vier": 8506,
      "##tel": 8507,
      "##tés": 8508,
      "##alités": 8509,
      "gu": 8510,
      "##endre": 8511,
      "juillet": 8512,
      "confl": 8513,
      "facil": 8514,
      ");": 8515,
      "domaines": 8516,
      "discri": 8517,
      "satisf": 8518,
      "souh": 8519,
      "##ression": 8520,
      "aider": 8521,
      "avaient": 8522,
      "candid": 8523,
      "tenu": 8524,
      "##obre": 8525,
      "##ocra": 8526,
      "octobre": 8527,
      "##ène": 8528,
      "nove": 8529,
      "cou": 8530,
      "capacité": 8531,
      "##ali": 8532,
      "##ds": 8533,
      "échang": 8534,
      "promotion": 8535,
      "heures": 8536,
      "##pose": 8537,
      "lorsqu": 8538,
      "négoci": 8539,
      "accomp": 8540,
      "numéro": 8541,
      "pê": 8542,
      "##sie": 8543,
      "économiques": 8544,
      "##lev": 8545,
      "##ose": 8546,
      "forme": 8547,
      "constru": 8548,
      "mandat": 8549,
      "serait": 8550,
      "##fiques": 8551,
      "novembre": 8552,
      "intérêt": 8553,
      "modè": 8554,
      "##hi": 8555,
      "fais": 8556,
      "abs": 8557,
      "vig": 8558,
      "médi": 8559,
      "durable": 8560,
      "régions": 8561,
      "##ell": 8562,
      "environ": 8563,
      "efficace": 8564,
      "hist": 8565,
      "statis": 8566,
      "##até": 8567,
      "moment": 8568,
      "ta": 8569,
      "lar": 8570,
      "sociale": 8571,
      "communi": 8572,
      "##rence": 8573,
      "démocra": 8574,
      "catég": 8575,
      "##tron": 8576,
      "catégor": 8577,
      "oeu": 8578,
      "##odes": 8579,
      "technique": 8580,
      "quatre": 8581,
      "cep": 8582,
      "coûts": 8583,
      "janvier": 8584,
      "##ils": 8585,
      "##ror": 8586,
      "##ann": 8587,
      "fran": 8588,
      "vic": 8589,
      "disc": 8590,
      "all": 8591,
      "répon": 8592,
      "imm": 8593,
      "##tex": 8594,
      "maladi": 8595,
      "bre": 8596,
      "membre": 8597,
      "principes": 8598,
      "fab": 8599,
      "bar": 8600,
      "travaille": 8601,
      "revenu": 8602,
      "autorités": 8603,
      "##rés": 8604,
      "##nd": 8605,
      "but": 8606,
      "souhait": 8607,
      "cher": 8608,
      "gen": 8609,
      "##ets": 8610,
      "##jours": 8611,
      "##indre": 8612,
      "résid": 8613,
      "01": 8614,
      "représentants": 8615,
      "règles": 8616,
      "##ditionn": 8617,
      "préoc": 8618,
      "##arm": 8619,
      "mieux": 8620,
      "##rir": 8621,
      "espè": 8622,
      "vari": 8623,
      "rempl": 8624,
      "##quent": 8625,
      "opération": 8626,
      "chap": 8627,
      "suivi": 8628,
      "collectiv": 8629,
      "1998": 8630,
      "points": 8631,
      "##fications": 8632,
      "grâ": 8633,
      "semb": 8634,
      "armes": 8635,
      "éli": 8636,
      "demandes": 8637,
      "permis": 8638,
      "grâce": 8639,
      "indép": 8640,
      "initiative": 8641,
      "supéri": 8642,
      "progrès": 8643,
      "employés": 8644,
      "sensi": 8645,
      "afrique": 8646,
      "approuv": 8647,
      "risques": 8648,
      "relations": 8649,
      "fai": 8650,
      "conserv": 8651,
      "techniques": 8652,
      "##stru": 8653,
      "accueil": 8654,
      "##ule": 8655,
      "##avant": 8656,
      "nationales": 8657,
      "protoc": 8658,
      "dépar": 8659,
      "toujours": 8660,
      "jou": 8661,
      "mainten": 8662,
      "croissance": 8663,
      "pertin": 8664,
      "commiss": 8665,
      "nationaux": 8666,
      "onu": 8667,
      "1er": 8668,
      "relative": 8669,
      "entra": 8670,
      "québ": 8671,
      "établir": 8672,
      "affec": 8673,
      "cn": 8674,
      "install": 8675,
      "code": 8676,
      "régime": 8677,
      "##tue": 8678,
      "responsabilité": 8679,
      "glob": 8680,
      "journ": 8681,
      "initiatives": 8682,
      "radi": 8683,
      "électron": 8684,
      "##ger": 8685,
      "##xim": 8686,
      "##ification": 8687,
      "##coup": 8688,
      "##atiques": 8689,
      "cinq": 8690,
      "agence": 8691,
      "ligne": 8692,
      "occa": 8693,
      "distrib": 8694,
      "cependant": 8695,
      "promouv": 8696,
      "##uels": 8697,
      "##oli": 8698,
      "protég": 8699,
      "jours": 8700,
      "##cipe": 8701,
      "réseau": 8702,
      "viv": 8703,
      "procédures": 8704,
      "prises": 8705,
      "intéress": 8706,
      "##lais": 8707,
      "##ension": 8708,
      "page": 8709,
      "rem": 8710,
      "fau": 8711,
      "beaucoup": 8712,
      "##aces": 8713,
      "inn": 8714,
      "parc": 8715,
      "##per": 8716,
      "citoy": 8717,
      "gouvernements": 8718,
      "mili": 8719,
      "donner": 8720,
      "viole": 8721,
      "déterminer": 8722,
      "capit": 8723,
      "voy": 8724,
      "##pond": 8725,
      "promouvoir": 8726,
      "simp": 8727,
      "ici": 8728,
      "##jourd": 8729,
      "aujourd": 8730,
      "prévention": 8731,
      "##resse": 8732,
      "##wa": 8733,
      "poste": 8734,
      "vigueur": 8735,
      "##dro": 8736,
      "ép": 8737,
      "assistance": 8738,
      "canadiennes": 8739,
      "##atoire": 8740,
      "compar": 8741,
      "enquête": 8742,
      "comple": 8743,
      "unique": 8744,
      "proc": 8745,
      "statu": 8746,
      "appropri": 8747,
      "identi": 8748,
      "arm": 8749,
      "terror": 8750,
      "##con": 8751,
      "adoption": 8752,
      "40": 8753,
      "##yer": 8754,
      "incid": 8755,
      "##tres": 8756,
      "tel": 8757,
      "intérieur": 8758,
      "##étés": 8759,
      "corres": 8760,
      "##atif": 8761,
      "participants": 8762,
      "couv": 8763,
      "tableau": 8764,
      "human": 8765,
      "##isé": 8766,
      "surveillance": 8767,
      "dit": 8768,
      "aille": 8769,
      "ve": 8770,
      "exigences": 8771,
      "peup": 8772,
      "viol": 8773,
      "##usion": 8774,
      "##dra": 8775,
      "air": 8776,
      "situ": 8777,
      "articles": 8778,
      "référence": 8779,
      "experts": 8780,
      "correspond": 8781,
      "québec": 8782,
      "six": 8783,
      "anglais": 8784,
      "permettre": 8785,
      "##arti": 8786,
      "agit": 8787,
      "ot": 8788,
      "différents": 8789,
      "émission": 8790,
      "indiv": 8791,
      "discrimination": 8792,
      "utiliser": 8793,
      "compos": 8794,
      "veu": 8795,
      "association": 8796,
      "crit": 8797,
      "ailleurs": 8798,
      "ajou": 8799,
      "efficacité": 8800,
      "preu": 8801,
      "défense": 8802,
      "nombreux": 8803,
      "##part": 8804,
      "liv": 8805,
      "fut": 8806,
      "problème": 8807,
      "tels": 8808,
      "sais": 8809,
      "forces": 8810,
      "ue": 8811,
      "fondament": 8812,
      "contex": 8813,
      "capac": 8814,
      "##érences": 8815,
      "nav": 8816,
      "exécution": 8817,
      "adap": 8818,
      "coordination": 8819,
      "arri": 8820,
      "respect": 8821,
      "ach": 8822,
      "font": 8823,
      "souvent": 8824,
      "aspec": 8825,
      "changements": 8826,
      "extra": 8827,
      "aliné": 8828,
      "termes": 8829,
      "famille": 8830,
      "lic": 8831,
      "enfant": 8832,
      "att": 8833,
      "pratique": 8834,
      "subst": 8835,
      "oeuvre": 8836,
      "bl": 8837,
      "60": 8838,
      "scienti": 8839,
      "secteurs": 8840,
      "approche": 8841,
      "exploitation": 8842,
      "partenaires": 8843,
      "séance": 8844,
      "##tient": 8845,
      "décid": 8846,
      "accro": 8847,
      "précéd": 8848,
      "##quels": 8849,
      "parmi": 8850,
      "camp": 8851,
      "roy": 8852,
      "certain": 8853,
      "capacités": 8854,
      "htt": 8855,
      "##ber": 8856,
      "énergie": 8857,
      "poursuiv": 8858,
      "##//": 8859,
      "continuer": 8860,
      "http": 8861,
      "partir": 8862,
      "neu": 8863,
      "##ource": 8864,
      "internationaux": 8865,
      "opp": 8866,
      "://": 8867,
      "##co": 8868,
      "véh": 8869,
      "gaz": 8870,
      "réduire": 8871,
      ".)": 8872,
      "devant": 8873,
      "##gent": 8874,
      "cause": 8875,
      "texte": 8876,
      "##tie": 8877,
      "législation": 8878,
      "collaboration": 8879,
      "véhic": 8880,
      "marchés": 8881,
      "renforce": 8882,
      "examiner": 8883,
      "dossi": 8884,
      "abord": 8885,
      "offre": 8886,
      "gc": 8887,
      "atteint": 8888,
      "amendement": 8889,
      "##érant": 8890,
      "souten": 8891,
      "préoccup": 8892,
      "économie": 8893,
      "prise": 8894,
      "suivants": 8895,
      "201": 8896,
      "particulièrement": 8897,
      "actuellement": 8898,
      "délégation": 8899,
      "##ses": 8900,
      "intention": 8901,
      "atta": 8902,
      "sem": 8903,
      "durée": 8904,
      "nature": 8905,
      "directive": 8906,
      "##ock": 8907,
      "produc": 8908,
      "##........": 8909,
      "internet": 8910,
      "biens": 8911,
      "réduction": 8912,
      "plein": 8913,
      "##lent": 8914,
      "expérience": 8915,
      "extéri": 8916,
      "lois": 8917,
      "considér": 8918,
      "cô": 8919,
      "apport": 8920,
      "quelques": 8921,
      "fév": 8922,
      "intervention": 8923,
      "conséque": 8924,
      "ouest": 8925,
      "débat": 8926,
      "contexte": 8927,
      "chac": 8928,
      "équipe": 8929,
      "provinci": 8930,
      "existe": 8931,
      "disposition": 8932,
      "##uclé": 8933,
      "##odi": 8934,
      "chacun": 8935,
      "territoire": 8936,
      "proch": 8937,
      "plans": 8938,
      "1997": 8939,
      "niveaux": 8940,
      "##aître": 8941,
      "##gré": 8942,
      "concent": 8943,
      "##ienne": 8944,
      "février": 8945,
      "##oit": 8946,
      "réponse": 8947,
      "victi": 8948,
      "désign": 8949,
      "occup": 8950,
      "protocole": 8951,
      "61": 8952,
      "##ow": 8953,
      "net": 8954,
      "##veur": 8955,
      "augmentation": 8956,
      "##eure": 8957,
      "principe": 8958,
      "mondial": 8959,
      "fédéral": 8960,
      "##quelles": 8961,
      "séle": 8962,
      "##lande": 8963,
      "dernier": 8964,
      "figur": 8965,
      "propriété": 8966,
      "égalité": 8967,
      "marchand": 8968,
      "gé": 8969,
      "##ût": 8970,
      "fix": 8971,
      "équip": 8972,
      "planification": 8973,
      "clim": 8974,
      "modifi": 8975,
      "##aï": 8976,
      "norm": 8977,
      "outil": 8978,
      "adopté": 8979,
      "##venir": 8980,
      "concur": 8981,
      "plupart": 8982,
      "expri": 8983,
      "violence": 8984,
      "tir": 8985,
      "recours": 8986,
      "##lam": 8987,
      "renforcement": 8988,
      "nuclé": 8989,
      "02": 8990,
      "##ulg": 8991,
      "juridique": 8992,
      "financière": 8993,
      "##mement": 8994,
      "##issements": 8995,
      "##assi": 8996,
      "créer": 8997,
      "##ions": 8998,
      "terres": 8999,
      "publics": 9000,
      "menti": 9001,
      "##lor": 9002,
      "bon": 9003,
      "réfor": 9004,
      "export": 9005,
      "mun": 9006,
      "##endance": 9007,
      "##tte": 9008,
      "##ron": 9009,
      "attrib": 9010,
      "posi": 9011,
      "##struct": 9012,
      "incl": 9013,
      "suffis": 9014,
      "hommes": 9015,
      "##cr": 9016,
      "chapitre": 9017,
      "technologies": 9018,
      "##avantage": 9019,
      "troisième": 9020,
      "principaux": 9021,
      "maintien": 9022,
      "interpr": 9023,
      "siè": 9024,
      "##ke": 9025,
      "franç": 9026,
      "##atifs": 9027,
      "##amment": 9028,
      "durant": 9029,
      "consul": 9030,
      "##alog": 9031,
      "vérification": 9032,
      "##la": 9033,
      "nécessité": 9034,
      "enseignement": 9035,
      "origine": 9036,
      "fournit": 9037,
      "police": 9038,
      "197": 9039,
      "tour": 9040,
      "##éric": 9041,
      "ti": 9042,
      "méthodes": 9043,
      "trouver": 9044,
      "##gence": 9045,
      "##han": 9046,
      "davantage": 9047,
      "consac": 9048,
      "cinqu": 9049,
      "##oût": 9050,
      "faveur": 9051,
      "postes": 9052,
      "amélioration": 9053,
      "chef": 9054,
      "culture": 9055,
      "anci": 9056,
      "réunions": 9057,
      "compétences": 9058,
      "division": 9059,
      "évent": 9060,
      "vos": 9061,
      "##atéra": 9062,
      "humaines": 9063,
      "##uli": 9064,
      "alinéa": 9065,
      "fabric": 9066,
      "assurance": 9067,
      "obligations": 9068,
      "coordonn": 9069,
      "statut": 9070,
      "milieu": 9071,
      "indic": 9072,
      "sens": 9073,
      "sommes": 9074,
      "##rées": 9075,
      "pourraient": 9076,
      "##ologie": 9077,
      "2009": 9078,
      "uni": 9079,
      "sociaux": 9080,
      "##bilisation": 9081,
      "présenter": 9082,
      "zone": 9083,
      "infrastruct": 9084,
      "priorités": 9085,
      "maintenant": 9086,
      "rendement": 9087,
      "responsabil": 9088,
      "##isc": 9089,
      "attention": 9090,
      "telles": 9091,
      "parce": 9092,
      "35": 9093,
      "importante": 9094,
      "matériel": 9095,
      "mus": 9096,
      "##gés": 9097,
      "fonctions": 9098,
      "individ": 9099,
      "san": 9100,
      "it": 9101,
      "face": 9102,
      "##cessi": 9103,
      "réserve": 9104,
      "technologie": 9105,
      "suivant": 9106,
      "eux": 9107,
      "##qué": 9108,
      "transports": 9109,
      "emb": 9110,
      "mer": 9111,
      "##ève": 9112,
      "répondre": 9113,
      "changement": 9114,
      "autom": 9115,
      "##ity": 9116,
      "carac": 9117,
      "tenir": 9118,
      "seul": 9119,
      "diri": 9120,
      "condu": 9121,
      "##vi": 9122,
      "jud": 9123,
      "04": 9124,
      "communications": 9125,
      "estim": 9126,
      "1996": 9127,
      "##ultatif": 9128,
      "civile": 9129,
      "contribution": 9130,
      "marchandises": 9131,
      "différentes": 9132,
      "énonc": 9133,
      "participer": 9134,
      "##nces": 9135,
      "##irm": 9136,
      "brit": 9137,
      "instruments": 9138,
      "possibilité": 9139,
      "présenté": 9140,
      "introdu": 9141,
      "arch": 9142,
      "téléc": 9143,
      "sélection": 9144,
      "début": 9145,
      "facteurs": 9146,
      "caracté": 9147,
      "français": 9148,
      "adress": 9149,
      "phy": 9150,
      "##oix": 9151,
      "proven": 9152,
      "##ulture": 9153,
      "diffic": 9154,
      "##anger": 9155,
      "lign": 9156,
      "critères": 9157,
      "alle": 9158,
      "calcul": 9159,
      "enregistre": 9160,
      "sex": 9161,
      "indiqué": 9162,
      "innov": 9163,
      "##ed": 9164,
      "mentionn": 9165,
      "sociétés": 9166,
      "zones": 9167,
      "demandé": 9168,
      "##orteur": 9169,
      "##oser": 9170,
      "preuve": 9171,
      "intérêts": 9172,
      "échelle": 9173,
      "organisme": 9174,
      "rendre": 9175,
      "version": 9176,
      "rus": 9177,
      "août": 9178,
      "liens": 9179,
      "##ak": 9180,
      "##ton": 9181,
      "relatifs": 9182,
      "entraî": 9183,
      "connaissances": 9184,
      "distin": 9185,
      "britann": 9186,
      "force": 9187,
      "##tification": 9188,
      "engagement": 9189,
      "charge": 9190,
      "ouvert": 9191,
      "évaluer": 9192,
      "près": 9193,
      "##dition": 9194,
      "touch": 9195,
      "téléph": 9196,
      "entrep": 9197,
      "pauvre": 9198,
      "valeurs": 9199,
      "##cent": 9200,
      "bonne": 9201,
      "consultations": 9202,
      "occasion": 9203,
      "diverses": 9204,
      "suivantes": 9205,
      "anim": 9206,
      "coût": 9207,
      "tradu": 9208,
      "##uelles": 9209,
      "financières": 9210,
      "porte": 9211,
      "##ologique": 9212,
      "##pl": 9213,
      "##iés": 9214,
      "importants": 9215,
      "##né": 9216,
      "série": 9217,
      "##ules": 9218,
      "33": 9219,
      "feu": 9220,
      "colomb": 9221,
      "termin": 9222,
      "##titue": 9223,
      "telle": 9224,
      "adresse": 9225,
      "communautaire": 9226,
      "##lir": 9227,
      "sources": 9228,
      "position": 9229,
      "##tations": 9230,
      "aspects": 9231,
      "avantages": 9232,
      "maxim": 9233,
      "mig": 9234,
      "##lis": 9235,
      "##oph": 9236,
      "travailleurs": 9237,
      "contributions": 9238,
      "ven": 9239,
      "03": 9240,
      "voie": 9241,
      "actions": 9242,
      "envis": 9243,
      "##istan": 9244,
      "émissions": 9245,
      "premières": 9246,
      "multi": 9247,
      "lequel": 9248,
      "fil": 9249,
      "conjoint": 9250,
      "améric": 9251,
      "propositions": 9252,
      "régional": 9253,
      "salle": 9254,
      "contrat": 9255,
      "##cé": 9256,
      "##ttre": 9257,
      "chois": 9258,
      "déli": 9259,
      "##ume": 9260,
      "exclu": 9261,
      "financiers": 9262,
      "major": 9263,
      "sim": 9264,
      "##gement": 9265,
      "##uellement": 9266,
      "clients": 9267,
      "##tawa": 9268,
      "dernière": 9269,
      "admis": 9270,
      "##ablement": 9271,
      "amérique": 9272,
      "accords": 9273,
      "privé": 9274,
      "sh": 9275,
      "constitue": 9276,
      "##ards": 9277,
      "banque": 9278,
      "32": 9279,
      "pauvreté": 9280,
      "langues": 9281,
      "communautés": 9282,
      "minim": 9283,
      "rece": 9284,
      "ville": 9285,
      "##land": 9286,
      "modèle": 9287,
      "élect": 9288,
      "##tm": 9289,
      "##ologiques": 9290,
      "langue": 9291,
      "appliquer": 9292,
      "bo": 9293,
      "commen": 9294,
      "##rain": 9295,
      "terre": 9296,
      "45": 9297,
      "##sieur": 9298,
      "monsieur": 9299,
      "enregist": 9300,
      "électronique": 9301,
      "principal": 9302,
      "##lace": 9303,
      "félic": 9304,
      "##ît": 9305,
      "intégration": 9306,
      "liés": 9307,
      "deme": 9308,
      "interven": 9309,
      "hôtel": 9310,
      "##bilités": 9311,
      "ottawa": 9312,
      "sû": 9313,
      "lab": 9314,
      "disponibles": 9315,
      "construction": 9316,
      "succ": 9317,
      "relatif": 9318,
      "##tenti": 9319,
      "##sique": 9320,
      "prob": 9321,
      "##ade": 9322,
      "auteur": 9323,
      "pêche": 9324,
      "...": 9325,
      "citoyens": 9326,
      "confor": 9327,
      "liées": 9328,
      "##alogue": 9329,
      "claire": 9330,
      "ait": 9331,
      "lignes": 9332,
      "entrée": 9333,
      "portant": 9334,
      "faciliter": 9335,
      "réglementation": 9336,
      "bil": 9337,
      "victimes": 9338,
      "mécanismes": 9339,
      "##iennent": 9340,
      "âge": 9341,
      "contribuer": 9342,
      "source": 9343,
      "judici": 9344,
      "##ira": 9345,
      "guer": 9346,
      "perf": 9347,
      "ministères": 9348,
      "tari": 9349,
      "##ède": 9350,
      "tran": 9351,
      "allem": 9352,
      "opérationn": 9353,
      "##étaire": 9354,
      "##ast": 9355,
      "publiques": 9356,
      "intitul": 9357,
      "aéri": 9358,
      "interd": 9359,
      "iii": 9360,
      "réalisation": 9361,
      "stratégique": 9362,
      "évalu": 9363,
      "établissements": 9364,
      "nombreuses": 9365,
      "##mettre": 9366,
      "plaint": 9367,
      "new": 9368,
      "stratégies": 9369,
      "élaborer": 9370,
      "##ussions": 9371,
      "colombie": 9372,
      "caractéris": 9373,
      "directement": 9374,
      "rappel": 9375,
      "dernières": 9376,
      "##icile": 9377,
      "##inaire": 9378,
      "supplémentaires": 9379,
      "liber": 9380,
      "##équ": 9381,
      "##ida": 9382,
      "mêmes": 9383,
      "description": 9384,
      "permettant": 9385,
      "cherche": 9386,
      "lettre": 9387,
      "uti": 9388,
      "rapid": 9389,
      "autoris": 9390,
      "prog": 9391,
      "sorte": 9392,
      "reçu": 9393,
      "##table": 9394,
      "propre": 9395,
      "mat": 9396,
      "précis": 9397,
      "##mn": 9398,
      "pay": 9399,
      "isra": 9400,
      "mor": 9401,
      "conseils": 9402,
      "55": 9403,
      "espèces": 9404,
      "caract": 9405,
      "université": 9406,
      "reconnaiss": 9407,
      "pn": 9408,
      "##be": 9409,
      "veill": 9410,
      "05": 9411,
      "spécialis": 9412,
      "traditionn": 9413,
      "##ry": 9414,
      "dimin": 9415,
      "contrô": 9416,
      "##……": 9417,
      "résol": 9418,
      "##iction": 9419,
      "investissement": 9420,
      "aurait": 9421,
      "##ret": 9422,
      "transfert": 9423,
      "britannique": 9424,
      "ara": 9425,
      "responsable": 9426,
      "potenti": 9427,
      "autorité": 9428,
      "##ture": 9429,
      "##ork": 9430,
      "suit": 9431,
      "pales": 9432,
      "analys": 9433,
      "là": 9434,
      "riv": 9435,
      "##lue": 9436,
      "terrorisme": 9437,
      "##gée": 9438,
      "agents": 9439,
      "amb": 9440,
      "second": 9441,
      "90": 9442,
      "réguli": 9443,
      "1995": 9444,
      "fonctionnement": 9445,
      "collectivités": 9446,
      "organes": 9447,
      "36": 9448,
      "demander": 9449,
      "##onde": 9450,
      "possibilités": 9451,
      "##ote": 9452,
      "##uit": 9453,
      "protéger": 9454,
      "provis": 9455,
      "définition": 9456,
      "chargé": 9457,
      "##cier": 9458,
      "large": 9459,
      "##icip": 9460,
      "liberté": 9461,
      "avenir": 9462,
      "modifications": 9463,
      "faisant": 9464,
      "reste": 9465,
      "er": 9466,
      "##titude": 9467,
      "conséquent": 9468,
      "##aison": 9469,
      "##ia": 9470,
      "présentation": 9471,
      "tenue": 9472,
      "be": 9473,
      "##por": 9474,
      "commissaire": 9475,
      "observations": 9476,
      "##ié": 9477,
      "délai": 9478,
      "##rage": 9479,
      "recommandation": 9480,
      "tâ": 9481,
      "choix": 9482,
      "##da": 9483,
      "vente": 9484,
      "urgence": 9485,
      "actes": 9486,
      "##rec": 9487,
      "matières": 9488,
      "financier": 9489,
      "dès": 9490,
      "##ates": 9491,
      "comprend": 9492,
      "##tivement": 9493,
      "atteindre": 9494,
      "centres": 9495,
      "##________________": 9496,
      "##êtes": 9497,
      "conclusions": 9498,
      "class": 9499,
      "##iles": 9500,
      "chi": 9501,
      "visite": 9502,
      "adh": 9503,
      "ax": 9504,
      "##yn": 9505,
      "##ennes": 9506,
      "province": 9507,
      "cyc": 9508,
      "jam": 9509,
      "inspec": 9510,
      "médias": 9511,
      "fournisse": 9512,
      "drog": 9513,
      "%)": 9514,
      "vih": 9515,
      "piè": 9516,
      "catégorie": 9517,
      "élevé": 9518,
      "enregistrement": 9519,
      "prévoit": 9520,
      "dessus": 9521,
      "06": 9522,
      "ap": 9523,
      "présence": 9524,
      "art": 9525,
      "aliments": 9526,
      "arb": 9527,
      "faible": 9528,
      "##crit": 9529,
      "##cide": 9530,
      "responsables": 9531,
      "lanc": 9532,
      "41": 9533,
      "statistiques": 9534,
      "consultation": 9535,
      "tri": 9536,
      "rur": 9537,
      "34": 9538,
      "stock": 9539,
      "guerre": 9540,
      "command": 9541,
      "grands": 9542,
      "élément": 9543,
      "avez": 9544,
      "ministres": 9545,
      "phot": 9546,
      "partenariat": 9547,
      "sites": 9548,
      "soumis": 9549,
      "moi": 9550,
      "fré": 9551,
      "structure": 9552,
      "danger": 9553,
      "afric": 9554,
      "immig": 9555,
      "populations": 9556,
      "permettra": 9557,
      "patri": 9558,
      "champ": 9559,
      "échange": 9560,
      "##cs": 9561,
      "manif": 9562,
      "formes": 9563,
      "admissi": 9564,
      "##ms": 9565,
      "agriculture": 9566,
      "amp": 9567,
      "décidé": 9568,
      "coh": 9569,
      "relev": 9570,
      "institut": 9571,
      "rapporteur": 9572,
      "limité": 9573,
      "évolution": 9574,
      "tur": 9575,
      "responsabilités": 9576,
      "##cie": 9577,
      "famili": 9578,
      "dialogue": 9579,
      "fonctionnaires": 9580,
      "chim": 9581,
      "complè": 9582,
      "bou": 9583,
      "da": 9584,
      "méthode": 9585,
      "impact": 9586,
      "soli": 9587,
      "limite": 9588,
      "comptes": 9589,
      "conne": 9590,
      "##aume": 9591,
      "plut": 9592,
      "crimin": 9593,
      "histor": 9594,
      "grandes": 9595,
      "hand": 9596,
      "conflits": 9597,
      "territoires": 9598,
      "importantes": 9599,
      "déch": 9600,
      "proposé": 9601,
      "iss": 9602,
      "##tivité": 9603,
      "##gées": 9604,
      "##anie": 9605,
      "relativement": 9606,
      "continue": 9607,
      "réfug": 9608,
      "priorité": 9609,
      "voyage": 9610,
      "convient": 9611,
      "##sc": 9612,
      "##yl": 9613,
      "signal": 9614,
      "cop": 9615,
      "évén": 9616,
      "prévues": 9617,
      "##tern": 9618,
      "montré": 9619,
      "engagements": 9620,
      "considéra": 9621,
      "continu": 9622,
      "##mun": 9623,
      "france": 9624,
      "##air": 9625,
      "crédit": 9626,
      "élar": 9627,
      "##tait": 9628,
      "iv": 9629,
      "gro": 9630,
      "garantir": 9631,
      "accroître": 9632,
      "##teli": 9633,
      "conven": 9634,
      "moyenne": 9635,
      "paci": 9636,
      "condition": 9637,
      "royaume": 9638,
      "renouv": 9639,
      "modification": 9640,
      "propres": 9641,
      "lit": 9642,
      "saint": 9643,
      "##ettes": 9644,
      "contenu": 9645,
      "quand": 9646,
      "donne": 9647,
      "etc": 9648,
      "##urer": 9649,
      "appare": 9650,
      "fisc": 9651,
      "consultatif": 9652,
      "régionales": 9653,
      "gouvernementales": 9654,
      "mic": 9655,
      "juridiques": 9656,
      "étranger": 9657,
      "##tout": 9658,
      "##étaires": 9659,
      "surtout": 9660,
      "subvention": 9661,
      "coll": 9662,
      "plutôt": 9663,
      "réa": 9664,
      "remb": 9665,
      "minor": 9666,
      "##él": 9667,
      "actuelle": 9668,
      "aura": 9669,
      "##stra": 9670,
      "absence": 9671,
      "avanc": 9672,
      "obligation": 9673,
      "##oth": 9674,
      "##trices": 9675,
      "##rie": 9676,
      "succès": 9677,
      "sida": 9678,
      "envoy": 9679,
      "37": 9680,
      "##ane": 9681,
      "faits": 9682,
      "régionaux": 9683,
      "médec": 9684,
      "##aît": 9685,
      "réforme": 9686,
      "types": 9687,
      "installations": 9688,
      "##istéri": 9689,
      "esc": 9690,
      "prim": 9691,
      "##uide": 9692,
      "##uration": 9693,
      "libre": 9694,
      "négociations": 9695,
      "maladies": 9696,
      "interne": 9697,
      "ateli": 9698,
      "tor": 9699,
      "enfin": 9700,
      "scol": 9701,
      "centrale": 9702,
      "indemn": 9703,
      "estime": 9704,
      "fédérale": 9705,
      "publication": 9706,
      "##ature": 9707,
      "utilisés": 9708,
      "##onie": 9709,
      "##aisse": 9710,
      "utilisé": 9711,
      "##enn": 9712,
      "vise": 9713,
      "rati": 9714,
      "déclaré": 9715,
      "intelle": 9716,
      "tiers": 9717,
      "42": 9718,
      "##issage": 9719,
      "consommation": 9720,
      "modern": 9721,
      "##quoi": 9722,
      "dix": 9723,
      "directives": 9724,
      "département": 9725,
      "handic": 9726,
      "argent": 9727,
      "concurrence": 9728,
      "locaux": 9729,
      "prestations": 9730,
      "ache": 9731,
      "outils": 9732,
      "rémun": 9733,
      "commune": 9734,
      "fich": 9735,
      "pourquoi": 9736,
      "immédi": 9737,
      "##itable": 9738,
      "##antill": 9739,
      "##tir": 9740,
      "réparti": 9741,
      "recherches": 9742,
      "##ices": 9743,
      "harm": 9744,
      "prend": 9745,
      "1994": 9746,
      "impôt": 9747,
      "audi": 9748,
      "va": 9749,
      "candidats": 9750,
      "prévu": 9751,
      "##ctuelle": 9752,
      "##ésion": 9753,
      "municip": 9754,
      "brev": 9755,
      "conflit": 9756,
      "56": 9757,
      "adopter": 9758,
      "##ask": 9759,
      "usage": 9760,
      "écrit": 9761,
      "caractère": 9762,
      "trop": 9763,
      "règlements": 9764,
      "38": 9765,
      "réus": 9766,
      "handicap": 9767,
      "compagn": 9768,
      "##gu": 9769,
      "##acc": 9770,
      "##ah": 9771,
      "vra": 9772,
      "traités": 9773,
      "fort": 9774,
      "provisoire": 9775,
      "del": 9776,
      "élimination": 9777,
      "ensu": 9778,
      "affaire": 9779,
      "##ly": 9780,
      "##ionn": 9781,
      "véhicules": 9782,
      "échantill": 9783,
      "rembours": 9784,
      "##tale": 9785,
      "##gne": 9786,
      "##----": 9787,
      "empê": 9788,
      "dépos": 9789,
      "coup": 9790,
      "écos": 9791,
      "mac": 9792,
      "classi": 9793,
      "militaires": 9794,
      "veiller": 9795,
      "prestation": 9796,
      "spéciale": 9797,
      "##tim": 9798,
      "militaire": 9799,
      "chambre": 9800,
      "distribution": 9801,
      "comprendre": 9802,
      "##bes": 9803,
      "##ox": 9804,
      "main": 9805,
      "commentaires": 9806,
      "vote": 9807,
      "guide": 9808,
      "##ick": 9809,
      "solution": 9810,
      "trouve": 9811,
      "obst": 9812,
      "permanent": 9813,
      "accessi": 9814,
      "espace": 9815,
      "transform": 9816,
      "relig": 9817,
      "revenus": 9818,
      "59": 9819,
      "substances": 9820,
      "mort": 9821,
      "indépend": 9822,
      "constitution": 9823,
      "appuyer": 9824,
      "heure": 9825,
      "pac": 9826,
      "devons": 9827,
      "forum": 9828,
      "certif": 9829,
      "##he": 9830,
      "offrir": 9831,
      "##osph": 9832,
      "palestin": 9833,
      "solutions": 9834,
      "sociales": 9835,
      "marque": 9836,
      "eaux": 9837,
      "etats": 9838,
      "pd": 9839,
      "39": 9840,
      "perspec": 9841,
      "ident": 9842,
      "##ides": 9843,
      "quelque": 9844,
      "##cepti": 9845,
      "58": 9846,
      "##let": 9847,
      "investissements": 9848,
      "##dits": 9849,
      "##èque": 9850,
      "pati": 9851,
      "quo": 9852,
      "##èrent": 9853,
      "70": 9854,
      "démocratique": 9855,
      "clairement": 9856,
      "sommet": 9857,
      "raisons": 9858,
      "--": 9859,
      "généralement": 9860,
      "##tière": 9861,
      "##ouver": 9862,
      "80": 9863,
      "add": 9864,
      "consommateurs": 9865,
      "mess": 9866,
      "missions": 9867,
      "##fié": 9868,
      "pie": 9869,
      "carb": 9870,
      "##moins": 9871,
      "44": 9872,
      "htm": 9873,
      "provinces": 9874,
      "##illez": 9875,
      "réfugiés": 9876,
      "##ran": 9877,
      "provenant": 9878,
      "déclarations": 9879,
      "lesquelles": 9880,
      "##rc": 9881,
      "chine": 9882,
      "essentiel": 9883,
      "étro": 9884,
      "confi": 9885,
      "élarg": 9886,
      "ec": 9887,
      "bâ": 9888,
      "licence": 9889,
      "locales": 9890,
      "paiement": 9891,
      "opin": 9892,
      "95": 9893,
      "##isions": 9894,
      "créé": 9895,
      "phase": 9896,
      "##aments": 9897,
      ".-": 9898,
      "annuel": 9899,
      "sch": 9900,
      "mécanisme": 9901,
      "lesquels": 9902,
      "remer": 9903,
      "57": 9904,
      "75": 9905,
      "suscepti": 9906,
      "##tières": 9907,
      "##onnes": 9908,
      "##agement": 9909,
      "entente": 9910,
      "##vres": 9911,
      "##rou": 9912,
      "impos": 9913,
      "##ulation": 9914,
      "maladie": 9915,
      "micro": 9916,
      "don": 9917,
      "seule": 9918,
      "obstac": 9919,
      "fron": 9920,
      "99": 9921,
      "unité": 9922,
      "ordonn": 9923,
      "lo": 9924,
      "ira": 9925,
      "51": 9926,
      "téléphone": 9927,
      "principales": 9928,
      "figure": 9929,
      "applique": 9930,
      "chiff": 9931,
      "##ath": 9932,
      "rapidement": 9933,
      "##art": 9934,
      "sug": 9935,
      "autorisation": 9936,
      "##étation": 9937,
      "indique": 9938,
      "éviter": 9939,
      "pouvoirs": 9940,
      "favoriser": 9941,
      "ps": 9942,
      "subs": 9943,
      "bel": 9944,
      "##lie": 9945,
      "agent": 9946,
      "##sse": 9947,
      "fabrication": 9948,
      "##cle": 9949,
      "indicateurs": 9950,
      "07": 9951,
      "inclu": 9952,
      "08": 9953,
      "##yp": 9954,
      "professionnels": 9955,
      "gestionn": 9956,
      "veuillez": 9957,
      "apporter": 9958,
      "éché": 9959,
      "ensuite": 9960,
      "poss": 9961,
      "red": 9962,
      "##ma": 9963,
      "quali": 9964,
      "contribu": 9965,
      "combat": 9966,
      "alber": 9967,
      "suis": 9968,
      "intellectuelle": 9969,
      "##wan": 9970,
      "charte": 9971,
      "ul": 9972,
      "##dam": 9973,
      "divulg": 9974,
      "bureaux": 9975,
      "##20": 9976,
      "recru": 9977,
      "tab": 9978,
      "résum": 9979,
      "spécifiques": 9980,
      "pouvez": 9981,
      "bénéfici": 9982,
      "importe": 9983,
      "48": 9984,
      "passer": 9985,
      "alberta": 9986,
      "##ariats": 9987,
      "intervenants": 9988,
      "43": 9989,
      "ministéri": 9990,
      "personnels": 9991,
      "##opie": 9992,
      "rendu": 9993,
      "sciences": 9994,
      "##ette": 9995,
      "apprent": 9996,
      "médicaments": 9997,
      "poursuivre": 9998,
      "##der": 9999,
      "justif": 10000,
      "49": 10001,
      "##pit": 10002,
      "élè": 10003,
      "préparation": 10004,
      "meilleure": 10005,
      "circul": 10006,
      "fl": 10007,
      "quelle": 10008,
      "peuples": 10009,
      "dossier": 10010,
      "dû": 10011,
      "influe": 10012,
      "patrimo": 10013,
      "élections": 10014,
      "##ète": 10015,
      "##çu": 10016,
      "disponible": 10017,
      "urb": 10018,
      "allég": 10019,
      "semble": 10020,
      "suivante": 10021,
      "travailler": 10022,
      "minu": 10023,
      "##bation": 10024,
      "institutionn": 10025,
      "représente": 10026,
      "jap": 10027,
      "##lois": 10028,
      "extérieur": 10029,
      "encourager": 10030,
      "##ultés": 10031,
      "manque": 10032,
      "retour": 10033,
      "innovation": 10034,
      "franc": 10035,
      "mouv": 10036,
      "compétence": 10037,
      "russie": 10038,
      "tend": 10039,
      "diffusion": 10040,
      "raisonn": 10041,
      "hon": 10042,
      "##érés": 10043,
      "terrain": 10044,
      "##ètres": 10045,
      "territori": 10046,
      "pil": 10047,
      "##lex": 10048,
      "caus": 10049,
      "titul": 10050,
      "familles": 10051,
      "patrimoine": 10052,
      "196": 10053,
      "##tine": 10054,
      "rom": 10055,
      "femme": 10056,
      "décou": 10057,
      "##usement": 10058,
      "règle": 10059,
      "pleinement": 10060,
      "##ze": 10061,
      "communautaires": 10062,
      "##alie": 10063,
      "modifier": 10064,
      "suivre": 10065,
      "démar": 10066,
      "nucléaires": 10067,
      "remplac": 10068,
      "siège": 10069,
      "essai": 10070,
      "concl": 10071,
      "##leur": 10072,
      "gens": 10073,
      "dipl": 10074,
      "##dite": 10075,
      "autonom": 10076,
      "vu": 10077,
      "##rants": 10078,
      "classe": 10079,
      "##rité": 10080,
      "1990": 10081,
      "tard": 10082,
      "conformité": 10083,
      "incidence": 10084,
      "employé": 10085,
      "naturelles": 10086,
      "publications": 10087,
      "conservation": 10088,
      "##cupé": 10089,
      "pen": 10090,
      "réseaux": 10091,
      "majorité": 10092,
      "renv": 10093,
      "étrangères": 10094,
      "ora": 10095,
      "mu": 10096,
      "dispose": 10097,
      "déten": 10098,
      "##tez": 10099,
      "élimin": 10100,
      "##cont": 10101,
      "capital": 10102,
      "##riel": 10103,
      "conséquences": 10104,
      "intermédi": 10105,
      "scientifiques": 10106,
      "##qués": 10107,
      "mine": 10108,
      "respecter": 10109,
      "contact": 10110,
      "servir": 10111,
      "##lin": 10112,
      "examiné": 10113,
      "endro": 10114,
      "##blement": 10115,
      "##atoires": 10116,
      "chau": 10117,
      "500": 10118,
      "apprentissage": 10119,
      "humanitaire": 10120,
      "japon": 10121,
      "refus": 10122,
      "remar": 10123,
      "##go": 10124,
      "journal": 10125,
      "##roph": 10126,
      "résultat": 10127,
      "##érieure": 10128,
      "supérieur": 10129,
      "poiss": 10130,
      "trés": 10131,
      "intégra": 10132,
      "ro": 10133,
      "école": 10134,
      "tarif": 10135,
      "tu": 10136,
      "préf": 10137,
      "her": 10138,
      "pan": 10139,
      "instrument": 10140,
      "résolutions": 10141,
      "quatri": 10142,
      "rencont": 10143,
      "expliqu": 10144,
      "asie": 10145,
      "caractéristiques": 10146,
      "connaissance": 10147,
      "##endra": 10148,
      "propor": 10149,
      "harmon": 10150,
      "09": 10151,
      "rapide": 10152,
      "##ary": 10153,
      "##tième": 10154,
      "multip": 10155,
      "47": 10156,
      "##arité": 10157,
      "contract": 10158,
      "quatrième": 10159,
      "propose": 10160,
      "exige": 10161,
      "difficile": 10162,
      "traite": 10163,
      "efficaces": 10164,
      "vér": 10165,
      "officielles": 10166,
      "ouver": 10167,
      "infrastructure": 10168,
      "##isant": 10169,
      "directrices": 10170,
      "difficultés": 10171,
      "constat": 10172,
      "régionale": 10173,
      "mariti": 10174,
      "particuliers": 10175,
      "##erait": 10176,
      "##ith": 10177,
      "privée": 10178,
      "paiements": 10179,
      "étudiants": 10180,
      "##jud": 10181,
      "acte": 10182,
      "juge": 10183,
      "commerciales": 10184,
      "54": 10185,
      "##éc": 10186,
      "##cident": 10187,
      "jamais": 10188,
      "chemin": 10189,
      "communiquer": 10190,
      "##01": 10191,
      "sauf": 10192,
      "##mc": 10193,
      "concep": 10194,
      "62": 10195,
      "encourage": 10196,
      "appor": 10197,
      "constituent": 10198,
      "défis": 10199,
      "diversité": 10200,
      "humains": 10201,
      "clés": 10202,
      "##bi": 10203,
      "mises": 10204,
      "chercheurs": 10205,
      "##va": 10206,
      "judiciaire": 10207,
      "##onto": 10208,
      "accent": 10209,
      "pal": 10210,
      "partenariats": 10211,
      "pacifique": 10212,
      "expos": 10213,
      "allemagne": 10214,
      "infec": 10215,
      "hydro": 10216,
      "client": 10217,
      "96": 10218,
      "##onses": 10219,
      "portée": 10220,
      "tox": 10221,
      "catégories": 10222,
      "stratégiques": 10223,
      "atlant": 10224,
      "passé": 10225,
      "emplois": 10226,
      "principalement": 10227,
      "circon": 10228,
      "consoli": 10229,
      "46": 10230,
      "complément": 10231,
      "réponses": 10232,
      "approbation": 10233,
      "recueil": 10234,
      "autant": 10235,
      "pourcent": 10236,
      "seraient": 10237,
      "ment": 10238,
      "enquêtes": 10239,
      "uniquement": 10240,
      "63": 10241,
      "contac": 10242,
      "rac": 10243,
      "toronto": 10244,
      "puisse": 10245,
      "volont": 10246,
      "étrangers": 10247,
      "el": 10248,
      "petites": 10249,
      "statistique": 10250,
      "circonst": 10251,
      "aéro": 10252,
      "voudra": 10253,
      "réaliser": 10254,
      "##ires": 10255,
      "##mise": 10256,
      "direct": 10257,
      "parents": 10258,
      "##ché": 10259,
      "arrêt": 10260,
      "restric": 10261,
      "##visi": 10262,
      "trésor": 10263,
      "dépôt": 10264,
      "préal": 10265,
      "publié": 10266,
      "ouverture": 10267,
      "agissant": 10268,
      "retra": 10269,
      "##af": 10270,
      "histoire": 10271,
      "travers": 10272,
      "origin": 10273,
      "appré": 10274,
      "compter": 10275,
      "soutenir": 10276,
      "interprétation": 10277,
      "paragraphes": 10278,
      "semaine": 10279,
      "##rendre": 10280,
      "passe": 10281,
      "désar": 10282,
      "tort": 10283,
      "honor": 10284,
      "##dation": 10285,
      "radio": 10286,
      "##tén": 10287,
      "##ting": 10288,
      "pens": 10289,
      "consci": 10290,
      "réce": 10291,
      "##ok": 10292,
      "développer": 10293,
      "scientifique": 10294,
      "récemment": 10295,
      "##ption": 10296,
      "##isent": 10297,
      "##ël": 10298,
      "faites": 10299,
      "##gi": 10300,
      "##rement": 10301,
      "réaff": 10302,
      "connexes": 10303,
      "générales": 10304,
      "dispos": 10305,
      "53": 10306,
      "har": 10307,
      "bal": 10308,
      "rich": 10309,
      "pdf": 10310,
      "conception": 10311,
      "crédits": 10312,
      "étape": 10313,
      "ving": 10314,
      "ordin": 10315,
      "espr": 10316,
      "adéqu": 10317,
      "final": 10318,
      "sexes": 10319,
      "alimentaire": 10320,
      "déposé": 10321,
      "dirige": 10322,
      "##itant": 10323,
      "annonc": 10324,
      "1993": 10325,
      "physique": 10326,
      "plac": 10327,
      "##mpi": 10328,
      "fédération": 10329,
      "orientation": 10330,
      "finances": 10331,
      "transition": 10332,
      "affir": 10333,
      "afg": 10334,
      "gre": 10335,
      "dén": 10336,
      "exposition": 10337,
      "attend": 10338,
      "environnementale": 10339,
      "deven": 10340,
      "pénale": 10341,
      "anti": 10342,
      "douan": 10343,
      "mag": 10344,
      "##ènes": 10345,
      "confiance": 10346,
      "bul": 10347,
      "maintenir": 10348,
      "##ina": 10349,
      "local": 10350,
      "spec": 10351,
      "désarmement": 10352,
      "dim": 10353,
      "petit": 10354,
      "entend": 10355,
      "équili": 10356,
      "européens": 10357,
      "limites": 10358,
      "##aise": 10359,
      "délégations": 10360,
      "bu": 10361,
      "permettent": 10362,
[...]
